'<pad>'
'<EOS>'
'"_'
'_'
', _'
'._'
' '_'
'' _'
'에_'
'을_'
'의_'
'·_'
'이_'
''_'
'…_'
'는_'
' ‘_'
'를_'
'"""_'
'가_'
'은_'
'."_'
'밝혔다_'
' ""_'
'로_'
'있다_'
'’ _'
'한_'
'에서_'
'-_'
'과_'
'고_'
'’_'
'으로_'
'와_'
'% _'
'서_'
'도_'
'전_'
'서울_'
'다_'
'등_'
'인_'
',_'
'했다_'
', '_'
' “_'
'원_'
'수_'
'하고_'
'""_'
'하는_'
'대비_'
'출시_'
'할_'
'1_'
'"'_'
'첫_'
'위한_'
'기_'
'”_'
'%_'
'중_'
'개최_'
'국내_'
'위해_'
'. _'
'해_'
'공시했다_'
'3_'
'연속_'
'2_'
'..._'
'오는_'
'만에_'
'대_'
'올해_'
'것으로_'
'지난_'
'규모_'
'이'
'대통령_'
'지_'
'한다_'
'오후_'
'약_'
', ""_'
'열린_'
'대해_'
'및_'
'최대_'
'0_'
'5_'
'있는_'
'미국_'
''"_'
'4_'
'… _'
'매수_'
'‘_'
'지원_'
'장_'
'된_'
'전일_'
'오전_'
'서비스_'
'것_'
'중국_'
'6_'
'문재인_'
'자_'
'지'
'까지_'
'지난해_'
'됐다_'
'사업_'
'대한_'
'상승_'
'리'
'오'
'시장_'
'수'
'고'
', ‘_'
'기업_'
'며_'
'비'
'사_'
'스_'
'스'
'만_'
'경기_'
'전국_'
'대표_'
'한국_'
'명_'
'에게_'
'한국'
'일본_'
'아'
'관련_'
'7_'
'더_'
' `_'
'대'
'글로벌_'
'간_'
'사'
'기'
'”"_'
'조'
'유'
'시'
'~_'
'면_'
'감독_'
'8_'
'미'
'시_'
'가'
'게_'
'했다고_'
'일_'
'주_'
'제_'
'정'
'회_'
'형_'
'정부_'
'어'
'대상_'
'선_'
'부터_'
'내_'
'부'
'전'
'브랜드_'
'28일_'
'20일_'
'구'
'진행_'
'2017_'
'결정_'
'선정_'
'나_'
'장관_'
'함께_'
'진_'
'세_'
'부산_'
'보'
'` _'
'도'
'일'
'모바일_'
'성_'
'자'
'이다_'
'후_'
'19일_'
'트럼프_'
'원'
'호_'
'판매_'
'통해_'
'최근_'
'계약_'
'22일_'
'회장_'
'우'
'인'
'동_'
'이벤트_'
'23일_'
'서'
'미_'
'공개_'
'美_'
'…""_'
'3'
'문_'
'성'
'가장_'
'24일_'
'2018_'
'시즌_'
'상'
'나'
'권_'
'비_'
'단_'
'재'
'장'
'용_'
'1위_'
'&_'
'억원_'
'26일_'
'1일_'
'17일_'
'야_'
'실시_'
'신규_'
'상_'
'북한_'
'개발_'
'모'
'한'
'오늘_'
'신'
'9_'
'4일_'
'증가_'
'다'
'강'
'21일_'
'무'
'…"" _'
'30일_'
'화'
'투자_'
'세계_'
'새_'
'된다_'
'27일_'
'확대_'
'차_'
'보다_'
'14일_'
'5일_'
'지역_'
'맞아_'
'제'
'소'
'18일_'
'13일_'
'발표_'
'돌파_'
'12일_'
'실적_'
'삼성전자_'
'마'
'7일_'
'노'
'추진_'
'주'
'적_'
'세'
'체결_'
'안'
'라'
'동'
'내년_'
'개_'
'달러_'
'로'
'6일_'
'안_'
'상승한_'
'국회_'
'2일_'
'하락_'
'피'
'8일_'
' -_'
'최고_'
'규모의_'
'하'
'총_'
'양'
'경기도_'
'산'
'16일_'
'트_'
'15일_'
'해야_'
'점_'
'이상_'
'영업이익_'
'식_'
'2'
'연_'
'불'
'9일_'
'서울'
'29일_'
'11일_'
'조_'
'.._'
'박'
'구_'
'25일_'
'10일_'
'현재_'
'포'
'치'
'디'
'모집_'
'게임_'
'그룹_'
'진'
'선'
'코'
'명'
'날_'
'"‘_'
'국제'
'해'
'신임_'
'라며_'
'대회_'
'추가_'
'···_'
'이번_'
'던_'
'경찰_'
'1'
'타'
'최초_'
'연'
'바'
'군_'
'LG_'
'했습니다_'
'티'
'검찰_'
'화_'
'역대_'
'습니다_'
'삼성_'
'한다고_'
'초'
'운영_'
'KT_'
'코스피_'
'만'
'당_'
'공급_'
'“_'
'하락한_'
'영'
'내'
'나타났다_'
'공식_'
'투자의견을_'
'앞두고_'
'행사_'
'또_'
'들이_'
'드_'
'3일_'
'파'
'차'
'인천_'
'억_'
'어_'
'두_'
'교육_'
'가운데_'
'2019_'
'센터_'
'두'
'남'
'트'
'라_'
'될_'
'?_'
'아파트_'
'법_'
'문'
'다고_'
'최'
'수상_'
'기념_'
'강화_'
'아_'
'31일_'
''…_'
'위_'
'외국인_'
'오픈_'
'서울시_'
'김'
'조사_'
'2017년_'
'시작_'
'단'
'드'
'대상으로_'
'중'
'이날_'
'선발_'
'경'
'통_'
'온라인_'
'배'
'천'
'여'
'설_'
'사상_'
'방'
'관'
'호'
'조국_'
'그'
'팀_'
'반'
'대통령이_'
'광주_'
'10_'
'실'
'면서_'
'리_'
'학교_'
'코리아_'
'두산_'
'건_'
'이후_'
'세계'
'', _'
'?"_'
'""…_'
'S_'
'의원_'
'부_'
'백'
'되는_'
'SK_'
'"" _'
'황'
'현_'
'코스닥_'
'우_'
'다시_'
'펀드_'
'카'
'체결했다고_'
'영_'
'민_'
'내달_'
'4'
'2018년_'
'태'
'저'
'여성_'
'산업_'
'발'
'분_'
' _'
'할인_'
'하반기_'
'진출_'
'임'
'올_'
'여_'
'관_'
'공'
'경제'
'ㆍ'
'청와대_'
'발표했다_'
'거'
'토'
'제주_'
'위'
'역_'
'심'
'물'
'현대'
'부문_'
'달_'
'교'
'中_'
'이어_'
'레'
'당'
'감'
'1분기_'
'  _'
'해외_'
'없다_'
'없는_'
'선수_'
'민'
'들_'
'상반기_'
'에도_'
'에'
'석_'
'반도체_'
'년_'
'분'
'방문_'
'모두_'
'금'
'4월_'
'이라고_'
'시스템_'
'매출_'
'롯데_'
'계'
'LG전자_'
'업_'
'승_'
'부산'
'대한민국_'
'광'
'결정했다고_'
'/_'
'투'
'주식_'
'자유한국당_'
'식'
'라고_'
'축제_'
'전남_'
'여의도_'
'업체_'
'돼_'
'…'_'
'5'
'2019년_'
'정부가_'
'용'
'물_'
'길_'
'기업'
'금_'
'교육'
'`_'
'2년_'
'지역'
'일자리_'
'매'
'따르면_'
'교수_'
'C_'
'윤'
'울산_'
'승'
'산업'
'박근혜_'
'르'
'대구_'
'기자_'
'피해_'
'전일대비_'
'월_'
'야'
'아울러_'
'말_'
'때_'
'9월_'
'온_'
'베트남_'
'급_'
'A'
'투자'
'크'
'치_'
'실_'
'더'
'내놓았다_'
'10월_'
'하게_'
'포럼_'
'큰_'
'취득_'
'시설_'
'송'
'미세먼지_'
'6'
'2분기_'
'권'
'결과_'
'” _'
'’"_'
'지분_'
'작년_'
'소_'
'설'
'삼'
'기관_'
'감소_'
'해외'
'고객_'
'3분기_'
'회의_'
'제시하였고_'
'수출_'
'선임_'
'보유_'
'병'
'목표주가로는_'
'루'
'대선_'
'7'
'청_'
'인수_'
'배_'
'따라_'
'기록_'
'A_'
'히_'
'北_'
'프리미엄_'
'특별'
'최초로_'
'전국'
'순'
'형'
'평균_'
'의혹_'
'계약을_'
'3월_'
'한화_'
'주요_'
'의'
'생'
'사장_'
'기준_'
'종'
'전망_'
'외'
'안전'
'대전_'
'국_'
'과'
'경북_'
'개막_'
'플랫폼_'
'암'
'석'
'문화'
'관리_'
'개최한다고_'
'후'
'혐의로_'
'인기_'
'아이'
'번째_'
'더불어민주당_'
'기술_'
'기대_'
'관련해_'
'S'
'준'
'있습니다_'
'에는_'
'약'
'말했다_'
'거래소_'
'철_'
'지원'
'적으로_'
'린_'
'도입_'
'대학_'
'관리'
'개선_'
'6월_'
'1년_'
'통'
'키'
'진행한다고_'
'주가_'
'여성'
'씨_'
'버'
'급'
'군'
'거래되고_'
'환_'
'증'
'전달_'
'입'
'신청_'
'수사_'
'러'
'공사_'
'공급계약_'
'겠다_'
'T'
'5월_'
'전년比_'
'장관이_'
'입니다_'
'알'
'세월호_'
'롯데'
'등을_'
'난'
'’, _'
'SK'
'3년_'
'케이'
'창'
'지만_'
'즈_'
'이벤트를_'
'원을_'
'부동산_'
'러시아_'
'국가'
'경기'
'확정_'
'티_'
'진행한다_'
'애'
'사진_'
'마감_'
'들의_'
'니'
'기반_'
'기로_'
'개'
'8월_'
'11월_'
'프로그램_'
'터_'
'직'
'준_'
'위원회_'
'열'
'병원_'
'면'
'000원을_'
'우승_'
'요'
'베'
'바이오'
'국민'
'가구_'
'∼_'
'\u_'
'D_'
'4분기_'
'학'
'제품_'
'정보_'
'정보'
'정_'
'산_'
'분양_'
'네'
'"“_'
'터'
'추'
'중인_'
'중소기업_'
'정책_'
'은행_'
'손'
'받은_'
'대구'
'경남_'
'8'
'행'
'출시했다고_'
'초_'
'청'
'중단_'
'적'
'왕'
'상장_'
'나선다_'
'기술'
'12_'
'훈_'
'하기로_'
'평'
'최_'
'업'
'새로운_'
'마지막_'
'대표가_'
'건'
'BUY_'
'AI_'
'50'
'2월_'
'10'
'참여_'
'인상_'
'요_'
'속_'
'보통주_'
'데이_'
'네이버_'
'국'
'가격_'
'p_'
'G'
'혐의_'
'항'
'째_'
'중구_'
'자동차_'
'온'
'업무협약_'
'새'
'봉'
'뒤_'
'되고_'
'논란_'
'나왔다_'
'격'
'게임'
'강원_'
'간'
'→_'
'2차_'
'20_'
'11_'
'허'
'프'
'집_'
'전북_'
'재_'
'우리_'
'생활'
'상장주식수_'
'살'
'분야_'
'바른정당_'
'문제_'
'대표이사_'
'다음달_'
'금융'
'P'
'5G_'
'홈런_'
'충북_'
'일부_'
'운'
'신_'
'성장_'
'달'
'단체_'
'다음_'
'근'
'경영'
'日_'
'TV_'
'=_'
'하면_'
'하다_'
'탈'
'총'
'청년'
'채'
'지난달_'
'져_'
'열린다_'
'연구'
'역'
'블록체인_'
'볼_'
'변'
'받는_'
'대한'
'구속_'
'공동_'
'계_'
'30_'
'평가_'
'쿠'
'채용_'
'월'
'복_'
'립'
'리그_'
'러_'
'김_'
'금리_'
'경_'
'B'
'5년_'
'협약_'
'하며_'
'출범_'
'주당_'
'정치'
'인증_'
'운_'
'예'
'삼성'
'별_'
'발생_'
'메'
'론_'
'나섰다_'
'공공'
'희_'
'현'
'평창_'
'판'
'출발_'
'직접_'
'증시_'
'중국'
'재단_'
'없이_'
'본'
'복'
'건설_'
'M_'
':_'
', `_'
'협회_'
'현금배당_'
'표'
'원에_'
'스포츠'
'상품_'
'본격_'
'변경_'
'경제_'
'개발'
'현대차_'
'혁신'
'차량_'
'장비_'
'이낙연_'
'은'
'악'
'실시한다고_'
'북'
'림'
'대책_'
'곳_'
'강세_'
'美'
'R'
'9'
'환경'
'하기_'
'판매'
'채_'
'제주'
'제공_'
'점'
'전환_'
'울산'
'올림픽_'
'연장_'
'어린이_'
'속'
'서비스를_'
'사업'
'사고_'
'발견_'
'모든_'
'4차_'
'후보_'
'집'
'질_'
'지정_'
'중앙'
'인사_'
'었다_'
'승리_'
'수주_'
'목'
'만원_'
'데'
'다는_'
'가능성_'
'훈련_'
'현장_'
'팔'
'타_'
'캠페인_'
'정책'
'적인_'
'이달_'
'우려_'
'업계_'
'시간_'
'소식에_'
'사건_'
'말'
'데_'
'논의_'
'기록했다_'
'광주'
'R_'
'회'
'징역_'
'전년_'
'장이_'
'성공_'
'브'
'발행_'
'박람회_'
'내일_'
'금융_'
'골_'
'감독이_'
'1주당_'
'16'
'15_'
'탄'
'참석한_'
'좋은_'
'전했다_'
'전기'
'앱_'
'아시아_'
'밀'
'들'
'되'
'길'
'구조'
'계획_'
'각'
'+_'
'추석_'
'촉구_'
'체'
'청년_'
'접수_'
'사회'
'사망_'
'많은_'
'대학'
'대통령의_'
'공동'
'것은_'
'검사_'
'G_'
'18_'
'홍'
'행사를_'
'항공'
'질'
'직원_'
'주택'
'없어_'
'매각_'
'날'
'관광'
'U_'
'K'
'협력_'
'행정'
'특'
'처음으로_'
'전자'
'원내대표_'
'사드_'
'미래'
'국민의당_'
'개선'
'간담회_'
'F'
'50_'
'4년_'
'200'
'희'
'판_'
'크_'
'지수_'
'이동'
'열_'
'불법_'
'니_'
'뉴스_'
'난_'
'25'
'20'
', “_'
'후보자_'
'현장'
'편'
'청소년_'
'점검_'
'전용_'
'의회_'
'영국_'
'앤'
'법무부_'
'매출액_'
'라는_'
'다양한_'
'그_'
'규_'
'공공기관_'
'결'
'것이다_'
'X'
'O'
'1월_'
'13_'
'텍_'
'참가_'
'집중_'
'즈'
'워'
'울'
'선정됐다_'
'막'
'라이'
'도시'
'국민_'
'과학'
'거래량은_'
'..."_'
'%↑"_'
'활동_'
'행_'
'합니다_'
'페'
'태풍_'
'콘텐츠_'
'지구_'
'의원이_'
'성장'
'부상_'
'방송_'
'바이오_'
'무료_'
'몰'
'대전'
'국회에서_'
'구축_'
'60'
'하지_'
'투어_'
'출신_'
'총리_'
'조성_'
'이전_'
'생산'
'미사일_'
'높은_'
'경신_'
'검토_'
'건설'
'H'
': _'
'32'
'합'
'포항_'
'특별관계자_'
'출시한다고_'
'창립_'
'지방'
'자금_'
'이는_'
'올'
'오_'
'영입_'
'시대_'
'스타'
'보_'
'법'
'망'
'낸_'
'기자회견_'
'국립'
'공모_'
'개최한다_'
'같은_'
'N'
'7월_'
'52주_'
'30'
'15'
'12'
'10명_'
' - _'
' '
'화재_'
'프로'
'캠프_'
'카드_'
'충'
'종합'
'유럽_'
'위원장_'
'외_'
'예정이다_'
'에스'
'시행_'
'스마트폰_'
'설치_'
'설립_'
'본부_'
'버스_'
'받았다_'
'돈_'
'대응_'
'는데_'
'누적_'
'L'
'D'
'B_'
'회장이_'
'환자_'
'화장품_'
'참석_'
'지분변동_'
'증_'
'적정수준_'
'영화_'
'열어_'
'엘'
'술'
'사용'
'부회장_'
'반_'
'모델_'
'덕'
'대만_'
'대규모_'
'거래_'
'V'
'LH_'
'E'
'혁신_'
'하이'
'친'
'출시했다_'
'인도_'
'예술'
'였다_'
'엄'
'손흥민_'
'설명회_'
'빈'
'범_'
'밝혔습니다_'
'박_'
'문화_'
'란'
'대학생_'
'남성_'
'꺾고_'
'기간_'
'글로벌'
'C'
'21'
'11'
'!"_'
'호텔_'
'함'
'한국당_'
'커'
'주택_'
'정부의_'
'적용_'
'인공지능_'
'외교부_'
'완료_'
'열리는_'
'별'
'려'
'등의_'
'등'
'동안_'
'도시_'
'뉴'
'겸_'
'M'
'25_'
'100'
'환'
'체험'
'창업'
'지속_'
'있다고_'
'살_'
'복지'
'병_'
'방안_'
'방_'
'류현진_'
'래'
'대통령은_'
'단독_'
'공장_'
'0'
'희망'
'확인_'
'평가'
'충남_'
'출'
'정부'
'절'
'전기차_'
'잘_'
'영업익_'
'엔_'
'수출'
'소재_'
'받고_'
'반대_'
'도전_'
'뉴_'
'농'
'년'
'국내'
'고용'
'경남'
'X_'
'13'
' …"" _'
'홍준표_'
'학생_'
'프로모션_'
'취임_'
'추가'
'최저임금_'
'지급_'
'주제로_'
'월드컵_'
'엠'
'엔'
'스마트'
'사전예약_'
'범'
'배우_'
'력'
'려_'
'담'
'근_'
'국제_'
'골'
'경찰에_'
'게'
'강원도_'
'23'
'22'
'히'
'휴'
'활성화_'
'환율_'
'홍콩_'
'협의회_'
'했던_'
'페스티벌_'
'파_'
'콘'
'케'
'카_'
'졌다_'
'전문_'
'왜_'
'앞으로_'
'안타_'
'시민'
'셀'
'무역'
'명을_'
'마련_'
'류'
'독일_'
'독'
'넥센_'
'기아차_'
'교통'
'가상화폐_'
'文대통령_'
'10년_'
'키움_'
'최고'
'직_'
'장을_'
'이재용_'
'우수_'
'영향_'
'여행'
'여야_'
'업무협약을_'
'앞서_'
'소상공인_'
'세미나_'
'빅'
'모집한다고_'
'모_'
'명이_'
'대표팀_'
'달성_'
'다이'
'김정은_'
'교_'
'공모전_'
'3명_'
'2명_'
'12월_'
'협력'
'폐'
'패'
'층_'
'지진_'
'조선'
'장애인_'
'유승민_'
'욱_'
'여름_'
'업데이트_'
'억'
'신규'
'시장'
'선거'
'생산_'
'빈_'
'법원_'
'발전'
'받는다_'
'바_'
'미래_'
'린'
'누'
'공급'
'거래가_'
'각_'
'文_'
'효과_'
'효'
'해양'
'필'
'프_'
'특별_'
'커_'
'철'
'천_'
'주민_'
'조사'
'제약_'
'육성_'
'원의_'
'요구_'
'에너지_'
'않은_'
'아닌_'
'신고가_'
'선에서_'
'선물_'
'비상'
'볼'
'미국'
'돌'
'대표'
'대출_'
'김동연_'
'광고_'
'걸'
'건강'
'W'
'I'
'40'
'황교안_'
'한화'
'프로야구_'
'포인트_'
'퍼'
'태_'
'체_'
'제도_'
'제2'
'위치한_'
'월드'
'씨'
'식품'
'숙'
'바이'
'민간'
'로부터_'
'단지_'
'남북_'
'기존_'
'기부_'
'경찰이_'
'18'
'16_'
'현대_'
'함께하는_'
'하루_'
'풍'
'평화'
'친_'
'축'
'최다_'
'청구_'
'종로구_'
'전력'
'임직원_'
'인천'
'이용'
'이상'
'월드_'
'예비'
'열려_'
'에서는_'
'암_'
'안철수_'
'슈퍼'
'순매수_'
'벌'
'방송'
'마_'
'디_'
'대형_'
'기념'
'거래'
'▲ _'
'e'
'P_'
'38'
'표_'
'찬'
'증권'
'주민'
'주년_'
'전략'
'와'
'연다_'
'았다_'
'실시한다_'
'스타트업_'
'션_'
'섭_'
'법인_'
'받아_'
'됐습니다_'
'글'
'국방부_'
'공무원_'
'견'
'강화'
'갈'
'6년_'
'50대_'
'2억원_'
'17_'
'%↓"_'
'회사_'
'활용_'
'한미_'
'한다는_'
'통일'
'카카오_'
'참석해_'
'참'
'착수_'
'제품'
'제이'
'제1'
'전망이다_'
'임명_'
'유엔_'
'옥'
'오른_'
'에이'
'안전_'
'술_'
'블'
'불법'
'보도했다_'
'론칭_'
'돌입_'
'도로_'
'다른_'
'너'
'긴급_'
'기념해_'
'고속도로_'
'개최했다고_'
'개최했다_'
'…“_'
'’…_'
'70'
'5년간_'
'29'
'22_'
'확보_'
'향'
'한국인_'
'하면서_'
'편_'
'코리아'
'처'
'창업_'
'중소기업'
'준비_'
'죽'
'정기'
'전략_'
'재건축_'
'자회사_'
'있어_'
'익'
'유통'
'유_'
'운영하는_'
'우수'
'우리은행_'
'우리'
'여자_'
'아니다_'
'신한금융투자_'
'솔루션_'
'불_'
'부동산'
'보험_'
'별세_'
'번'
'방문해_'
'마을'
'료_'
'력_'
'란_'
'락'
'등이_'
'도널드_'
'대폭_'
'대로_'
'금지_'
'계획'
'개인_'
'K_'
'KIA_'
'49'
'24_'
'17'
'14_'
'학교'
'하지만_'
'하나'
'피해'
'플러스_'
'프로젝트_'
'품_'
'테'
'키로_'
'취소_'
'축구'
'체험_'
'찬_'
'줄_'
'정식_'
'재개_'
'작'
'인권'
'육'
'위기_'
'완'
'영업이익이_'
'여행_'
'액_'
'신제품_'
'스포츠_'
'마케팅_'
'래_'
'따른_'
'디자인_'
'듯_'
'대통령과_'
'단체'
'나눔_'
'공연_'
'공략_'
'경영_'
'것을_'
'각각_'
'가족'
'靑_'
'i'
'MOU_'
'E_'
'28'
'27'
'회담_'
'홈'
'혼'
'투수_'
'카카오'
'최대주주_'
'증가한_'
'준비'
'조성'
'잇따라_'
'일본'
'율_'
'유치_'
'원으로_'
'운동_'
'염'
'업무'
'식을_'
'스마트_'
'수사'
'색'
'부산시_'
'본_'
'복귀_'
'발생한_'
'민주당_'
'맞춤형_'
'맞'
'디지털_'
'두산'
'동아'
'눈_'
'김영'
'극'
'귀'
'교수가_'
'공개'
'37'
'31'
'21_'
'2016년_'
'19_'
'100_'
'%, _'
'훈'
'호주_'
'혁_'
'항_'
'한국거래소_'
'통합'
'통과_'
'탄_'
'키_'
'출전_'
'추진'
'처럼_'
'찾아_'
'차기_'
'지정'
'지원사업_'
'제시하였다_'
'제3'
'잡'
'이루어지고_'
'음'
'오픈'
'에어'
'에너지'
'언'
'액'
'신작_'
'승인_'
'스타_'
'슈'
'수준_'
'상품'
'브라질_'
'북_'
'미래에셋대우_'
'매장_'
'률_'
'따'
'됐다고_'
'노조_'
'규'
'계열사_'
'검찰이_'
'강남구_'
'감독은_'
'가입_'
'가능_'
'vs_'
'o'
'T_'
'CJ_'
'1명_'
'후원_'
'행사'
'행복'
'프랑스_'
'코_'
'친환경_'
'측_'
'초청_'
'채용'
'차관_'
'주말_'
'주는_'
'정상회담_'
'전북'
'전문'
'이에_'
'이어'
'이를_'
'음악'
'예정_'
'어린이'
'신청'
'신고_'
'시험_'
'시티_'
'시장에_'
'선정됐다고_'
'서비스'
'상승'
'북한의_'
'발전_'
'림_'
'레이'
'노_'
'낙'
'까_'
'국가_'
'구매_'
'과정_'
'공개했다_'
'경쟁_'
'개혁_'
'강_'
'm'
'20대_'
'10대_'
'특히_'
'츠'
'집계됐다_'
'조직'
'전체_'
'적발_'
'이유_'
'응'
'유상증자_'
'올해의_'
'예상_'
'연구원_'
'연구_'
'업무_'
'수가_'
'생_'
'상대로_'
'삼성전자가_'
'사용_'
'분양'
'보호'
'보험'
'번_'
'목표가_'
'마무리_'
'대출'
'대체로_'
'남북'
'광고'
'공원_'
'공급계약을_'
'것이_'
'거_'
'개인'
'가을_'
'LG유플러스_'
'52'
'30분_'
'26'
'1차_'
'1등_'
'흥'
'환경부_'
'협상_'
'필리핀_'
'폭'
'포_'
'최순실_'
'차세대_'
'차량'
'주식'
'전환'
'자금'
'이틀_'
'이었다_'
'우승'
'왕_'
'연간_'
'에서도_'
'앞둔_'
'신설_'
'시험'
'시리즈_'
'수도권_'
'소비자'
'성공'
'서울대_'
'사전_'
'비트코인_'
'보고_'
'발_'
'몸'
'많이_'
'만든_'
'디스플레이_'
'들을_'
'들에게_'
'득점_'
'돈'
'담은_'
'는다_'
'내년부터_'
'기자'
'기를_'
'급증_'
'규제_'
'구글_'
'관광_'
'계약'
'가치_'
'm_'
'48'
'40대_'
'40_'
'30대_'
'2천'
'1천'
'회복_'
'혜'
'학생'
'책'
'주를_'
'좌'
'종_'
'존'
'장에_'
'인상'
'인사'
'이용_'
'이나_'
'은행'
'위안부_'
'위반_'
'영업'
'열고_'
'연내_'
'앞'
'아시아'
'아동'
'씩_'
'심_'
'수원'
'수도_'
'상장'
'사업에_'
'브랜드'
'보이고_'
'보고서_'
'백_'
'배치_'
'머'
'렌'
'량_'
'등록_'
'등록'
'동영상_'
'대한항공_'
'대상'
'노동'
'남자_'
'기획'
'기자회견을_'
'기록했다고_'
'기금_'
'국민연금_'
'관한_'
'韓_'
'U'
'F_'
'80'
'14'
'활용한_'
'확산_'
'혈'
'헌'
'필요_'
'푸'
'추신수_'
'최종_'
'징'
'조정'
'제작_'
'자신의_'
'임원_'
'익_'
'이승'
'의료'
'예방_'
'연휴_'
'야구'
'쓰'
'시설'
'수입_'
'수원_'
'소송_'
'서초구_'
'사업을_'
'비가_'
'방안을_'
'발언하는_'
'맞이_'
'론'
'락_'
'근로자_'
'교육청_'
'공_'
'경찰'
'결제_'
'”…_'
'NC_'
'5명_'
'24'
'1호_'
'핵심_'
'한국투자증권_'
'한국은행_'
'피_'
'품'
'패키지_'
'통신'
'통산_'
'크게_'
'치료제_'
'취'
'총장_'
'처음_'
'장기'
'있다는_'
'인하_'
'인수'
'인사를_'
'유니'
'운영'
'용품_'
'영업손실_'
'압수수색_'
'신한은행_'
'슬'
'숨진_'
'수입'
'선언_'
'서는_'
'살충제_'
'사실상_'
'보호_'
'보수_'
'목표_'
'면세점_'
'맞은_'
'망_'
'만의_'
'마을_'
'든_'
'도로'
'대학교_'
'나눔'
'꽃'
'구조_'
'고객'
'경신했다_'
'검사'
'거래량_'
'감_'
'SK텔레콤_'
'KB증권_'
'2위_'
'19'
' = _'
'홍_'
'호텔에서_'
'하겠다_'
'하_'
'패션'
'퇴'
'콜'
'축구_'
'최저_'
'최대'
'처리_'
'참석하는_'
'지원을_'
'주거'
'존_'
'조기_'
'제작'
'전환사채_'
'전면_'
'재정'
'자동차'
'인터넷_'
'육성'
'운용'
'연기_'
'아프리카돼지열병_'
'시민_'
'슨_'
'수익률_'
'쇼핑_'
'소환_'
'세요_'
'산업혁명_'
'사랑'
'브_'
'보인다_'
'발행'
'바른미래당_'
'미국의_'
'못'
'마감했다_'
'류_'
'랩'
'동부'
'늘어_'
'나서_'
'교사_'
'것이라고_'
'건물_'
'강원'
'값_'
'감사'
'가는_'
'日'
'…‘_'
't'
'TV'
'LG'
'I_'
'7억원_'
'4명_'
'- _'
'현금배당을_'
'한반도_'
'프리'
'페어_'
'패_'
'특검_'
'클'
'케어_'
'침'
'첫날_'
'참가자_'
'지하철_'
'중이다_'
'주가가_'
'전년대비_'
'자가_'
'으로부터_'
'윤_'
'유럽'
'움_'
'없'
'안보'
'실적이_'
'숨'
'속도_'
'설치'
'선고_'
'새해_'
'사회_'
'사가_'
'부진_'
'보장'
'모바일게임_'
'로봇_'
'령'
'량'
'등에_'
'동기_'
'돌파했다_'
'대북_'
'내부'
'나누고_'
'기사'
'권한대행_'
'구속영장_'
'공시'
'개장_'
'감독'
'가족_'
'外_'
'Q'
'5개_'
'53'
'35'
'2만'
'1억원_'
'10시_'
'...""_'
' ㈜_'
'확대'
'핵'
'풀'
'폰_'
'포스코_'
'폐지_'
'팅_'
'통한_'
'타자_'
'클럽_'
'최고치를_'
'처리'
'집회_'
'제출_'
'정부는_'
'접'
'전용'
'전남'
'잔'
'이정'
'이재'
'이란_'
'예방'
'여전히_'
'여자'
'아카데미_'
'신고'
'스는_'
'스가_'
'소속_'
'새롭게_'
'빌'
'부총리_'
'부인_'
'봄_'
'밤_'
'박원순_'
'미디어'
'르_'
'라인_'
'뒤'
'당일_'
'농협_'
'농업'
'노인'
'넘어_'
'넘'
'김태'
'긴급'
'기에_'
'금지'
'국정'
'과학기술'
'경우_'
'경북'
'결국_'
'검'
'개혁'
'개관_'
'갖고_'
'가구'
'n'
'RPG_'
'MMORPG_'
'FC_'
'9시_'
'76'
'62'
'3년'
'27_'
'휘'
'화성_'
'현지_'
'할'
'한일_'
'학_'
'하라_'
'편의점_'
'팬'
'파크_'
'특허_'
'투입_'
'토_'
'코리아는_'
'츠_'
'최고의_'
'체계_'
'청주_'
'지원한다_'
'지는_'
'주의_'
'제안_'
'점을_'
'전시회_'
'전문기업_'
'장애_'
'자사주_'
'임상_'
'인천공항_'
'이해찬_'
'유지_'
'위원_'
'외교'
'와의_'
'올림픽'
'연결_'
'에디션_'
'시상식_'
'숙_'
'수주'
'손_'
'셀_'
'성추행_'
'성금_'
'선물세트_'
'선거_'
'상승세_'
'사장이_'
'빛'
'비용_'
'변동_'
'범죄'
'배당_'
'맥'
'례'
'딸_'
'디자인'
'독립'
'나경원_'
'교실_'
'골든'
'계속_'
'개편_'
'강조했다_'
'강남_'
'갈_'
'中'
'kt_'
'NH투자증권_'
'LG전자가_'
'KBO_'
'BMW_'
'65'
'3차_'
'34'
'300'
'1위를_'
'0원_'
'훈련'
'후보'
'활동을_'
'환경_'
'플레이'
'평창동계올림픽_'
'펀드'
'탄핵_'
'키움증권_'
'콤'
'컬렉션_'
'컨'
'철도'
'챔피언십_'
'창출_'
'창원'
'진다_'
'주주'
'주식형_'
'제한_'
'제공'
'정지_'
'전세'
'장학금_'
'작_'
'임시'
'임대'
'인증'
'위험'
'원은_'
'예산'
'연장'
'연구소_'
'애플_'
'압'
'아이_'
'시행'
'시작했다_'
'소방'
'성과_'
'사는_'
'빙'
'분석_'
'부진'
'변경'
'박물관_'
'문제'
'문을_'
'맹'
'매수'
'롱'
'때'
'들은_'
'되면_'
'대사_'
'노선_'
'넥슨_'
'네_'
'냐_'
'꿈'
'기술을_'
'금감원_'
'곡'
'결정'
'개시_'
'강릉_'
'갑'
'가능한_'
'SK하이닉스_'
'SKT_'
'L_'
'3억원_'
'39'
'힘입어_'
'화재'
'홍보'
'호텔'
'했다는_'
'하향_'
'하나금융투자_'
'피해자_'
'퍼_'
'특수'
'터키_'
'큐'
'치료'
'축하'
'최우수_'
'초반_'
'체육'
'책_'
'집중'
'전에_'
'적자_'
'적극_'
'장애인'
'잠'
'자산'
'있게_'
'인정_'
'이지'
'이전'
'윤석열_'
'원전_'
'원내대표가_'
'완화_'
'와이'
'올라_'
'열렸다_'
'양_'
'앞에서_'
'심사_'
'신세계_'
'신고리_'
'시즌'
'승리'
'순_'
'선언'
'선수'
'상을_'
'사전'
'비정규직_'
'뷰티_'
'분기_'
'부사장_'
'보건'
'명의_'
'릴_'
'료'
'렸다_'
'랑'
'때문에_'
'독도'
'대선'
'농협'
'그린'
'균_'
'구역_'
'광화문_'
'공유_'
'골프'
'갤럭시_'
'가을'
'北'
'㈜_'
'O_'
'N_'
'92'
'8년_'
'5만'
'55'
'46'
'획득_'
'회복'
'활'
'홀'
'할인'
'페이스북_'
'팀'
'투표'
'테크_'
'컴'
'캐릭터_'
'치료_'
'취업'
'출석_'
'촌'
'체제로_'
'체결했다_'
'찾아가는_'
'진행했다_'
'중심_'
'조사를_'
'정의당_'
'정유라_'
'전주'
'전세계_'
'재판_'
'자유'
'임대_'
'일자리'
'이라는_'
'의장_'
'예산_'
'영화'
'연맹_'
'아니라_'
'쌀_'
'싸'
'싱가포르_'
'신세계'
'식품_'
'시티'
'시작'
'스페셜_'
'쉬'
'수상했다고_'
'수는_'
'쇼'
'소득'
'새로_'
'상가_'
'삼성물산_'
'산림'
'부담_'
'보수'
'벤츠_'
'발간_'
'받을_'
'모집한다_'
'모바일'
'만나_'
'마이'
'링'
'립_'
'령_'
'레볼루션_'
'드림'
'동시_'
'대표는_'
'다음은_'
'녹'
'널'
'냉'
'냈다_'
'나라'
'김정'
'긴_'
'기회_'
'기대'
'군사'
'국방'
'구성'
'과의_'
'공단_'
'간다_'
'e스포츠_'
'a'
'CJ제일제당_'
'AI'
'8명_'
'70_'
'6억원_'
'500'
'43_'
'3만'
'2조'
'홀딩스_'
'홀_'
'하락세_'
'표준'
'토론회_'
'킹_'
'콘서트_'
'컵_'
'치킨_'
'출발했다_'
'척'
'찾은_'
'질문에_'
'진흥'
'지분율이_'
'줄'
'제재_'
'제일'
'제1회_'
'정부서울청사에서_'
'점검'
'전통시장_'
'전달했다_'
'재난'
'장중_'
'자체_'
'자로_'
'입주'
'인도네시아_'
'인기'
'이자_'
'의사_'
'유통_'
'유엔'
'요청_'
'오토'
'오브_'
'암호화폐_'
'시위_'
'습'
'슨'
'스트'
'쇼_'
'손잡고_'
'소비자_'
'소득_'
'션'
'세트_'
'선수들이_'
'선발'
'선물'
'생활_'
'생각'
'사이'
'빗'
'부품_'
'봉_'
'법인'
'발사_'
'바로_'
'모델'
'메이'
'매우_'
'마치고_'
'리니지2_'
'록'
'돌아'
'독도_'
'대응'
'달라_'
'다가_'
'능'
'뇌'
'논'
'너_'
'기록'
'기구_'
'기관'
'근로'
'공무원'
'공동으로_'
'거리_'
'거리'
'개발한_'
'감사_'
'英_'
't_'
'6명_'
'5년'
'33'
'28_'
'23_'
'000원_'
'화학'
'협'
'해제_'
'해상'
'폭발_'
'포항'
'포스코'
'투표_'
'테크'
'카드'
'추천'
'청소년'
'처_'
'채용비리_'
'채권_'
'참여'
'차지했다_'
'짜'
'지사_'
'주장_'
'조치_'
'젠'
'제4'
'제2회_'
'정규직_'
'절반_'
'저축은행_'
'장관은_'
'자산_'
'있었다_'
'있'
'임_'
'인사말을_'
'이사_'
'이르면_'
'원장_'
'우려'
'온라인'
'오리온_'
'예상'
'예고_'
'역사'
'여름'
'에이치'
'앞_'
'않'
'심리_'
'실적'
'신약_'
'신설'
'숲_'
'소비'
'세대_'
'상향_'
'산업통상자원부_'
'빅데이터_'
'비리_'
'북한이_'
'변동했다고_'
'베이'
'방지_'
'방문'
'발생'
'받'
'멀티'
'맨'
'맥주_'
'례_'
'땅'
'들과_'
'두고_'
'동원'
'데이터_'
'대형'
'대책'
'대신_'
'답'
'다저스_'
'눈'
'놓고_'
'논의'
'넘는_'
'넘게_'
'나누는_'
'김태형_'
'기록을_'
'금을_'
'국토부_'
'구매'
'교체_'
'관계'
'과제_'
'공격'
'겠습니다_'
'개통_'
'] _'
'75'
'5억원_'
'57'
'회를_'
'활동'
'핵심'
'함_'
'하늘'
'프로축구_'
'퓨'
'품질'
'푸드'
'평창'
'패션_'
'통신_'
'타이'
'타워_'
'커뮤니티_'
'출_'
'최소_'
'최고치_'
'총회_'
'처분_'
'채널_'
'직업'
'증정_'
'주기_'
'저_'
'재개'
'자율'
'자원'
'임금_'
'이사장_'
'의사'
'위험_'
'운동'
'올랐다_'
'엘_'
'얼'
'아이디어_'
'신입사원_'
'시간'
'수준으로_'
'수원시_'
'수원시'
'솔'
'서울시는_'
'상대_'
'사랑의_'
'비중_'
'봉사'
'벽'
'벨'
'배당'
'미술'
'물질_'
'매_'
'만큼_'
'롤'
'디지털'
'들어_'
'됩니다_'
'동물'
'도시재생_'
'데스'
'담_'
'높아_'
'논란이_'
'내린_'
'나선_'
'기획재정부_'
'궁'
'구성_'
'관계_'
'경쟁'
'갖춘_'
'감소'
'證_'
'㎡_'
'Y'
'W_'
'KB'
'81'
'78'
'71'
'66'
'61'
'58'
'54'
'4천'
'42'
'3대_'
'34_'
'2배_'
'2020년_'
''..._'
'힐스테이트_'
'후원금_'
'회장에_'
'회사'
'활용'
'호날두_'
'헌법'
'허가_'
'해지'
'하나_'
'필요한_'
'팅'
'테러_'
'탑'
'콘_'
'취소'
'출시한다_'
'천안'
'진행했다고_'
'지역에_'
'지도_'
'중국의_'
'제외_'
'제3자배정_'
'점유율_'
'전쟁_'
'자연'
'자리_'
'자동'
'자녀_'
'임금'
'인프라_'
'의원은_'
'의원'
'올해'
'올리'
'올라'
'오피스텔_'
'연봉_'
'여부_'
'양성_'
'야구_'
'앱'
'않는_'
'신한'
'숨져_'
'수수료_'
'손학규_'
'소폭_'
'생명'
'상품을_'
'상장사_'
'사회적_'
'사진'
'사람'
'블랙'
'법안_'
'발언_'
'못_'
'목_'
'명예'
'매각'
'루_'
'록_'
'런'
'등판_'
'되면서_'
'동해'
'동계올림픽_'
'돌파했다고_'
'대장'
'달걀_'
'단계_'
'높'
'농가_'
'네이버'
'내역이다_'
'내역과_'
'내고_'
'나와_'
'나가'
'까'
'김성'
'그는_'
'균'
'규제'
'구단_'
'공사'
'골을_'
'경주'
'강남'
'강경화_'
'감독의_'
'감독과_'
'檢_'
'前_'
'MBC_'
'KEB하나은행_'
'86'
'800'
'7만'
'69'
'59'
'4개_'
'30일까지_'
'1일부터_'
'1심_'
'11시_'
'10개_'
'1000'
'.'
'회는_'
'활성화를_'
'홈_'
'현대모비스_'
'한국의_'
'학습'
'프로_'
'프라'
'표창_'
'폭_'
'파워'
'특별관계자인_'
'통화'
'토트넘_'
'클라우드_'
'쿠폰_'
'코엑스에서_'
'코스피는_'
'커피_'
'커피'
'캐'
'칸'
'촌_'
'체제_'
'채권'
'직무'
'지하'
'지지_'
'주재_'
'조직_'
'제3회_'
'정상_'
'정상'
'전을_'
'전시'
'재판에_'
'입찰_'
'일정_'
'일반'
'인터'
'인근_'
'이해'
'이주열_'
'이재명_'
'이마트_'
'이노'
'으면_'
'으'
'유출_'
'위안_'
'우리나라_'
'영장_'
'언론'
'어워드_'
'안에_'
'아파트'
'신용'
'쇼핑몰_'
'세일_'
'성폭행_'
'선출_'
'서를_'
'서도_'
'생명_'
'색_'
'새벽_'
'상담'
'사법'
'뿐_'
'비전_'
'부품'
'부는_'
'봉사활동_'
'봉사_'
'봄'
'본격화_'
'벤처'
'벤'
'방역_'
'밤'
'미디어_'
'묘'
'몰_'
'먹'
'맨_'
'매출'
'람'
'뚜'
'드론_'
'동반_'
'돌_'
'데뷔_'
'대한민국'
'대통령'
'대를_'
'대기업_'
'대거_'
'대가_'
'다면_'
'니다_'
'늘'
'는'
'뉴욕_'
'놀'
'내정_'
'김상조_'
'김기'
'기준금리_'
'기준'
'급등_'
'금호타이어_'
'그룹이_'
'교통사고_'
'교육부_'
'경쟁력_'
'검출_'
'검거_'
'개설_'
'강원도'
'가능성이_'
'가격'
'銀_'
'MVP_'
'J'
'CJ'
'> _'
'<_'
'93'
'4만'
'43'
'3개_'
'202'
'1조원_'
'1억_'
'1년'
'000'
'힘_'
'힘'
'홈런'
'홀에서_'
'협의회'
'혐의를_'
'했고_'
'해결'
'하우스_'
'프랜차이즈_'
'포함_'
'통합_'
'택'
'클래스_'
'콩'
'출시'
'출마_'
'춘'
'청주'
'책임'
'찍'
'증권_'
'중소_'
'주변_'
'주목_'
'주도_'
'주가'
'조정_'
'조사됐다_'
'제주도_'
'제조장비_'
'접수'
'전망'
'전달'
'전격_'
'잠정_'
'자치'
'자사_'
'자리'
'있도록_'
'입장을_'
'입장'
'일제히_'
'인한_'
'인하'
'인터넷'
'이익_'
'의미'
'울산시'
'운행_'
'우선_'
'예약_'
'연방'
'연결기준_'
'어린이집_'
'아들_'
'씨의_'
'씨가_'
'쌀'
'실에서_'
'신라'
'승진_'
'수주공시_'
'수사를_'
'성공했다_'
'선보인다고_'
'선도'
'상하이_'
'상승했다_'
'삼성증권_'
'사업이_'
'블루'
'북미_'
'복합'
'보안'
'버스'
'방지'
'밥'
'반등_'
'바다'
'메디'
'런_'
'러시아'
'돼야_'
'덴'
'대화'
'대구시_'
'단지'
'느'
'농촌'
'넥슨'
'깨'
'기초'
'급락_'
'공원'
'공연'
'공간_'
'고용_'
'고교_'
'계획을_'
'경기를_'
'검찰에_'
'검찰개혁_'
'개정_'
'GS'
'>_'
'90'
'75_'
'68'
'4억원_'
'29_'
'26_'
'1억'
'1만'
'""..._'
'회원'
'회동_'
'회계'
'확장'
'협력사_'
'헝그리앱_'
'해소_'
'한미'
'한달간_'
'하락'
'하던_'
'필_'
'프로모션을_'
'평창올림픽_'
'패스_'
'틴_'
'틀'
'특혜_'
'탈출_'
'탁'
'크리스마스_'
'캐나다_'
'치는_'
'치고_'
'출전'
'추락_'
'청약'
'첫'
'처분'
'챔피언_'
'징_'
'지급'
'증가했다_'
'주한_'
'조회공시_'
'제조_'
'제공하는_'
'정기_'
'전날_'
'장의_'
'장에서_'
'잘'
'있을_'
'입은_'
'인력'
'으며_'
'웹'
'웨이_'
'웨이'
'운용_'
'운영한다고_'
'요금_'
'요구'
'외국인'
'옥_'
'영향으로_'
'영등포구_'
'엔씨소프트_'
'어떻게_'
'않고_'
'아베_'
'승리를_'
'숲'
'속에_'
'소통_'
'센'
'설비_'
'선보인다_'
'선고'
'서울시'
'생태'
'상태'
'사업장_'
'비상_'
'북구_'
'부과'
'법정'
'방향_'
'발표'
'발언하고_'
'발굴_'
'반기문_'
'무료'
'무_'
'명품_'
'맡'
'말까지_'
'마친_'
'마리_'
'링_'
'로봇'
'딜'
'득'
'더블'
'달하는_'
'능력'
'뉴욕증시_'
'녀_'
'네오'
'남_'
'날씨_'
'끼'
'끝에_'
'꺼'
'기대감에_'
'기각_'
'그룹'
'그러나_'
'그랜드_'
'군은_'
'국장_'
'국내외_'
'국가대표_'
'관광객_'
'공항_'
'고용노동부_'
'경기도'
'겨'
'개최'
'강릉'
'가지_'
'가수_'
'’'
'u'
'KBO리그_'
'?'
'99'
'98'
'8만'
'77'
'74'
'6만'
'6개_'
'67'
'5원_'
'5대_'
'51'
'3회_'
'0억원_'
'0만원_'
',"_'
'%↑_'
'!_'
'! _'
'흔들'
'훈련을_'
'확장_'
'홈페이지_'
'혜택_'
'형사'
'협약을_'
'현대건설_'
'헬스케어_'
'해군_'
'항공기_'
'한일'
'피해자'
'플레이_'
'파크'
'투_'
'통일부_'
'톤'
'킹'
'컨설팅_'
'캠퍼스_'
'추천_'
'추진한다_'
'책임_'
'찾아'
'참사_'
'질환_'
'진흥원_'
'지지'
'지연_'
'지니'
'지고_'
'증가'
'중심'
'조작_'
'조원_'
'젠_'
'제품을_'
'제기'
'정치_'
'정신'
'전투'
'적용'
'적금_'
'쟁'
'장은_'
'장애'
'잠실'
'일이_'
'인력_'
'이대'
'이고_'
'응원_'
'읍_'
'육군_'
'위촉_'
'위안화_'
'원자력'
'원에서_'
'울_'
'우주'
'영광'
'염_'
'열었다_'
'역량_'
'여사_'
'업데이트를_'
'언론_'
'어제_'
'애플'
'알리'
'알려졌다_'
'않아_'
'안심'
'아웃'
'싶다_'
'싱_'
'싱'
'실시했다_'
'신청을_'
'시장에서_'
'시도'
'스코'
'순매도_'
'수영'
'소재'
'센터'
'세대'
'선보여_'
'상한가_'
'살해_'
'비를_'
'변호사_'
'백운규_'
'배터리_'
'방문한_'
'발탁_'
'발대식_'
'받았다고_'
'반도체'
'무실점_'
'먼'
'매매_'
'막_'
'롯데마트_'
'로또_'
'랭킹_'
'대화_'
'대통령에_'
'놓'
'노사_'
'넘어섰다_'
'끝'
'께_'
'김정남_'
'기부'
'기능_'
'기념식_'
'금호'
'그림'
'그린_'
'규모로_'
'권을_'
'구는_'
'관세_'
'공모'
'골프_'
'고객을_'
'계란_'
'건립_'
'건립'
'가스'
'㎡ _'
'CEO_'
'?…_'
'85'
'82'
'6호기_'
'44'
'400'
'3일간_'
'36'
'33_'
'120'
'%↓_'
'흐'
'후원'
'협_'
'현금_'
'향후_'
'행진_'
'해지_'
'해수부_'
'한편_'
'한전_'
'픽'
'푸드_'
'폭행_'
'폭력_'
'평균'
'펜'
'팬_'
'특강_'
'톤_'
'텐'
'텍은_'
'턴'
'탈_'
'코스'
'코리아가_'
'캔'
'취득했다고_'
'충돌_'
'추가로_'
'총재_'
'철회_'
'채택_'
'차단_'
'집행'
'진단'
'지원센터_'
'지역에서_'
'지나'
'중요한_'
'주장했다_'
'주의보_'
'졸'
'조치'
'제주도'
'제조'
'정지'
'재산'
'자문'
'인간'
'이틀째_'
'이미_'
'이래_'
'의혹을_'
'의장'
'의무'
'원정_'
'원인_'
'원이_'
'역사_'
'에이스_'
'언_'
'양성'
'않았다_'
'안산'
'아침_'
'아세안_'
'아니'
'아냐_'
'심의'
'심사'
'심리'
'신동빈_'
'시스템을_'
'스페인_'
'수소'
'수상했다_'
'쇼핑'
'소프트웨어_'
'소통'
'셔'
'세종'
'성을_'
'설계'
'선두_'
'생태계_'
'새누리당_'
'상담_'
'사이트_'
'비즈니스_'
'브라'
'붙'
'북한'
'본부는_'
'보였다_'
'보고'
'변_'
'방식으로_'
'밝힌_'
'발전소_'
'발생했다_'
'반영'
'박스_'
'미중_'
'미세먼지'
'물류'
'문학'
'몬'
'멕시코_'
'먼저_'
'머_'
'매년_'
'맛_'
'만난_'
'등급_'
'드림_'
'드리'
'드러'
'동시에_'
'더욱_'
'대우건설_'
'당시_'
'늘었다_'
'뉴스'
'논란'
'노인_'
'너무_'
'낮_'
'남자'
'나온다_'
'나라_'
'깜짝_'
'김현수_'
'김정숙_'
'기준으로_'
'기업의_'
'긍정적_'
'국회'
'국토'
'국정원_'
'구축'
'구미'
'구글'
'괴'
'광_'
'관에서_'
'공정위_'
'고려'
'경찰청_'
'결_'
'격_'
'객_'
'개편'
'개막'
'가동_'
'가공'
's'
'`"_'
'LG화학_'
'K리그_'
'ICT_'
'9억원_'
'87'
'7천'
'7개_'
'600'
'5거래일_'
'5000'
'45_'
'45'
'42_'
'3개월_'
'37_'
'2억_'
'2018년도_'
'2015년_'
'1인당_'
'12시_'
'10월'
'%…_'
'현직_'
'해도_'
'해당_'
'한화투자증권_'
'한강'
'플'
'포인트'
'평화_'
'팩_'
'특허'
'트리'
'통장_'
'테라'
'태양광_'
'타고_'
'코치_'
'칸_'
'카메라_'
'측'
'취업_'
'청구'
'참석하고_'
'착'
'차관'
'징계_'
'지도'
'지구'
'증가했다고_'
'주장이_'
'주간_'
'조기'
'전주_'
'전망했다_'
'전력_'
'잠실_'
'작가_'
'자는_'
'입_'
'인정'
'인사말_'
'이제_'
'의약품_'
'의견_'
'으로는_'
'융합'
'유산'
'유네스코_'
'울산시_'
'우려가_'
'우대'
'요청'
'올렸다_'
'예선_'
'영웅_'
'영상_'
'연계_'
'엑스포_'
'엑스'
'얘기'
'실시'
'신고가를_'
'시진핑_'
'시스템'
'시는_'
'수사에_'
'솔루션'
'센터는_'
'선정'
'선임했다고_'
'선발투수_'
'상당의_'
'삼성전자는_'
'삭'
'사퇴_'
'사망'
'사람_'
'비행'
'블랙리스트_'
'브리'
'분석'
'부당'
'복구_'
'보험금_'
'보안_'
'범죄_'
'배송_'
'발굴'
'박병호_'
'민간_'
'목표주가_'
'모드_'
'모델로_'
'명품'
'명으로_'
'맑'
'마음_'
'마다_'
'레_'
'라운드_'
'들어'
'들고_'
'돕기_'
'대우'
'달러를_'
'단축_'
'단이_'
'단속_'
'누리'
'농구'
'네트워크_'
'냉장고_'
'내려'
'내가_'
'꽃_'
'김재'
'김용'
'기자간담회_'
'기념촬영을_'
'근무'
'규탄_'
'광장에서_'
'관심이_'
'과태료_'
'공유'
'공격_'
'경진대회_'
'결정했다_'
'겨울_'
'겨울'
'게임즈_'
'게시'
'건축'
'건강_'
'갑질_'
'가정'
'p'
'NH농협'
'KT는_'
'IS'
'FTA_'
'AP'
'94'
'86_'
'85_'
'7년_'
'73'
'60대_'
'60_'
'4대_'
'38_'
'2년'
'20년_'
'2019년'
'04'
'...'_'
'.."_'
'희망_'
'흑자_'
'후보가_'
'회장'
'홍보_'
'협업_'
'현금'
'해소'
'해결_'
'항공_'
'한경'
'학회_'
'학과_'
'피해를_'
'평양_'
'페이_'
'파이'
'통상'
'통과'
'테마'
'탄핵'
'타이어_'
'코스피가_'
'친구'
'충전'
'충북'
'충남도'
'출입'
'춘천_'
'축소_'
'추석'
'추미애_'
'총괄'
'쳤다_'
'쳐_'
'체결'
'청약_'
'청사_'
'청렴'
'창작'
'참가'
'직장인_'
'중국이_'
'주년을_'
'주고_'
'족_'
'제출'
'제주항공_'
'제안'
'정비'
'정보를_'
'전자_'
'전시_'
'전년비_'
'적정'
'적용한_'
'장치_'
'자전거_'
'자를_'
'자녀'
'입점_'
'인증을_'
'이른바_'
'이라며_'
'의지_'
'융_'
'유가_'
'원정'
'워_'
'용지_'
'열리고_'
'연대_'
'여수'
'여성이_'
'었'
'억원을_'
'어선_'
'알_'
'안정'
'아직_'
'아웃_'
'아시아나항공_'
'아모레퍼시픽_'
'아르'
'써'
'실시간_'
'신호'
'신용카드_'
'신용등급_'
'수술_'
'수석_'
'수상'
'수산'
'송도_'
'소환'
'소년'
'센터에서_'
'성남'
'섭'
'설명'
'설계_'
'선봬_'
'상승하여_'
'상공'
'삼성생명_'
'삼성SDI_'
'산하_'
'산업단지_'
'산불_'
'사의_'
'사에_'
'비율_'
'불안'
'부문'
'부담'
'부과_'
'본사_'
'복귀'
'보훈'
'보육'
'보유'
'보는_'
'버_'
'백신_'
'배치'
'반영_'
'반면_'
'미니'
'묻'
'목표주가를_'
'먹는_'
'맺었다고_'
'맛'
'만들어_'
'마켓_'
'로드'
'라이프_'
'뜨'
'땅_'
'데이터'
'던'
'대회의실에서_'
'대형마트_'
'대체'
'대신증권_'
'대기'
'대구시'
'단장_'
'단계'
'다운_'
'늘어난_'
'누적'
'농산물_'
'노력'
'넷마블_'
'났다_'
'남성'
'나주'
'나무_'
'나노'
'꾸'
'김민'
'김동'
'기능을_'
'그리고_'
'굴'
'국회의원_'
'국세청_'
'국무총리가_'
'관심_'
'관련한_'
'관련'
'관내_'
'과정에서_'
'공항'
'공중'
'공시_'
'곤_'
'경남도'
'경고'
'거나_'
'같이_'
'감소한_'
'가치'
'가진_'
'가계부채_'
'c'
'PC'
'NC'
'LG디스플레이_'
'KBS_'
'IoT_'
'IP'
'8억원_'
'6월'
'47_'
'46_'
'3천'
'35_'
'31_'
'2차'
'2017년도_'
'2017'
'1회_'
'1위는_'
'11월'
'119'
'10억원_'
'100만'
' ·_'
'힌_'
'흑'
'후보자가_'
'효성_'
'효성'
'회의실에서_'
'회원_'
'확인'
'화학_'
'화장품'
'홈런을_'
'혁신성장_'
'행위_'
'해임_'
'한정판_'
'한정_'
'한국타이어_'
'한국과_'
'하자_'
'플라'
'폐쇄_'
'평양'
'판매한다고_'
'틱_'
'특화'
'트라'
'통제'
'토론'
'텔'
'테크놀로지_'
'테스트_'
'태국_'
'탈퇴_'
'타운_'
'키움'
'쿠폰을_'
'코레일_'
'커머스_'
'캐피탈'
'카드는_'
'치매'
'취득'
'출자_'
'출발'
'추_'
'총력_'
'지적'
'지역의_'
'지방_'
'지명_'
'지를_'
'주의'
'제휴_'
'제5'
'제2차_'
'정세균_'
'정당'
'정권'
'점포_'
'재산_'
'재배'
'재단은_'
'장학'
'장비'
'작전'
'작가'
'자택_'
'자의_'
'자산운용_'
'입주_'
'일본의_'
'인식_'
'인가_'
'이적_'
'이유는_'
'이런_'
'이란'
'의심_'
'응원'
'음악회_'
'음_'
'은퇴_'
'유력_'
'위로_'
'위기'
'웨어_'
'원주_'
'원과_'
'웃'
'요구했다_'
'오늘부터_'
'예약'
'연대'
'연결'
'역투하는_'
'역시_'
'약세_'
'압박_'
'아파트값_'
'쓴_'
'십'
'실패_'
'실패'
'신도시_'
'시동_'
'시도_'
'스키'
'순천'
'수혜_'
'수입차_'
'수익_'
'송_'
'소화'
'소형_'
'소프트'
'선임'
'선수단_'
'석유'
'서울대'
'샤'
'상황_'
'상업'
'상가'
'삼성동_'
'사회공헌'
'사외이사_'
'사를_'
'사랑_'
'사드'
'빠른_'
'분할_'
'분야'
'부지'
'부산시'
'봉사단_'
'본사에서_'
'보상'
'병원'
'변화_'
'변화'
'베트남'
'벌금_'
'백악관_'
'발표하고_'
'박차_'
'미얀마_'
'미래에셋'
'문희상_'
'무산_'
'모두발언을_'
'멧돼지_'
'맨유_'
'매체_'
'만원'
'만드는_'
'마약'
'리는_'
'리뉴얼_'
'릉'
'른_'
'로는_'
'렉'
'레드'
'랑_'
'라이브_'
'떠'
'드라마_'
'둔화_'
'동양'
'동결_'
'도전'
'도움_'
'도약_'
'도심_'
'대회'
'대표와_'
'달러'
'뉴시스_'
'눈길을_'
'노사'
'노동자_'
'넣'
'넓'
'나타났습니다_'
'나이'
'나쁨_'
'김포_'
'김치'
'기업이_'
'기억'
'기기_'
'기간'
'기가_'
'극_'
'국장'
'국내에_'
'구형_'
'구속'
'구간_'
'교류_'
'교류'
'광역'
'관심을_'
'공사는_'
'공공기관'
'곳'
'고발'
'경찰관_'
'결제'
'결승_'
'결승'
'겨_'
'겠다고_'
'게이'
'검찰총장_'
'객'
'개소_'
'강화를_'
'간의_'
'가졌다_'
'↑"_'
's_'
'SK증권_'
'NHN'
'IT'
'FC'
'8천'
'88'
'83'
'70대_'
'5시'
'4명'
'48_'
'47'
'3거래일_'
'3000'
'2층_'
'2일까지_'
'2명이_'
'28일까지_'
'1조_'
'1위에_'
'1위로_'
'15일부터_'
'""-_'
'""'
'활동왕_'
'확인됐다_'
'확산'
'호가_'
'현이_'
'현안'
'허용_'
'해안'
'해서_'
'한진'
'한은_'
'하락했다_'
'프레'
'폰'
'폭염_'
'폭스'
'포스'
'평가했다_'
'평_'
'편의점'
'페이'
'판매를_'
'판매량_'
'파업_'
'트럭_'
'통화_'
'톱'
'터미널_'
'탑_'
'크라'
'콘텐츠'
'코치'
'코스닥은_'
'코스닥'
'캄보디아_'
'칼'
'칠'
'충남'
'출자'
'출석'
'축제'
'추정_'
'총리'
'쳐'
'철도_'
'척_'
'창_'
'참석'
'쪽'
'진입_'
'진에어_'
'지원하는_'
'지원금_'
'지속'
'지분'
'지금_'
'증시가_'
'중진공_'
'중고'
'주식회사'
'주목'
'종을_'
'조합'
'조선_'
'제를_'
'절차_'
'절_'
'전통'
'전략적_'
'전담'
'전기_'
'적자'
'재무'
'재계약_'
'자율주행차_'
'자율주행_'
'자들'
'자동_'
'일을_'
'일반_'
'이틀간_'
'이준'
'이미지_'
'이름을_'
'의료_'
'유치'
'웰'
'웅_'
'운행'
'요리'
'외부_'
'외국'
'왔다_'
'완료'
'오염'
'영화제_'
'연다고_'
'연금'
'역투하고_'
'여부를_'
'여명_'
'여기'
'업체와_'
'약품_'
'약속_'
'액션_'
'앙'
'않는다_'
'안내'
'아이파크_'
'아동_'
'심상정_'
'시신_'
'시범경기_'
'시계_'
'승을_'
'스피드'
'슈퍼_'
'쉐'
'수립_'
'셀트리온_'
'센_'
'성료_'
'섬'
'설명했다_'
'서울에서_'
'샘'
'상생_'
'상생'
'상대'
'삼양'
'사퇴'
'사임_'
'사례_'
'사고가_'
'비교해보니_'
'블_'
'브리핑_'
'붙잡혔다_'
'불편'
'본격적인_'
'복지_'
'보면_'
'벗'
'배틀그라운드_'
'방위'
'방법'
'밝'
'발표한_'
'발표하는_'
'발사'
'발급'
'박항서_'
'문제를_'
'맞고_'
'만들기_'
'마감'
'리조트_'
'려면_'
'레알_'
'랩_'
'랜드_'
'랜드'
'라인'
'떡'
'등급'
'되지_'
'동일'
'동성'
'동남아_'
'덕_'
'대금_'
'달아'
'달간_'
'다리_'
'넘어'
'낼_'
'내에_'
'내부_'
'내년도_'
'낮'
'남부'
'끌고_'
'김주'
'김인'
'김성태_'
'기온_'
'기본'
'급여_'
'금강'
'글로'
'국무회의_'
'과천'
'공약_'
'공방_'
'골드'
'고민'
'경기도는_'
'경고_'
'견_'
'건축_'
'거래량을_'
'개정'
'개관'
'감축_'
'가전_'
'가입자_'
'가입'
'가시'
'가동'
'e_'
'NH농협은행_'
'KT가_'
'BB'
'9월'
'80_'
'7월'
'7명_'
'79'
'72'
'63'
'5일'
'4년'
'4거래일_'
'3월'
'3D_'
'32_'
'31일까지_'
'300원_'
'2차전지_'
'2억'
'21일부터_'
'1주년_'
'1조'
'1인_'
'1순위_'
'1명'
'1만_'
'12월'
'100만_'
'0선_'
'00'
'."" _'
'흑자전환_'
'회가_'
'활약'
'환영_'
'홍보대사_'
'현황_'
'헬기_'
'험'
'향해_'
'했지만_'
'핵_'
'해임'
'하다는_'
'플러스'
'폼페이오_'
'포함'
'포럼'
'퍼스트'
'패스'
'팟'
'팜_'
'판교'
'특가_'
'투자하'
'테이블'
'턴_'
'택_'
'탄생_'
'클럽'
'클_'
'퀴즈_'
'콜라'
'코미'
'카페_'
'칭'
'친구_'
'치매_'
'층'
'추진한다고_'
'체포_'
'체포'
'채무'
'창원_'
'찰'
'쯤_'
'집단_'
'진행'
'진입'
'진로'
'직원'
'지시'
'지수는_'
'중심으로_'
'줄이'
'줄어_'
'주재하고_'
'주식시장_'
'주문'
'죄'
'조달'
'조건'
'제기_'
'제공한다_'
'정원'
'정비_'
'정론관에서_'
'정권_'
'점에서_'
'전해'
'전에서_'
'전년보다_'
'적발'
'저소득층_'
'장관과_'
'작업_'
'자이_'
'일원에서_'
'일별_'
'인재_'
'인의_'
'인생'
'이적'
'이뤄'
'응급'
'을까_'
'유치원_'
'유안타증권_'
'유명_'
'윈'
'위원장'
'위생'
'워크숍_'
'운전자'
'운전'
'용의자_'
'외신'
'왔'
'완화'
'온다_'
'예_'
'연휴'
'연구소'
'에프'
'에스티'
'업체'
'어린이들'
'양현_'
'안정_'
'악수하는_'
'아침'
'실종'
'실무'
'신중'
'시즌을_'
'시장의_'
'시장을_'
'스트_'
'스토어_'
'스토리_'
'스마트폰'
'스마일게이트_'
'숭'
'수준'
'수익성_'
'수석'
'손해'
'소상공인'
'세를_'
'성황리에_'
'성장률_'
'성남_'
'성과'
'설립'
'선박'
'선두'
'서울시가_'
'서구_'
'상의_'
'사와_'
'사실'
'사례'
'빌딩_'
'빅_'
'비용'
'비롯한_'
'불펜_'
'북미'
'부회장이_'
'부장'
'보장_'
'법원'
'번호'
'방어'
'반대'
'바른'
'바둑'
'밍'
'민원'
'물가_'
'문화재단_'
'무인'
'무상'
'목표'
'모습을_'
'모비_'
'면담_'
'메르세데스_'
'맥스_'
'매매회전율이_'
'매도_'
'말레이시아_'
'만나'
'막을_'
'마크_'
'마르'
'리콜_'
'롯데백화점_'
'련'
'력을_'
'랜'
'라이프'
'동의'
'동시'
'동구'
'독점_'
'덴마크_'
'대표에_'
'대전시'
'대상을_'
'대부분_'
'대만'
'대량_'
'닷컴_'
'달성했다_'
'달러당_'
'닝_'
'녹십자'
'넷'
'넥센'
'내륙_'
'남성이_'
'남부_'
'나란히_'
'나는_'
'김준'
'기탁_'
'기업인_'
'기계'
'금융위_'
'그래'
'교체'
'교원'
'광주시_'
'광주시'
'공채_'
'공사를_'
'곳에_'
'고양시_'
'고양_'
'계획이다_'
'경험_'
'경주_'
'경비'
'결과를_'
'견본주택_'
'게이트_'
'검사장비_'
'건을_'
'건강한_'
'거부_'
'거래소'
'개원_'
'갖'
'값'
'간편'
'간부_'
'가스_'
'Y_'
'SNS_'
'LS'
'KTB투자증권_'
'9명_'
'9년_'
'96'
'90_'
'8개_'
'6회_'
'5억_'
'56_'
'54_'
'50억원_'
'500원_'
'4조'
'4개'
'2주_'
'2종을_'
'2개_'
'24시간_'
'20일부터_'
'1군_'
'130'
'112'
'100억원_'
'-'
'"`_'
'회의를_'
'회담'
'황금'
'환자'
'환율이_'
'확'
'화물'
'호주'
'혔다_'
'협회는_'
'협상'
'협력을_'
'현장을_'
'현대캐피탈_'
'현대중공업_'
'헌_'
'행사에_'
'합의'
'한컴'
'한마당_'
'한국GM_'
'학생들'
'품질_'
'표시'
'폐지'
'평화의_'
'패배_'
'판결_'
'파견_'
'팀을_'
'투자자들의_'
'투자자_'
'털'
'택배'
'타임_'
'타율_'
'타격_'
'클래식_'
'코오롱'
'케이스_'
'컴투스_'
'컨퍼런스_'
'측정'
'취약계층_'
'출산_'
'출범'
'춘천'
'축구대표팀_'
'추진하'
'추위_'
'촉구했다_'
'초대_'
'청장_'
'찌'
'집계됐다고_'
'짐'
'진행된_'
'진출'
'진단_'
'지자체_'
'지방선거_'
'지명'
'중학교_'
'중소'
'중부'
'중국에서_'
'주말'
'주도'
'좋'
'종목'
'졸업'
'조세'
'조리'
'제한'
'제약'
'제8'
'전직_'
'전자담배_'
'전문가_'
'전달했다고_'
'저축은행'
'재판'
'잡고_'
'자신'
'자살'
'자료를_'
'자기주식_'
'잉'
'임명'
'인해_'
'인도'
'인권_'
'인구_'
'이호'
'이하_'
'이정미_'
'이유로_'
'이영'
'이번에_'
'이달의_'
'의견을_'
'을'
'위크_'
'위원장이_'
'위원'
'위반'
'우리나라'
'옵션_'
'예고'
'열차_'
'연합뉴스_'
'연계'
'역투_'
'엘리'
'엔진_'
'었습니다_'
'앤_'
'안타'
'아프'
'아이들'
'심장'
'실시했다고_'
'신형_'
'신입_'
'시장이_'
'시범_'
'시간을_'
'승부'
'스트리'
'스위'
'스와_'
'수행'
'수요'
'수리'
'송파구_'
'소셜'
'소녀상_'
'소개'
'성적_'
'성남시_'
'섬_'
'선전'
'선을_'
'선보였다_'
'서포터즈_'
'생물'
'상임'
'상에_'
'삼척시'
'산업의_'
'산림청_'
'사회공헌_'
'사업자'
'사기_'
'사과_'
'사과'
'블레이드_'
'브이'
'뷰티'
'북부'
'부천'
'부정'
'부산시는_'
'본선_'
'보복_'
'별세했다_'
'벤투_'
'벌이고_'
'배달'
'발견'
'박정'
'바람_'
'민주평화당_'
'민족'
'믹'
'미사일'
'무역_'
'무기'
'몽'
'목표로_'
'모의'
'모리'
'모두발언_'
'메리츠_'
'먼_'
'매입'
'매매'
'맞춰_'
'말했습니다_'
'마스'
'마련을_'
'리얼'
'리아_'
'리스크_'
'리버'
'리니지M_'
'롯데홈쇼핑_'
'로이'
'렸'
'레스_'
'라인업_'
'딸'
'등장_'
'등극_'
'드는_'
'돕는_'
'도록_'
'도는_'
'덮'
'대선후보_'
'대사'
'당진'
'단속'
'닝'
'늦'
'뉴욕'
'농구_'
'노트'
'노조'
'노무현_'
'녀'
'넥슨은_'
'내일'
'날을_'
'나선다고_'
'기록하고_'
'글_'
'그룹은_'
'군산'
'국민의당'
'구호'
'교수'
'공인'
'공식'
'공동대표'
'고소'
'고객만족도_'
'경남도_'
'경기에서_'
'결과'
'겠다는_'
'검찰'
'개헌_'
'개최를_'
'개의_'
'개설'
'개발에_'
'개막전_'
'갑_'
'가야'
'中企_'
'…"""_'
'k'
'b'
'VR_'
'SG'
'PC_'
'P2P'
'LG전자는_'
'LED_'
'KT'
'IB'
'GS건설_'
'BNK금융'
'9시'
'9개_'
'9000'
'7시'
'67_'
'3위_'
'3사_'
'36_'
'360'
'2000'
'160'
'15일까지_'
'150'
'10주년_'
'100원_'
'''
'%'
'"'
'!'
' … _'
' ""'_'
'힘을_'
'힐_'
'흔'
'후반_'
'회장의_'
'회의에서_'
'회사채_'
'확정됐다_'
'화면'
'현재'
'헤'
'행위'
'해경_'
'핫'
'한방'
'한미약품_'
'학술'
'핀테크_'
'핀'
'피의자_'
'프로농구_'
'프라이'
'폭발'
'편집'
'편성_'
'페이스북'
'페리'
'페_'
'팬들'
'팜'
'판정'
'판매한다_'
'판단'
'팀이_'
'팀에_'
'특허권_'
'특검'
'트레이'
'투자자'
'투자의견_'
'투자설명회_'
'투구'
'텍'
'테이'
'킨_'
'코스닥시장_'
'켐'
'캡'
'캐피탈_'
'치킨'
'취임'
'충격'
'출연'
'출산'
'최태원_'
'최초의_'
'최저임금'
'최저'
'최악의_'
'촬영'
'총괄_'
'촛불집회_'
'초등학교_'
'초고'
'청정'
'철강'
'착수했다_'
'차단'
'집행_'
'지사'
'주한'
'주문_'
'제치고_'
'제자'
'제기됐다_'
'제4회_'
'제1차_'
'정밀'
'전북도'
'장기_'
'장과_'
'자본'
'자금이_'
'일환으로_'
'인재'
'인공지능'
'이화'
'이인영_'
'이용한_'
'이용자_'
'이와_'
'이수'
'이성'
'이사회_'
'이사장'
'이사'
'이로써_'
'이랜드_'
'의학'
'응시'
'음식'
'음성_'
'율'
'유리'
'유니폼_'
'위에_'
'웨어'
'웅'
'운영한다_'
'우승을_'
'우병우_'
'우리는_'
'요금'
'영상'
'열차'
'연합'
'연임_'
'역전_'
'역세권_'
'엑'
'없었다_'
'억원에_'
'애_'
'압수수색'
'압박'
'악화_'
'아프리카_'
'아프리카TV_'
'아내_'
'실천_'
'실적을_'
'신한금융투자는_'
'신임'
'신메뉴_'
'신동'
'식당_'
'시작된_'
'시작됐다_'
'시사'
'스타벅스_'
'스에_'
'순이익_'
'순유출_'
'순유입_'
'순위_'
'수준이다_'
'수여_'
'수습'
'수비_'
'수립'
'송영무_'
'속도'
'소프트_'
'소아'
'셋'
'세븐'
'성적'
'선택'
'선출'
'선수권대회_'
'선박_'
'삼성바이오로직스_'
'살인사건_'
'사태_'
'사이_'
'사실이_'
'비전'
'비교'
'분양에_'
'분기'
'부인'
'부산항_'
'부산서_'
'본회의_'
'본사'
'보이'
'보도'
'변신_'
'벤처_'
'베르'
'법원이_'
'밝혀'
'발표됐다_'
'발견됐다_'
'반포'
'반발_'
'반드시_'
'박지원_'
'미션_'
'미국과_'
'물을_'
'물량_'
'무역협상_'
'무선'
'못해_'
'모듈_'
'모니터_'
'만족'
'릴레이_'
'리에_'
'리스'
'리그'
'레저'
'땐_'
'디에스'
'드러났다_'
'뒷'
'동해안_'
'동에_'
'동맹'
'동구_'
'돌파'
'돈을_'
'대통령에게_'
'대전시_'
'대신'
'대성'
'대비'
'대변인_'
'당한_'
'당신'
'단은_'
'닥'
'다운로드_'
'다문화가정_'
'닉스_'
'늘면서_'
'늘린다_'
'농가'
'놀이'
'년을_'
'끊'
'김현'
'김학'
'김승'
'기업에_'
'기소_'
'기상'
'기록한_'
'기대감_'
'기는_'
'금액'
'귀국_'
'국악'
'구단'
'교육을_'
'관에_'
'공연을_'
'공격수_'
'곳을_'
'고기_'
'계속'
'경찰서_'
'경제성장률_'
'경력'
'경기가_'
'것과_'
'것'
'검토'
'검찰은_'
'검증'
'건설은_'
'개인정보_'
'개국_'
'강한_'
'갈등_'
'간담회에서_'
'가리'
'文'
'h'
'PB'
'NH'
'LG생활건강_'
'LC'
'LA_'
'LA'
'JT'
'H_'
'EU_'
'EM'
'AR'
'97'
'8일부터_'
'800원_'
'7억_'
'6개월_'
'5월'
'5억'
'50주년_'
'4일까지_'
'41_'
'4000'
'3억'
'3경기_'
'2타점_'
'2월'
'2시_'
'26일까지_'
'2012년_'
'200원_'
'198'
'18년'
'1500'
'11억'
'10곳_'
'100일_'
'08'
'02_'
'%"_'
'획득했다고_'
'회관_'
'확정'
'확보'
'홍남기_'
'혹'
'호우'
'혜택을_'
'협의_'
'협의'
'현대차'
'현대백화점_'
'했'
'한눈에_'
'한국투자'
'한국은_'
'한국산업'
'학회'
'학교는_'
'하이트진로_'
'하이투자증권_'
'하루'
'핑'
'필요하다_'
'플랫폼'
'프린'
'폴'
'폐기물_'
'평택'
'펼'
'팩'
'패럴림픽_'
'팀의_'
'특구_'
'투자주체별_'
'투어'
'통제_'
'통보_'
'톡'
'탓_'
'탈북'
'탄소'
'쾌'
'코스모'
'캠퍼스'
'캐릭터'
'카카오뱅크_'
'카이'
'카메라'
'축소'
'추모'
'총장'
'총리가_'
'초청해_'
'초청'
'초과_'
'체크카드_'
'청와대에서_'
'첨단_'
'챙긴_'
'찾는_'
'찾'
'창출'
'참여를_'
'차이'
'지진'
'지시_'
'지수가_'
'지로_'
'증명'
'즉시_'
'중요_'
'중계'
'중간'
'주로_'
'종료'
'조문'
'전해졌다_'
'전액_'
'전선'
'적자전환_'
'적립'
'저녁_'
'재활'
'재단이_'
'재난대응_'
'장성'
'잡았다_'
'잡아'
'자매'
'잇'
'입장_'
'입고_'
'임시_'
'임상'
'일로_'
'일까_'
'인지'
'인기를_'
'이익'
'이웃'
'이었'
'이름'
'이기'
'의견'
'읍'
'음주운전_'
'은행은_'
'은퇴'
'융'
'육박_'
'유진투자증권_'
'유상증자를_'
'위협_'
'위촉'
'웨딩_'
'웨딩'
'원하는_'
'운항_'
'욱'
'용산구_'
'욕'
'외교_'
'완공_'
'올해부터_'
'오승환_'
'오늘의_'
'예정이라고_'
'예정'
'영향을_'
'영등포'
'연락'
'연기'
'연구개발'
'여러_'
'엠_'
'엔씨소프트'
'에듀'
'었던_'
'어머니'
'어려운_'
'어깨_'
'양산_'
'알바'
'안을_'
'안보_'
'아이폰_'
'아시안게임_'
'아스'
'쏟아'
'싶'
'신한은행은_'
'신한은행'
'신진'
'신입생_'
'신선'
'신문'
'신경'
'식약처_'
'시킨_'
'시작했다고_'
'시작한다_'
'시민들이_'
'시가총액_'
'승인'
'스틸'
'스튜디오_'
'쉽게_'
'수비수_'
'수비'
'소송'
'셀트리온'
'세상'
'세계랭킹_'
'성장을_'
'성분_'
'성분'
'선정했다고_'
'선수가_'
'서부'
'샌'
'상호_'
'삼성전자와_'
'삼성물산'
'산지'
'산업진흥'
'산불'
'사하'
'사태'
'사장'
'사업의_'
'사고를_'
'빵_'
'빠진_'
'빠'
'비핵화_'
'비판_'
'비리'
'불펜'
'불이_'
'불리는_'
'분쟁_'
'분석했다_'
'북핵_'
'부천_'
'부지_'
'부상'
'부사장'
'본인'
'본부장_'
'보기_'
'보급'
'보건복지부_'
'벽_'
'베이징'
'베스트_'
'밸리_'
'배출가스_'
'배출'
'방향'
'발전을_'
'발령_'
'박상'
'바라'
'미군_'
'뮤지컬_'
'뮤'
'무역전쟁_'
'못한_'
'모두발언하는_'
'멤버'
'메가'
'머스'
'맺고_'
'매수우위_'
'맞대결_'
'맞는_'
'많다_'
'만든다_'
'막판_'
'마련'
'린다_'
'리드_'
'르노삼성_'
'률이_'
'롯데그룹_'
'레이_'
'런던_'
'러스'
'딩'
'등으로_'
'들어갔다_'
'든'
'득점'
'듀'
'둥'
'둘러보고_'
'둔_'
'두번째_'
'동결'
'도입'
'도움이_'
'도시락_'
'대책을_'
'대사관_'
'대법원_'
'대리'
'대덕'
'당초_'
'당첨번호_'
'단장'
'단을_'
'다리'
'누적순매수_'
'뇌물_'
'논란에_'
'년만에_'
'넥스트'
'넘겨진_'
'내놓'
'남은_'
'남녀_'
'끝_'
'꼬'
'김해'
'김진'
'김종'
'기회'
'기소'
'기능'
'급등'
'금융지원_'
'근로자'
'그림_'
'그러'
'군에_'
'국제유가_'
'국정_'
'국무총리_'
'구름_'
'구간'
'교육감_'
'관심'
'과징금_'
'공기청정기_'
'공간'
'곳은_'
'곳곳_'
'고발_'
'경기장_'
'검_'
'걱정'
'거래량이_'
'갤럭시S8_'
'개발사업_'
'강경'
'간담회를_'
'각종_'
'가족들'
'가로'
'가고_'
'가격은_'
'↓'
'↑'
'… ""_'
'd'
'US'
'UHD_'
'SK케미칼_'
'MS'
'MG'
'KB국민은행_'
'IN'
'IC'
'FA_'
'ES'
'BC'
'AS'
'9천'
'95_'
'7회_'
'76_'
'6천'
'6시_'
'6시'
'59_'
'56'
'52_'
'4차산업_'
'4차'
'4곳_'
'41'
'3배_'
'2일부터_'
'220'
'20일까지_'
'2022년까지_'
'2020년까지_'
'200_'
'1회'
'1만2'
'1300'
'114'
'10억_'
'000명_'
''… _'
'', '_'
'"- _'
' / _'
'희생'
'희귀'
'훌'
'후보로_'
'확대되며_'
'화제다_'
'화성'
'호스'
'호반'
'현장에서_'
'현안_'
'현대제철_'
'해온_'
'해상에서_'
'해경'
'항만'
'합동'
'합_'
'할머니_'
'한화생명_'
'한중_'
'한국시리즈_'
'한강_'
'하늘_'
'하겠다고_'
'피앤'
'플레이어'
'프린팅_'
'프로그램을_'
'풀_'
'포털_'
'폐쇄'
'평가에서_'
'페스타_'
'펀'
'파이널_'
'파견'
'팀은_'
'튼_'
'트위터'
'트가_'
'투자를_'
'투수'
'퇴직'
'토지_'
'토리'
'터키'
'택배_'
'탑승'
'탈환_'
'탁구'
'탁_'
'타자'
'큐브'
'코웨이_'
'케어'
'컵'
'컬'
'캠페인을_'
'캐주얼_'
'침체'
'취업자_'
'출장'
'출시한_'
'추징'
'추진하고_'
'최정'
'촉구하는_'
'청주시_'
'청산'
'철강_'
'처벌_'
'찾기_'
'창의'
'참여하는_'
'참배_'
'차이_'
'차별_'
'차례_'
'차관이_'
'집회'
'집행유예_'
'집단'
'진화'
'진실'
'진료'
'지휘'
'지키'
'지켜'
'지주'
'지원한다고_'
'지상'
'지부'
'증권사_'
'즐기는_'
'중소벤처기업부_'
'줄이기_'
'준다_'
'준공_'
'주행_'
'주주_'
'주재하는_'
'주력_'
'주관하는_'
'좋다_'
'조국'
'져'
'젤'
'제도를_'
'정통'
'정의용_'
'정의'
'정유'
'정보통신'
'정말_'
'정규'
'점포'
'점은_'
'전화'
'전파'
'전동'
'전국에_'
'재능'
'장터_'
'장마감_'
'장관의_'
'자체'
'자이'
'자원봉사'
'자산관리_'
'자사가_'
'자료_'
'입찰'
'입시'
'일에_'
'일상'
'인터뷰_'
'인사하는_'
'인사말하는_'
'인간_'
'익산_'
'이탈리아_'
'이야기_'
'이베스트투자증권_'
'이명박_'
'이루'
'이동_'
'이닝_'
'이강인_'
'음식_'
'융자_'
'유형'
'유출'
'유아'
'유기'
'위즈'
'위에서_'
'원내대표'
'워싱턴'
'운전_'
'우천_'
'우리은행'
'우가_'
'용인_'
'용역_'
'요청했다_'
'외무'
'외국인이_'
'완_'
'옵'
'올스타전_'
'오르'
'예산안_'
'영양'
'였'
'열릴_'
'연중_'
'연일_'
'연수_'
'연극_'
'역할_'
'여수_'
'엠씨'
'엇'
'없을_'
'업체인_'
'어려워_'
'약속'
'야간_'
'앞세워_'
'알려진_'
'알려'
'안타를_'
'안성'
'아산_'
'아리'
'씨티'
'씨를_'
'쎄'
'심화'
'심포지엄_'
'심의_'
'신탁'
'신인_'
'신기록_'
'식물'
'시키는_'
'시즌2_'
'시작한다고_'
'시스'
'시상'
'시범'
'시그니처_'
'시가_'
'습_'
'스튜디오'
'스타트업'
'스케'
'스스로_'
'순매수'
'수학'
'수주했다고_'
'수익'
'수용'
'수술'
'수를_'
'수당_'
'수급_'
'쇼트트랙_'
'송도'
'손흥민이_'
'손흥민은_'
'세종시'
'세상_'
'세부'
'세로_'
'세계적_'
'섬유'
'선포식_'
'선택_'
'선착순_'
'선정돼_'
'선원_'
'서버_'
'서구'
'상주_'
'상무_'
'산업부_'
'사업자_'
'사실_'
'사망자_'
'사라'
'사고'
'빵'
'빚'
'비엔'
'비스'
'비난'
'블루_'
'붕괴_'
'분야에서_'
'북한에_'
'부패'
'부산지'
'부산에서_'
'부산국제'
'부가_'
'봇'
'보존'
'보도_'
'보니_'
'병역'
'변호사'
'베스트'
'법률'
'밸리'
'밴'
'발의_'
'발급_'
'발견된_'
'박주'
'박스'
'바뀐다_'
'밑'
'민원_'
'미탁_'
'미소'
'물품'
'물가'
'문화체육관광부_'
'문화예술'
'무죄_'
'무더기_'
'목적'
'모르'
'명절_'
'명문'
'면세점'
'멘'
'메달_'
'매치_'
'매주_'
'매입_'
'매수에_'
'매도'
'마음'
'마무리'
'마리'
'마련하'
'리오'
'률'
'로밍_'
'레스'
'럭셔리_'
'량이_'
'뜨거운_'
'뛰'
'떨어'
'딩_'
'둔'
'될까_'
'됐던_'
'동해_'
'동생_'
'동대문'
'도시재생'
'도서관_'
'도를_'
'도내_'
'대피_'
'대표이사가_'
'대체_'
'대법원'
'대림산업_'
'당했다_'
'당사'
'달빛'
'닛산_'
'니아_'
'니스'
'뉴트리'
'누구_'
'농장_'
'념'
'넷마블'
'넷_'
'내정'
'내리'
'남구_'
'나흘'
'나온_'
'김선'
'김병'
'김경문_'
'기회를_'
'기존'
'기업과_'
'기소된_'
'기록해_'
'기금'
'급식_'
'금융감독원'
'규정'
'규모'
'국회의장_'
'국정감사_'
'국민의_'
'국무'
'구현'
'구조조정_'
'구제역_'
'광장_'
'광명시_'
'관이_'
'관계자는_'
'공판'
'공제'
'공원에서_'
'공기'
'공관'
'공개채용_'
'곧_'
'곡_'
'경품_'
'결론_'
'결과가_'
'게임즈'
'게이밍_'
'것에_'
'건조기_'
'건의_'
'건물'
'거주'
'거부'
'거래량의_'
'객실'
'개헌'
'개정안_'
'개인은_'
'개소'
'개를_'
'강원랜드_'
'강세다_'
'강도_'
'갔다_'
'각자_'
'가정_'
'가계대출_'
'韓'
'前'
'… '_'
'y'
'km_'
'f'
'SNS'
'SM'
'LGU_'
'K리그1_'
'KTB'
'KCC_'
'IBK'
'CN'
'BNK'
'9억'
'91'
'8000'
'7일부터_'
'700원_'
'6차_'
'6년'
'650'
'64'
'4회_'
'4억_'
'4억'
'4시_'
'3주'
'39_'
'2억원'
'2500'
'2016년'
'201'
'1주'
'1시_'
'1만4'
'1만3'
'199'
'180'
'13시_'
'10일까지_'
'10만'
'100주년_'
'1000억원_'
'0억_'
'09'
'07_'
' <_'
'휴가_'
'횡령_'
'황_'
'활용해_'
'활발'
'환율'
'확실'
'화장'
'홈페이지를_'
'호남_'
'혈액'
'현지'
'현대차그룹_'
'현대상선_'
'혁'
'혀_'
'헌법_'
'허위'
'행정_'
'행동'
'했을_'
'핵실험_'
'해피'
'해주는_'
'해결하'
'한양'
'한수원_'
'한반도'
'한국인'
'한국이_'
'한국마사회_'
'학교에_'
'하트'
'하나금융투자는_'
'피파'
'피칭'
'피아'
'피스'
'프로젝트'
'프로그램'
'폴리'
'폭력'
'포함한_'
'포트나이트_'
'폐기_'
'편입_'
'팡'
'팔_'
'파트너'
'파인'
'티켓_'
'트럼프'
'트랙_'
'투명'
'투기_'
'토트넘'
'토너먼트_'
'택시_'
'택시'
'태풍'
'태평양_'
'탐'
'킥'
'쿼'
'쿨'
'콘셉트'
'컨벤션센터에서_'
'캡슐'
'캠코_'
'캠'
'캐시'
'캄'
'출판'
'출장_'
'출국_'
'출격_'
'출간_'
'축사_'
'축_'
'추첨'
'추락'
'촬영_'
'총액_'
'총선_'
'초등생_'
'청은_'
'청와대는_'
'청소'
'챌린지_'
'참가자를_'
'짧'
'질주_'
'진행한_'
'진행된다_'
'직후_'
'지주_'
'지원에_'
'지배'
'지능형_'
'지난해보다_'
'지금'
'증가하며_'
'쥐'
'중심의_'
'중동'
'중구'
'중견기업'
'주한미군_'
'주장'
'주식형펀드_'
'주변'
'존재'
'조희연_'
'조합원'
'조정했다_'
'조원'
'조사에서_'
'졌습니다_'
'제재'
'제외'
'제보'
'제로_'
'제7'
'제6회_'
'제6'
'제5회_'
'정해'
'정성'
'정답'
'정기예금_'
'젊은_'
'전쟁'
'전역'
'전속'
'전설_'
'적시타_'
'저출산_'
'재건축'
'장으로_'
'작품_'
'자회사인_'
'있었'
'임대주택_'
'읽'
'일부'
'일본에서_'
'일대'
'인스'
'인문'
'이현'
'이통'
'이인'
'이사장이_'
'이번엔_'
'의결_'
'응답'
'으나_'
'윤성'
'유해_'
'유해'
'유지'
'유산_'
'윈_'
'위성'
'웹툰_'
'웠다_'
'원주'
'원전'
'원인'
'원대_'
'원내'
'원격'
'움'
'운영하'
'우진'
'우리은행은_'
'외국인은_'
'외교부는_'
'완성'
'옹'
'올해도_'
'올린_'
'오피스텔'
'오버워치_'
'오더_'
'예상된다_'
'옆'
'연합회'
'연체'
'연차'
'연준_'
'연말까지_'
'연구개발_'
'여파로_'
'여야'
'여성의_'
'여사가_'
'여사'
'엔진'
'엔지니어링'
'에코'
'에선_'
'에르'
'업체에_'
'업소_'
'억원의_'
'억원으로_'
'어촌'
'어떤_'
'양자'
'양도'
'야당_'
'앰'
'앞에_'
'았'
'압_'
'알뜰'
'않을_'
'안돼_'
'안동'
'아트_'
'아산'
'아버지_'
'아마존_'
'아들'
'아기'
'심판_'
'심사를_'
'실현'
'실태조사_'
'실제_'
'실버'
'신한카드_'
'시아'
'시상식에서_'
'시범사업_'
'시리아_'
'시공'
'스타일_'
'스키_'
'스크린'
'스퀘어_'
'스위스_'
'스마트시티_'
'스리'
'쉬_'
'순환'
'숙박'
'수혜'
'수출입'
'수십'
'수시'
'수색_'
'수거'
'송파'
'소비_'
'소개_'
'센서_'
'선언했다_'
'선수단'
'서울의_'
'서브'
'서명'
'생중계_'
'생리대_'
'상태_'
'삼아'
'삶'
'살아'
'사직'
'사이버'
'사은'
'사유'
'사용자'
'사무실_'
'사기'
'사건이_'
'비치'
'비대면_'
'브렉시트_'
'불확실성_'
'분명'
'부부'
'부대'
'봐'
'봉사활동을_'
'본부가_'
'본부'
'본격적으로_'
'복구'
'보조금_'
'보전'
'보이는_'
'보유한_'
'변동'
'벤처기업'
'버리'
'뱅크_'
'방한_'
'방한'
'방침'
'발효'
'발생해_'
'받아'
'반응_'
'박람회'
'바이오텍_'
'바이오시밀러_'
'바이러스_'
'밍_'
'미니_'
'미국에서_'
'무장'
'무너'
'못하고_'
'모집'
'모습_'
'명에_'
'멕시코'
'메시'
'멀'
'맥스'
'맥도날드_'
'매장'
'매일'
'맘'
'맑고_'
'말라'
'만족도_'
'만들'
'마포구_'
'마케팅'
'리스_'
'리더_'
'류중일_'
'뢰'
'롯데하이마트_'
'롯데월드타워'
'로에_'
'로스_'
'련_'
'려는_'
'레이스_'
'랭'
'람_'
'라이온즈'
'뜻을_'
'디에이'
'디스'
'드론'
'드래곤'
'돼지'
'동국대_'
'돌입했다_'
'도착_'
'도약'
'도발_'
'더불어민주당'
'대회를_'
'대피'
'대표팀이_'
'대표로_'
'당하'
'담배_'
'다소_'
'다르'
'닉스'
'높이'
'농심_'
'농식품부_'
'녹색'
'노후'
'네트웍스_'
'네이'
'넘었다_'
'내용_'
'내는_'
'남해'
'나서'
'나눠'
'긴장_'
'기증'
'기자회견'
'기원'
'기업을_'
'기업으로_'
'기아차'
'금메달_'
'글라'
'근무_'
'규모다_'
'권에_'
'국정농단_'
'국산_'
'국가안보'
'국가기'
'구자'
'구속영장을_'
'구본무_'
'구가_'
'교섭단체_'
'과기'
'과거'
'공업_'
'공모가_'
'공로'
'공감'
'고위_'
'고성_'
'고를_'
'고려대_'
'고급_'
'고교'
'경찰은_'
'경쟁률_'
'경연대회_'
'경매'
'겼다_'
'검증_'
'건강보험_'
'거쳐_'
'개회'
'개최된다_'
'개장'
'개방_'
'강연'
'車_'
'與_'
'㎞ _'
'↑_'
'”… _'
'” '
'··· _'
'w'
'l'
'`, _'
'V_'
'TF_'
'MB'
'K리그2_'
'KP'
'KAI_'
'IT_'
'IA'
'G마켓_'
'CC'
'9회_'
'99_'
'89'
'87_'
'700'
'6일부터_'
'5천'
'5G'
'5000만원_'
'4차산업혁명_'
'4위_'
'4강_'
'480'
'44_'
'3종을_'
'3개'
'330'
'30만'
'2회_'
'2회'
'2만_'
'2대_'
'28일부터_'
'25일부터_'
'25일까지_'
'250'
'240'
'2022년_'
'2017년'
'1차전_'
'1차'
'1월'
'1만원_'
'19대_'
'170'
'14일까지_'
'13일까지_'
'134'
'122'
'110'
'1000만원'
'07'
'+'
'' '_'
' & _'
'후속'
'후보자'
'활성화'
'확대한다_'
'확대를_'
'홀딩스'
'혼자_'
'호실적_'
'호남'
'협력사'
'현실'
'혁명'
'헬'
'헤드'
'헌혈'
'향상_'
'행복한_'
'행동_'
'햇'
'해커'
'항의_'
'항소'
'합병'
'할까_'
'한전'
'한의'
'한류'
'한라'
'한글'
'한국타이어'
'하태경_'
'하세요_'
'하나금융'
'하겠다는_'
'필름_'
'피부_'
'플래'
'풍산'
'풍_'
'품목'
'푸르지오_'
'표현'
'폴_'
'편의'
'판매하는_'
'판결'
'파트너_'
'튼'
'특별한_'
'통신사'
'토지'
'토론_'
'테크노'
'테리'
'터널_'
'태국'
'탕_'
'탑재한_'
'탄도미사일_'
'킬_'
'크레'
'큐브_'
'큐_'
'콜_'
'켜'
'케이_'
'컴퍼니_'
'컬러'
'칩_'
'칠_'
'친환경'
'치유'
'치과'
'취재진_'
'취재진'
'춰'
'출시를_'
'최장_'
'최소화'
'최강_'
'초대'
'초과'
'체중'
'체육대회_'
'청장'
'청와대가_'
'청소년들'
'청과_'
'챔피언'
'참모'
'쪽_'
'질환'
'질병'
'진출한다_'
'진짜_'
'진주'
'진영'
'직장'
'직권'
'지표_'
'지표'
'지점_'
'지적했다_'
'지역별_'
'지속가능'
'지배구조_'
'지도자_'
'지도부'
'지급하'
'즐'
'즉각_'
'즈가_'
'줬다_'
'중소벤처기업'
'중도'
'중단'
'줄었다_'
'주요'
'주식회사_'
'주민들이_'
'족'
'조회'
'조선해양'
'조사에_'
'조명균_'
'조명'
'조만간_'
'조건_'
'제조업체_'
'제조업_'
'제임스_'
'제동'
'제대로_'
'제가_'
'제4차_'
'제13회_'
'정체_'
'정책을_'
'정원_'
'정수'
'정부와_'
'정리'
'정경심_'
'접촉'
'점에_'
'절차를_'
'전화_'
'전통_'
'전체회의_'
'전주시_'
'전월'
'전원_'
'전서_'
'전보다_'
'전남도'
'전국이_'
'전공'
'적극적인_'
'장외'
'작은_'
'작업'
'자산운용'
'자본_'
'자릿수_'
'자리를_'
'자기'
'입건_'
'임차'
'잃'
'일시_'
'일고_'
'인천시'
'인식'
'인사혁신처'
'인명'
'익스'
'이치'
'이유'
'이용해_'
'이야기'
'이상이_'
'이벤트'
'이라'
'이끌'
'이글스'
'의혹에_'
'의료기기_'
'음료_'
'율은_'
'육아'
'유튜브_'
'유료'
'유기농_'
'유공자_'
'위험이_'
'위치_'
'위를_'
'원서_'
'운영자금_'
'운명'
'우려에_'
'우는_'
'용산'
'외국인과_'
'왜'
'완도'
'올해는_'
'옥션_'
'오스'
'옛_'
'예정인_'
'예금_'
'영원'
'영상을_'
'였습니다_'
'연이'
'연안'
'연습'
'연구원은_'
'연고'
'역할'
'여의도'
'여성가족부_'
'엔터'
'엔에스'
'없애'
'얼굴'
'어선'
'어렵다_'
'어디'
'앤컴퍼니'
'액티브'
'액이_'
'애니메이션_'
'앙_'
'알아'
'알고'
'안희정_'
'안이_'
'안건'
'아트'
'아이스'
'아내'
'쏠'
'쏘'
'썸'
'쌓'
'쌍용차_'
'싹'
'심판'
'심각한_'
'실형_'
'실험'
'실업'
'신호_'
'신학기_'
'신체'
'신장'
'신세계푸드_'
'신성'
'신문_'
'식이_'
'식에_'
'시청_'
'시정'
'시작으로_'
'시위'
'시세'
'시설을_'
'시내'
'시기_'
'시구'
'스파'
'스타트_'
'스의_'
'슛'
'숨지'
'순간_'
'수익률'
'수수_'
'수능_'
'수강생_'
'솔_'
'손흥민'
'소울_'
'소리'
'소규모_'
'셈'
'센터장'
'센터를_'
'세종로_'
'성인'
'성동'
'성남시'
'선정한_'
'선임했다_'
'선수들_'
'석탄'
'생일'
'상하'
'상조'
'상장을_'
'상원_'
'상승세를_'
'상설'
'삼화'
'삼성화재_'
'살해한_'
'산은_'
'사표_'
'사용하'
'사옥_'
'사업부_'
'사상'
'사물인터넷_'
'사무총장_'
'사무'
'사모펀드_'
'비핵화'
'비선'
'붐'
'불출마_'
'분위기_'
'분담'
'북구'
'부터는_'
'부족_'
'부위원장_'
'부여'
'부상으로_'
'부산항'
'봄맞이_'
'본다_'
'보여주'
'보내'
'별도'
'베이징_'
'법무부'
'뱅크'
'밴드_'
'백화점_'
'백화점'
'방제'
'방법_'
'방문객'
'발족_'
'발언을_'
'발언'
'발명'
'받았'
'반려동물_'
'박경'
'바른정당'
'바람'
'바라보고_'
'믿'
'민주_'
'미사'
'미국이_'
'물러'
'문화재_'
'문제가_'
'무시'
'무산'
'못했다_'
'모비'
'모금'
'멸'
'면제_'
'멜'
'메이저리그_'
'메이_'
'메리'
'맨유'
'매력_'
'매도강세_'
'많아_'
'만명_'
'만료'
'만기_'
'마켓'
'마일'
'마이크_'
'마라톤_'
'리포'
'리츠'
'리스트_'
'름'
'루스'
'룡'
'료를_'
'롬_'
'로스'
'로마'
'렬_'
'렛츠런파크_'
'레인'
'라스'
'뚝_'
'떨어진_'
'떨어졌다_'
'때문이다_'
'등판'
'등재_'
'둘러보는_'
'된다고_'
'되어_'
'됐'
'돼'
'동향_'
'동의_'
'동원F_'
'동서'
'동산'
'동반성장'
'돌입'
'돌아온_'
'독일'
'도쿄_'
'도의_'
'도심'
'도시철도_'
'데일리'
'덜_'
'던지'
'더위_'
'대한항공'
'대표이사를_'
'대표이사로_'
'대우조선_'
'대외'
'대와_'
'대안'
'대동'
'당기순'
'당국이_'
'당국_'
'담당_'
'담당'
'단일팀_'
'단기_'
'닥터'
'다스'
'다녀'
'닛케이_'
'농업_'
'노바'
'노동조합'
'년생_'
'너지_'
'낸다_'
'내용의_'
'내수_'
'낮은_'
'났'
'납'
'남편_'
'남기'
'난민'
'나왔습니다_'
'나오는_'
'나서고_'
'꼽'
'꺾'
'까지'
'김현미_'
'김포'
'김지'
'김영주_'
'김수'
'김상'
'길이_'
'길을_'
'기지_'
'기지'
'기반'
'기념사'
'기내'
'기관은_'
'금고'
'금강산_'
'그리'
'그랜드'
'규모가_'
'귀국'
'권리'
'권력'
'권고'
'군이_'
'군수_'
'국토교통부_'
'국방장관_'
'구성된_'
'교환'
'관광공사_'
'관계자'
'과정을_'
'공학_'
'공청회_'
'공정_'
'공부'
'공급하는_'
'공군_'
'공군'
'곤'
'고용노동부'
'고민_'
'고가_'
'계획이라고_'
'계정_'
'계란'
'경제부총리_'
'경북도_'
'경북도'
'경로'
'경기에_'
'결혼'
'격려_'
'겨냥_'
'거점'
'개정안'
'개입_'
'개발을_'
'강화한다_'
'강세를_'
'감시'
'감소했다_'
'감면_'
'가처분_'
'가져'
'가상'
'd_'
'VI'
'UN'
'SUV_'
'PC방_'
'OLED_'
'MP'
'MLB_'
'MBC'
'LG전자'
'LG이노텍_'
'KG'
'KB금융_'
'KB국민카드_'
'IBK투자증권_'
'ER'
'ELS_'
'AR_'
'AG_'
'? _'
'95'
'84_'
'7일'
'7월부터_'
'7명'
'7만원'
'5조'
'5개'
'58_'
'55_'
'550'
'4월'
'4명이_'
'3차'
'3일부터_'
'3연'
'3억_'
'3명'
'3년간_'
'3개월'
'30주년_'
'30억원_'
'2호'
'2경기_'
'2개월_'
'22일부터_'
'2020_'
'2018년'
'2018'
'200원'
'1의_'
'1년간_'
'19일까지_'
'190'
'13억'
'12일까지_'
'125'
'11일부터_'
'10일부터_'
'103'
'0만'
'03'
'00_'
'...'
'' '
'% '
'％'
'女_'
'힐'
'흡수_'
'흐름을_'
'흐_'
'흉'
'휴식'
'휘발유_'
'효과'
'회관에서_'
'환영'
'화를_'
'홍콩'
'홍영표_'
'홈쇼핑_'
'홀딩스는_'
'호텔신라_'
'호조_'
'호수'
'호날두'
'형제'
'형성'
'협회장_'
'협의체_'
'협업'
'협상을_'
'현상'
'현대자동차_'
'현대백화점'
'혁신도시_'
'헌법재판관_'
'행진을_'
'행장'
'행복_'
'핸드'
'해킹_'
'해역'
'해군'
'한파'
'한국토지주택공사는_'
'한국어_'
'한국어'
'한국교'
'학원'
'학기'
'하려면_'
'하나로_'
'필립'
'필리핀'
'피부'
'피겨_'
'풍성_'
'폭염'
'포기_'
'폐기'
'평가를_'
'편입'
'페이트_'
'페스'
'펄'
'팝'
'판에_'
'판매가_'
'파주_'
'파일'
'파악'
'파르'
'특허권을_'
'특위_'
'특보_'
'트루'
'트로'
'트렌드'
'퇴장'
'통영'
'통계청'
'토크_'
'테슬라_'
'테마파크_'
'테라스_'
'테_'
'터를_'
'탭'
'탈당'
'타격'
'키움증권은_'
'클리'
'큰'
'콘테스트_'
'코아'
'코스피지수가_'
'코스메틱_'
'코드_'
'켄'
'케이블_'
'케이뱅크_'
'컨테이너'
'커넥'
'캠프'
'카페'
'취약'
'충분'
'춤'
'춘천시'
'축하_'
'축산'
'축사하는_'
'추세_'
'추경_'
'최다'
'최고위원회의_'
'총회'
'초대형_'
'체크'
'체인_'
'청문회_'
'챔피언스'
'채널'
'창원시'
'창단_'
'참석자들이_'
'차가_'
'짜리_'
'징계를_'
'진학'
'진출을_'
'진주시'
'진주_'
'진에어'
'진도_'
'직접'
'지출'
'지주사_'
'지식재산'
'증가로_'
'즉'
'중장기_'
'중에_'
'중앙은행'
'중대'
'중기중앙회_'
'줌'
'주자'
'주얼리_'
'죄_'
'종의_'
'조작'
'조각'
'졌'
'제주항공'
'제정_'
'제정'
'제동_'
'제7회_'
'정책에_'
'정착'
'정신_'
'정례'
'정경두_'
'접근'
'절감'
'전지'
'전장'
'전설'
'전략회의_'
'전략을_'
'전년'
'전남도_'
'적절'
'적극적으로_'
'저장'
'재정_'
'재생'
'장현'
'장수'
'장관'
'잠수함_'
'자리에_'
'있던_'
'입국'
'임직원'
'임원'
'임박_'
'임기'
'일은_'
'일으'
'일대_'
'인프라'
'인천공항'
'인사하고_'
'인명진_'
'인구'
'이행'
'이천_'
'이자'
'이윤'
'이원'
'이용할_'
'이어갔다_'
'이스'
'이상의_'
'이민_'
'이미'
'이면_'
'이마트'
'이랜드'
'이데일리_'
'이끄는_'
'이경'
'의원회관에서_'
'의심'
'의성'
'의사를_'
'의무화_'
'음악_'
'은행과_'
'육군'
'유저_'
'유사'
'유명'
'유관'
'윙'
'웨'
'월평균_'
'원칙'
'원주시'
'원장'
'워싱턴_'
'운항'
'우체국_'
'우정'
'우유_'
'우원식_'
'우스_'
'우수한_'
'우리카드_'
'용인시_'
'외부'
'완판_'
'완전히_'
'완전_'
'완료했다_'
'와인_'
'옮'
'온실가스_'
'오피스_'
'오픈했다_'
'오프'
'오찬_'
'오전'
'오리온'
'오류_'
'오늘'
'영천'
'영주'
'영장'
'영입'
'열어'
'연패_'
'연봉'
'연말_'
'역전승_'
'역량'
'여객선_'
'업데이트'
'업그레이드_'
'업계'
'억달러_'
'어요_'
'어업'
'어린이집'
'양천구_'
'양산'
'않았'
'안전한국훈련_'
'안양_'
'안산_'
'안내_'
'아주'
'아우'
'아름다운_'
'아레나'
'쓰리'
'싸움_'
'실시한_'
'실명'
'실망'
'신혼부부'
'신탁계약_'
'신재생에너지_'
'신입'
'신영'
'신상'
'신뢰'
'신년_'
'신규상장'
'시행한다고_'
'시초가_'
'시청'
'시작된다_'
'시의_'
'시스_'
'시설에_'
'시민단체_'
'승리했다_'
'스피커_'
'스프'
'스토'
'스테이'
'스킨_'
'스카이'
'스윙'
'쉽'
'쉐보레_'
'수제'
'수요_'
'수상자'
'수산물_'
'수사권_'
'쇠'
'송환_'
'송금_'
'속에서_'
'소유'
'소식'
'소비자들'
'소방서_'
'세일'
'성폭행'
'성지'
'성공했다고_'
'선동'
'서울에_'
'서울시장_'
'서민_'
'서민'
'생존'
'생명보험'
'상황'
'상품권_'
'상주'
'상상'
'상당_'
'삼척_'
'삼정'
'산단'
'사회복지'
'사진을_'
'사장에_'
'사인_'
'사이버_'
'사업장'
'사무소_'
'사고로_'
'사건과_'
'빼'
'빗썸_'
'빌_'
'비해_'
'비판'
'비중이_'
'비서관_'
'브리핑을_'
'불참_'
'불러'
'불공정'
'분할'
'분리_'
'북부_'
'북미정상회담_'
'부활_'
'부처'
'부적'
'부부_'
'부문에서_'
'부대_'
'봄철_'
'본부장'
'보행'
'보유주식이_'
'보우'
'보석'
'보상_'
'보너스_'
'병행'
'병원은_'
'병사'
'별로_'
'변경됐다고_'
'베일_'
'벚꽃_'
'번호_'
'배정_'
'배우자_'
'배경'
'방탄소년단_'
'방영'
'방역'
'방식_'
'밖에_'
'박성현_'
'박사'
'박물관'
'밀양'
'민중'
'민주주의'
'민주노총_'
'미래를_'
'뭉'
'물리'
'문화축제_'
'문화재단은_'
'문화재'
'묵'
'무역협'
'무선_'
'몽골_'
'몬스터_'
'몬스'
'모스'
'모멘텀_'
'멤버십_'
'메트로'
'메리츠'
'메뉴'
'메_'
'맥주'
'매니저_'
'맞손_'
'만들어'
'만9'
'마쳤다_'
'마이크로'
'마시'
'마드리드'
'릿'
'룡_'
'롱_'
'롯데푸드_'
'롯데제과_'
'롯데면세점_'
'로지'
'렛_'
'렐'
'렌탈'
'레드_'
'라면_'
'띄'
'뜻'
'딥'
'딘'
'디아'
'들이'
'들도_'
'될'
'되어'
'동네_'
'동계올림픽'
'돌아왔다_'
'독_'
'도쿄'
'도민'
'대회에서_'
'대표이사'
'대표들'
'대유'
'대선후보'
'대상에_'
'당정_'
'당선'
'당기순이익_'
'답하는_'
'답변'
'달리는_'
'달러로_'
'다며_'
'님_'
'님'
'닌_'
'능력_'
'눈길_'
'누구'
'높아지'
'높아'
'높다_'
'논의하'
'논란을_'
'노하우_'
'노스'
'노선'
'노린다_'
'넣은_'
'내에서_'
'내렸다_'
'내다봤다_'
'내년에_'
'납품'
'남동'
'남도'
'나서는_'
'나쁜_'
'끝내기_'
'끌어'
'끈다_'
'김준기_'
'김은경_'
'김대'
'김광'
'기원_'
'기록하며_'
'기도_'
'기능성_'
'기념관'
'기관이_'
'금융위원회'
'금융업'
'금속'
'금리인상_'
'근절_'
'그의_'
'그룹의_'
'그런데_'
'그동안_'
'그대로_'
'규정_'
'권역'
'궁_'
'굿'
'국회의장이_'
'국토교통부는_'
'국제교류'
'국민이_'
'국민연금공단_'
'국민연금'
'국민들'
'국내에서_'
'구입'
'구역'
'교통사고'
'교육부'
'교원_'
'교보'
'광복'
'괌_'
'관중_'
'관리위원회'
'곽'
'과장'
'과거_'
'공정위'
'공약'
'공매도_'
'공동주택_'
'공대'
'공급한다고_'
'공급한다_'
'공감_'
'고양이'
'고속'
'고성'
'고등'
'고덕'
'계좌'
'계절'
'계열사'
'계약금액은_'
'경험'
'경선_'
'경산'
'경보_'
'경륜'
'겸'
'결의안_'
'결산배당'
'격차_'
'것이라는_'
'검색_'
'건설현장_'
'건설이_'
'건설사'
'건설공사_'
'건강보험'
'갱'
'개혁을_'
'개최한_'
'개최된_'
'개인정보'
'개성공단_'
'강행_'
'강연_'
'강세'
'강사'
'강력'
'감소했다고_'
'감성'
'간호'
'가지'
'가졌다고_'
'가져_'
'가전'
'가속화_'
'가방'
'가뭄_'
'가를_'
'가능'
'가까이_'
'가계'
'株_'
'朴_'
'…'
'’, ‘_'
'· _'
'y_'
'x'
'r'
'SPC'
'SK텔레콤은_'
'SBS_'
'RO'
'PT'
'OT'
'OECD_'
'LTE_'
'LG화학'
'LG그룹_'
'KTX_'
'KIA'
'KB증권에서_'
'KAIST_'
'HM'
'FDA_'
'EP'
'DM'
'DB금융투자_'
'C는_'
'CJ그룹_'
'CGV_'
'9조'
'9일까지_'
'97_'
'92_'
'900원'
'8억_'
'8억'
'8시'
'8명'
'88_'
'83_'
'7억원'
'7시_'
'700만'
'6조'
'6억_'
'6개월'
'64_'
'63_'
'61_'
'5일부터_'
'5경기_'
'57_'
'51_'
'3명이_'
'340'
'30억_'
'30년_'
'3000만원_'
'2위'
'2시간_'
'2시'
'2루타_'
'2기_'
'2개'
'29일부터_'
'280'
'27일까지_'
'22일까지_'
'20대'
'203'
'200억원_'
'1억원을_'
'1명이_'
'1대_'
'1단계_'
'189'
'15년_'
'150원_'
'140'
'13일부터_'
'11만'
'113'
'10시'
'10만_'
'105'
'100억_'
'0억원'
'01_'
'01'
'"㈜_'
'!'_'
'힐링_'
'히어로즈_'
'흡수'
'휴양'
'휴식_'
'휴대'
'휴가'
'훼손_'
'훼손'
'회장으로_'
'회의가_'
'회수'
'황제_'
'황재균_'
'황금연휴_'
'활동에_'
'환율은_'
'확대한다고_'
'화해'
'화천'
'화재가_'
'화웨이_'
'홍천'
'호황'
'호에'
'형태'
'형이_'
'협회와_'
'협회'
'협력업체'
'현역_'
'현대홈쇼핑_'
'현대중공업'
'현대백화점그룹_'
'헬스'
'헝앱_'
'헝그리앱은_'
'향토'
'향상'
'행정안전부'
'행정부'
'행사가_'
'해양경찰'
'해상_'
'해병대'
'합의했다_'
'합류'
'합동_'
'함에_'
'함께'
'한인'
'한우'
'한솔'
'한도_'
'한국항공우주'
'한국지'
'한국에_'
'한국경제'
'한국거래소'
'하향'
'하우스'
'하다고_'
'핏_'
'필요성'
'플_'
'프리_'
'프렌즈_'
'프랑스'
'품목_'
'푸른'
'푸르'
'표시_'
'표를_'
'폭탄_'
'포트'
'폐막'
'펠'
'페라'
'펑'
'펀딩_'
'펀드를_'
'퍼즐'
'패배'
'패드_'
'팔아'
'판을_'
'파마'
'파나'
'파기'
'특화_'
'특정_'
'트를_'
'트렌드_'
'트레'
'투쟁'
'통계'
'톱_'
'토스_'
'토니'
'테스트'
'터리'
'탱'
'태광'
'탕'
'탈원전_'
'타이거_'
'타이_'
'타운'
'킨'
'키스'
'클라우드'
'크리에이터_'
'크리'
'크루즈_'
'크로스'
'크로'
'콜라보_'
'코인'
'코스닥시장본부는_'
'코드'
'켓_'
'켈리_'
'케인_'
'케미칼'
'컨설팅'
'커리'
'카스'
'침해_'
'치열한_'
'치를_'
'치러'
'측이_'
'측에_'
'취임식_'
'충북도'
'충격_'
'충_'
'출동'
'축제가_'
'추진하는_'
'추진설_'
'최악_'
'최성'
'최상'
'최대치_'
'최강'
'촛불'
'촉구하'
'촉'
'첼시'
'청사'
'청년주택_'
'천연'
'창조'
'참여할_'
'참여한_'
'참여연대_'
'찰청'
'차차_'
'차장'
'차원에서_'
'찍고_'
'진화_'
'진행하는_'
'진출했다_'
'진을_'
'진보'
'진공_'
'직전_'
'직원들이_'
'지주회사_'
'지연'
'지역을_'
'지상파_'
'지방분권'
'지나_'
'즌_'
'즌'
'줘_'
'중흥'
'중점'
'중요'
'중순'
'중부_'
'중국에_'
'주체'
'주차'
'주에_'
'주관_'
'죠_'
'좋은'
'종합_'
'존경'
'조현'
'조직개편_'
'조절'
'졌다고_'
'제천'
'제주시_'
'제주국제'
'제약은_'
'제시했다_'
'제시'
'제로'
'제도'
'제네시스_'
'제공한다고_'
'제2의_'
'제10'
'정체'
'정상화_'
'정부에_'
'접속'
'점으로_'
'점검을_'
'전형_'
'전형'
'전체'
'전주시'
'전이_'
'전사'
'전분기比_'
'전면'
'전대'
'전달하고_'
'전달식_'
'전남대'
'적이'
'저소득_'
'재판부'
'재일'
'재선'
'재단과_'
'장학금을_'
'장면_'
'장마'
'작전_'
'자택'
'자정'
'자영업자_'
'자신이_'
'자세'
'자본시장'
'있지만_'
'임직원들이_'
'임명했다_'
'일제_'
'일제'
'일정'
'일본에_'
'일렉트로'
'인테리어_'
'인터파크'
'인터뷰를_'
'인천시_'
'인공'
'익산시_'
'이형'
'이주'
'이정후_'
'이어지'
'이어가고_'
'이슈'
'이사회를_'
'이명'
'이른_'
'의회'
'의원과_'
'의류'
'의료기관'
'은행이_'
'으로'
'육박'
'유효_'
'유한'
'유소년_'
'유세'
'유성'
'유망_'
'유동'
'위협'
'위헌'
'위해서는_'
'위조'
'위원회는_'
'월드시리즈_'
'원조_'
'원장에_'
'원유'
'원내대책회의_'
'움직임_'
'운수'
'우수기관_'
'우량'
'용인시'
'와인'
'올림'
'올려_'
'올랐'
'오픈했다고_'
'오키나와_'
'오찬'
'오전장_'
'오션'
'오른다_'
'오르고_'
'오늘은_'
'옐로'
'예비_'
'영하_'
'영동_'
'였던_'
'연맹'
'연말'
'연령'
'여름철_'
'여론조사_'
'여론'
'여당_'
'여건'
'없다고_'
'업자_'
'업무를_'
'얼_'
'억대_'
'양지'
'양재'
'양양_'
'약정'
'야놀자_'
'애플리케이션_'
'암호화폐'
'알파'
'알리는_'
'않다_'
'않기로_'
'안정적_'
'안전성_'
'안전보건'
'안보리_'
'악수하고_'
'아쿠아'
'아이엠'
'아이언'
'아이비'
'아마존'
'아동수당_'
'씽큐_'
'쓴다_'
'쓰레기_'
'쓰는_'
'싼'
'싱글'
'실점_'
'실장_'
'실수'
'신한금융'
'신정'
'신인'
'신용카드'
'신생아_'
'신사'
'신문이_'
'신년'
'시킬_'
'시장은_'
'시민이_'
'시민사회'
'시리즈'
'시대'
'시각_'
'승무원_'
'스포'
'스타일'
'스마트공장_'
'스럽'
'슈팅_'
'술을_'
'순창'
'수행_'
'수출이_'
'수준의_'
'수정'
'수수료'
'수반'
'수능'
'수급'
'송치_'
'손해배상_'
'손잡'
'속으로_'
'소음_'
'소에_'
'소액'
'소스'
'소송을_'
'소멸'
'소리_'
'소니'
'센터가_'
'세우'
'세무'
'세가_'
'성향'
'성폭력_'
'성이_'
'성능_'
'섯'
'설명회를_'
'선호'
'선제'
'선보이고_'
'서버'
'샷_'
'생중계'
'생애_'
'새만금'
'상회'
'상장폐지_'
'상용차_'
'상시'
'상승에_'
'상승세다_'
'상승세'
'상금_'
'삼일'
'삼성바이오'
'살펴보고_'
'살인_'
'산청군'
'산업기술'
'산악'
'사흘_'
'사측'
'사진제공_'
'사이트'
'사이에_'
'사우디_'
'사실을_'
'사명'
'사령부'
'사람이_'
'사라진다_'
'사단_'
'사건의_'
'사건'
'빛_'
'빚은_'
'빙_'
'비행_'
'비즈니스'
'비앤'
'비서실장_'
'비는_'
'비교_'
'블리자드_'
'블리'
'블랙_'
'브리검_'
'불안_'
'불발_'
'불가능'
'불가_'
'분양가_'
'북한은_'
'부회장'
'부평'
'부처_'
'부채'
'부족'
'부산의_'
'부모'
'본드_'
'본격화'
'복원'
'보험사'
'보험료_'
'보증_'
'보입니다_'
'보인_'
'보이며_'
'보은'
'보복'
'벨기에_'
'베어스'
'베네수엘라_'
'법적'
'법무'
'뱅'
'밸런'
'배포_'
'배우'
'배상'
'배당을_'
'방화'
'방해_'
'방치'
'밥_'
'밝혀_'
'발령'
'발견돼_'
'발간'
'받지_'
'받기_'
'받게_'
'반전'
'반입_'
'밖_'
'박지'
'박주선_'
'박영선_'
'박영'
'바닥'
'바뀌'
'바꿔'
'민속'
'미용'
'미만_'
'미만'
'물량'
'무용'
'무소'
'무료로_'
'무려_'
'못하'
'몸_'
'몰려_'
'목소리가_'
'목소리_'
'모아_'
'모아'
'명칭_'
'명절을_'
'명절'
'면역'
'면서도_'
'메달'
'매출을_'
'매체'
'매직_'
'매몰'
'매니'
'맞이'
'맑음_'
'말을_'
'만달러_'
'막는다_'
'마크롱_'
'마스터_'
'마루'
'마당'
'릿_'
'리브'
'르고_'
'률은_'
'루이'
'롯데호텔에서_'
'롯데캐슬_'
'로보'
'렴'
'렉스턴_'
'럼'
'램_'
'램'
'똑'
'떼'
'딜_'
'디자이너_'
'디자이너'
'들어가'
'듣는_'
'듣고_'
'드를_'
'드레'
'됨에_'
'됐다는_'
'동맹_'
'동료_'
'동기'
'도착'
'도서관'
'도발'
'도로공사_'
'도가_'
'더스'
'더라도_'
'대행_'
'대행'
'대한축구협회'
'대학교는_'
'대진'
'대입'
'대의_'
'대여'
'대륙'
'대는_'
'대기오염'
'대구은행'
'대구경북'
'당직'
'당이_'
'당뇨'
'담보'
'담긴_'
'닫'
'단일판매ㆍ공급계약체결을_'
'단독'
'단기'
'다툼'
'다우'
'다가'
'농성_'
'노력_'
'노동당_'
'넥스'
'네이처'
'네스'
'냐'
'냄'
'내진'
'내용이_'
'내용을_'
'내외'
'낮아'
'낮부터_'
'남서'
'남대'
'남구'
'남경필_'
'나무'
'꿈_'
'꿀'
'꾼'
'김포시_'
'김치_'
'김연아_'
'김세'
'김부겸_'
'김경'
'긴장'
'긴'
'기획_'
'기증_'
'기재부_'
'기재'
'기업은행_'
'기업가'
'기뻐하고_'
'기반으로_'
'기록할_'
'기다'
'기관과_'
'기계_'
'기간을_'
'급증'
'급식'
'금융위원회_'
'금융시장_'
'금융상품_'
'극적_'
'굳'
'국적'
'국장이_'
'국영'
'국무위원장'
'국경'
'국가지'
'국가대표'
'구청장_'
'교회'
'교육감'
'관측'
'관을_'
'공장에서_'
'공장'
'공사가_'
'공모가'
'공기업_'
'공공_'
'곳곳에_'
'곰'
'고정'
'고영'
'고령화_'
'고도_'
'계좌_'
'계약에_'
'계기로_'
'계기'
'경험이_'
'경찰의_'
'경찰서는_'
'경제부총리'
'경영대'
'경선'
'경기도교육청_'
'경기도가_'
'결의'
'격려'
'게임빌_'
'검은사막_'
'검색'
'걸음'
'걸렸다_'
'걸_'
'건의'
'건수_'
'거뒀다_'
'개월_'
'개성'
'개선을_'
'개발했다_'
'개발사_'
'강제징용_'
'강의_'
'강력_'
'감염'
'간편결제_'
'가축'
'가습기_'
'가상통화_'
'가격이_'
'比_'
'㎞_'
'l_'
'e편한세상_'
'TE'
'STX'
'SK텔레콤이_'
'SK네트웍스_'
'PO_'
'OS_'
'NH투자증권은_'
'MC'
'LI'
'KI'
'KBL_'
'IR'
'ICT'
'GT'
'GM'
'FP'
'FI'
'FA컵_'
'DL'
'CS'
'CO'
'CJ대한통운_'
'CI'
'CGV'
'BA'
'A씨'
'AK'
'?''
'94_'
'8월'
'8억원'
'8시_'
'8강_'
'89_'
'750원_'
'720'
'71_'
'7000'
'5시_'
'5배_'
'5만원_'
'520'
'50대'
'4일'
'4억원'
'4당_'
'430'
'42만'
'40억'
'3조_'
'3번째_'
'3대'
'3당_'
'3곳_'
'370'
'300만'
'2호선_'
'2주'
'2일'
'2연패_'
'2연승_'
'2세대_'
'2Q_'
'29일까지_'
'250원_'
'24일까지_'
'2300'
'217'
'20년'
'2020년'
'2016_'
'200억_'
'1호기_'
'1호'
'1억원'
'1분기'
'18일부터_'
'16일부터_'
'16일까지_'
'15억'
'148'
'12일부터_'
'128'
'11일까지_'
'11시'
'111'
'10억'
'10만원'
'10년'
'0으로_'
'0명_'
'04_'
'000원에_'
'..""_'
'. '_'
'% ""_'
'!' _'
' ▲_'
' ~ _'
' | _'
'힘들'
'히는_'
'흡연'
'흑자전환'
'흐림_'
'흐리고_'
'후지'
'효과가_'
'횡성'
'획'
'회장은_'
'회수_'
'회동'
'황창규_'
'환급'
'확대에_'
'화하'
'화폐'
'화장실_'
'화이트'
'화성시'
'화상'
'화보_'
'화려한_'
'홍보관_'
'홈쇼핑'
'혼_'
'호조에_'
'호소'
'형제_'
'형을_'
'협약'
'협동조_'
'혐의'
'현충원_'
'현실화'
'현대건설'
'헌법재판소'
'허용'
'향한_'
'행복주택_'
'해킹'
'해양수산부'
'해법'
'항소심_'
'항만_'
'항공권_'
'합병_'
'합격'
'한화생명'
'한층_'
'한정'
'한자리에_'
'한양대_'
'한상'
'한미약품'
'한마음'
'한때_'
'한다면_'
'한국투자증권은_'
'한국지엠_'
'한국영'
'한국시'
'한국소비자'
'한국도'
'한국기업'
'한국거래소는_'
'학습_'
'학부모_'
'학교에서_'
'하천_'
'하이_'
'하여_'
'하남_'
'필요가_'
'필요'
'필라델피아_'
'픽_'
'피해는_'
'피자_'
'피자'
'플레이오프_'
'픈_'
'프에'
'프리미어_'
'프라임'
'품은_'
'표창을_'
'표준_'
'폭스바겐_'
'폭로_'
'폭락'
'포켓'
'포상'
'포를_'
'포르투갈'
'평택_'
'평점_'
'평생교육'
'편집자주_'
'펙'
'펄어비스_'
'팬들_'
'패소_'
'패널_'
'파키스탄_'
'파산'
'파리바게뜨_'
'파리_'
'파리'
'틸'
'티웨이항공_'
'틀리'
'특성'
'특별수사'
'특례'
'트래'
'트는_'
'투자하는_'
'투자증권'
'투자자들'
'투입'
'통증'
'통신비_'
'톰'
'토요'
'토마토'
'템'
'텔_'
'텍사스'
'테마_'
'테니스_'
'태백'
'태극기_'
'태극기'
'탑재_'
'탈리'
'탈당_'
'킬'
'키즈_'
'클로'
'크리스'
'퀸'
'퀴'
'콘퍼런스_'
'코스피'
'코리안'
'코디'
'코넥스_'
'켓'
'커지고_'
'커스'
'캠페인'
'카카오페이_'
'카지노'
'카드로_'
'칭찬'
'칭_'
'침대_'
'친박'
'측면_'
'취지'
'취임식에서_'
'취득하기로_'
'충청_'
'충돌'
'출원'
'출연_'
'출범식_'
'출마'
'추정되는_'
'추억'
'추석을_'
'최첨단_'
'최지만_'
'최종구_'
'최종'
'최신_'
'최대주주'
'총격'
'촉진'
'초이'
'초등'
'초기_'
'체육관에서_'
'체납'
'청탁금지법_'
'첨'
'천재'
'천안_'
'참석자들'
'참가한_'
'착공_'
'차이나'
'차에_'
'차로_'
'차례'
'찌_'
'쭉'
'째를_'
'징역형'
'짓'
'직한_'
'지켜보는_'
'지침_'
'지점'
'지자체'
'지인_'
'지에_'
'지수'
'지방공'
'지난주_'
'증정하는_'
'증설_'
'증서_'
'증권은_'
'증강현실_'
'즐길_'
'중형_'
'중진'
'중이라고_'
'중소형_'
'중소기업의_'
'중독_'
'중기'
'중국인_'
'중견'
'중개'
'줄었'
'준비하는_'
'죽음'
'주행'
'주택담보대출_'
'주최한_'
'주최로_'
'주최_'
'주총_'
'주제_'
'주인공'
'주에'
'주석_'
'주부_'
'주민센터'
'주민들_'
'주거_'
'좋아'
'종목_'
'좀_'
'좀'
'조회공시를_'
'조회_'
'조직위'
'조인'
'조윤선_'
'조속히_'
'조성을_'
'조선중앙통신이_'
'조례_'
'제철'
'제조기'
'제외한_'
'제어'
'제기한_'
'정현_'
'정진'
'정상회의_'
'정비사업_'
'정부세종청사_'
'정보보호_'
'정도_'
'정국_'
'접수를_'
'점이_'
'절감_'
'전환사채를_'
'전반_'
'전문점_'
'전문가들'
'전망에_'
'전당대회'
'전담_'
'전경련_'
'적발됐다_'
'재해'
'재규어_'
'장치'
'장정석_'
'장원'
'장려금_'
'작품'
'작업에_'
'작성하'
'자주'
'자와_'
'자에게_'
'자리에서_'
'자료제공_'
'자격증_'
'있어'
'잇따'
'잇는_'
'입지'
'입증'
'임하'
'임신_'
'임상시험'
'일신'
'일산_'
'일산'
'일본을_'
'일대에서_'
'인천국제공항'
'인원'
'인수를_'
'인사청문회_'
'인물'
'인도네시아'
'이태'
'이천'
'이창'
'이진'
'이용객'
'이어져_'
'이스타항공_'
'이사장에_'
'이병'
'이번주_'
'이번'
'이르는_'
'이례적'
'이관'
'의지'
'의원들이_'
'의식'
'의무_'
'의결'
'응하'
'음료'
'은행권_'
'은메달'
'율이_'
'육아_'
'유학'
'유영민_'
'유벤투스_'
'유력'
'윈드'
'위치'
'위장'
'위원장에_'
'위메프_'
'위대한_'
'원희룡_'
'원회_'
'원인은_'
'원도심_'
'워커'
'워치_'
'워드'
'웅진'
'울산지역_'
'운용사'
'운동을_'
'우즈'
'우리의_'
'용인'
'용사'
'용량_'
'요금제_'
'외국_'
'왓'
'완성_'
'온도_'
'오프라인_'
'오타니_'
'오정'
'오신환_'
'오라'
'오고_'
'오가'
'예탁결제원_'
'예정자'
'예정된_'
'예약판매_'
'예보'
'예방을_'
'예금'
'영향'
'영월군'
'영업이익을_'
'영업이익률_'
'영동'
'영국'
'영구'
'엽_'
'열립니다_'
'연합_'
'연속으로_'
'연금_'
'역할을_'
'역전'
'역에서_'
'역사상_'
'여파_'
'여진_'
'여원'
'여신'
'여수시_'
'여명이_'
'여명'
'엘앤'
'엔트리_'
'엔터테인먼트_'
'에서의_'
'업종'
'업무보고_'
'언더파_'
'언급_'
'언급'
'억제'
'어치_'
'어린이재단'
'어르신_'
'어드'
'어느_'
'양구'
'얀'
'야생'
'야간'
'앤드'
'액을_'
'애드'
'았던_'
'알에'
'알리기_'
'알고리즘_'
'않겠다_'
'안중근'
'안정적인_'
'안전점검_'
'안의_'
'악재'
'아토피_'
'아일랜드_'
'아이디'
'아쉬운_'
'아는_'
'아나운서'
'아가_'
'쌍용'
'심폐소생술_'
'실태_'
'실천'
'실질'
'실적발표_'
'실적개선_'
'실력_'
'신태용_'
'신축공사_'
'신주'
'신소재_'
'신발'
'신라면세점_'
'신격호_'
'시흥'
'시험발사_'
'시중은행'
'시중'
'시점'
'시작한_'
'시작하'
'시작되'
'시인_'
'시아_'
'시술'
'시민들'
'승용차_'
'스토어'
'스템_'
'스킨'
'순회_'
'순위'
'수확'
'수집'
'수중'
'수용_'
'수신'
'수시_'
'수사하'
'수령'
'수기'
'쇼크_'
'쇄_'
'솔로'
'소형'
'소녀_'
'소녀'
'센텀'
'세포'
'세종대'
'세이프'
'세미나를_'
'세미'
'성주'
'성장하'
'성명_'
'성매매_'
'성금'
'설치하'
'설을_'
'설명_'
'선호_'
'선풍기_'
'선포_'
'선정했다_'
'선정된_'
'선수촌_'
'선수들의_'
'선생'
'선보인_'
'선발대회_'
'석방_'
'서울시장이_'
'서울서_'
'서비스하는_'
'서비스인_'
'서비스가_'
'서남'
'서기'
'서귀포시_'
'생을_'
'생각하'
'상황이'
'상호'
'상징'
'상승률_'
'상속'
'상선'
'상무'
'상대방은_'
'상권'
'삼성증권'
'삼성디스플레이'
'살해'
'산학협력_'
'산재'
'사흘째_'
'사회적기업'
'사회복지시설'
'사항_'
'사퇴를_'
'사천'
'사채_'
'사장과_'
'사이클_'
'사업단'
'사무소'
'사령탑'
'빨리_'
'빨라'
'빨간'
'비중'
'비정'
'비서실장'
'비밀_'
'비밀'
'비난_'
'브로'
'브랜드로_'
'붐_'
'분쟁'
'북측'
'부진에_'
'부정적_'
'부의장'
'부스를_'
'부산은행_'
'부모_'
'부리'
'봤다_'
'보좌관_'
'보람'
'보건의료'
'벨_'
'벤치'
'베트남에_'
'베어스_'
'법안'
'벌이'
'벌였다_'
'벌어'
'배출_'
'배재'
'방안'
'방송을_'
'방문하'
'밝히는_'
'발표를_'
'발의'
'발사체_'
'반입'
'반복'
'반대하는_'
'박해'
'박진'
'박인'
'박사_'
'박병호'
'박기'
'바탕으로_'
'바르셀로나'
'바르'
'바란다_'
'바라보는_'
'바닷'
'민주당'
'민정'
'민심_'
'민관_'
'민관'
'미술관_'
'미수습자_'
'뮤직_'
'뭐'
'물품_'
'물론_'
'문화예술회관_'
'문화관광'
'문정'
'문무일_'
'무한'
'무실'
'무슨_'
'무보증_'
'무단'
'몽_'
'몰아'
'몬_'
'목표는_'
'목포'
'모여_'
'모범'
'모로'
'몇_'
'명장'
'명예훼손_'
'면적_'
'메이크'
'메시지_'
'메시_'
'메모리_'
'멋'
'먼트_'
'먹고_'
'먹거리_'
'머리_'
'머리'
'머니_'
'매티스_'
'매출액은_'
'매직'
'매일_'
'말소'
'만한_'
'만원을_'
'만원으로_'
'만성'
'만루'
'만기'
'막아'
'마스크_'
'마블_'
'리얼_'
'리스크'
'리가_'
'름_'
'른'
'륙'
'류현진은_'
'룸_'
'루트'
'롯데칠성'
'롯데건설_'
'롭'
'로스트'
'렌탈_'
'레이싱_'
'레고'
'랭킹'
'래미안_'
'랍'
'라이프스타일_'
'뜬다_'
'뛰는_'
'떡_'
'떠나는_'
'때문_'
'때려'
'따뜻한_'
'등은_'
'들어서'
'뒤집'
'된'
'되길_'
'동점_'
'동북아_'
'동북'
'동방'
'동반성장_'
'동래'
'동계패럴림픽'
'돌풍'
'돌파를_'
'독립운동'
'도전하'
'도와_'
'데이트'
'데이를_'
'덩'
'덕분에_'
'대화를_'
'대표를_'
'대장정_'
'대원'
'대에_'
'대수'
'대상은_'
'당국'
'단순'
'다산'
'다문화'
'다르다_'
'다니'
'다각화'
'닐_'
'늘었'
'늘어나'
'늘고_'
'뉴욕증시에서_'
'뉴시스와_'
'뉴딜_'
'눈앞_'
'누_'
'뇌물'
'뇌_'
'높아진_'
'농업인'
'농식품'
'농민'
'농가에_'
'놀라'
'노후_'
'노보'
'노동자'
'년간_'
'넬'
'너스'
'내일부터_'
'내세'
'낮춰'
'납세자'
'남긴_'
'낙하'
'나이트_'
'나루'
'끝난_'
'끈'
'꽁'
'꼼'
'깊'
'김희'
'김홍'
'김창'
'김진태_'
'김장'
'김명수_'
'김광현_'
'길에_'
'기준치_'
'기자실에서_'
'기여'
'기에'
'기업들이_'
'기사_'
'기부금_'
'기관의_'
'금이_'
'금융위원장이_'
'금융위원장'
'금융사_'
'금융당국_'
'금융기관_'
'금융그룹_'
'금융권_'
'금액_'
'금리를_'
'금리가_'
'금리'
'근린'
'근거'
'그만'
'그리기_'
'그라운드'
'귀경'
'권한_'
'권영'
'권고_'
'군수'
'국화'
'국이_'
'국비_'
'국방장관'
'국방_'
'국가가_'
'구제'
'구에_'
'구석'
'구를_'
'구금'
'교환_'
'교직원'
'교정'
'교사'
'교과서_'
'교과'
'광산'
'관련된_'
'관광지'
'관광객'
'관계자들이_'
'관계자_'
'과학기술_'
'곶'
'공지'
'공정'
'공수처'
'공석'
'공무원이_'
'공매'
'공동체_'
'공단은_'
'공격을_'
'골프장_'
'고자_'
'고대'
'고교생_'
'고개_'
'계속되는_'
'계단_'
'경희'
'경찰청장_'
'경쟁률을_'
'경영비리_'
'경상'
'경비_'
'경북지'
'경마_'
'경계'
'결선_'
'결산'
'결단'
'견인_'
'겨울철_'
'겨냥'
'게임을_'
'검사를_'
'걸음_'
'건조'
'건전'
'건으로_'
'건설산업_'
'건설사_'
'건강기능식품_'
'거짓말'
'거래일_'
'갤러리'
'개회사'
'개최하고_'
'개척_'
'개척'
'개시'
'개사_'
'개별_'
'개별'
'개발공사_'
'강조'
'강제'
'강정호_'
'강원FC_'
'강북'
'강력한_'
'강동'
'감염병_'
'감사원_'
'간접'
'가에_'
'가속화'
'가맹점_'
'가맹'
'가량_'
'가능하다_'
'가까운_'
'가구가_'
'가결'
'軍_'
'文정부_'
'…"_'
'… “_'
'”'
'’ ‘_'
'‘ _'
'···""_'
'or'
'o_'
'ic'
'g'
'an'
'al'
']_'
'Z'
'WM'
'SS'
'SN'
'SK텔레콤과_'
'SK이노베이션_'
'SK이노베이션'
'SI'
'SD'
'SC'
'NH_'
'NA'
'MI'
'MD'
'LH'
'LG유플러스'
'LG디스플레이'
'KS'
'KO'
'KGC'
'KE'
'KB국민'
'JW'
'IS_'
'IP_'
'IM'
'GS홈쇼핑_'
'GS샵_'
'GS_'
'G20_'
'FIFA_'
'FA'
'DB_'
'Co'
'CA'
'BT'
'BMW'
'AC'
'9월부터_'
'9억_'
'9단'
'96_'
'80만'
'7조'
'72_'
'70만'
'6호'
'6일'
'69_'
'68_'
'62_'
'5회_'
'5원'
'5개월_'
'53_'
'50여'
'500명'
'4연승_'
'4분기'
'4배_'
'4경기_'
'4Q_'
'440'
'420'
'41억'
'40억원_'
'40만'
'4000억'
'3연패_'
'3연승_'
'3시_'
'3시'
'3승_'
'3상_'
'3번'
'3Q_'
'35만'
'320'
'30분'
'2사_'
'2번'
'260'
'23일부터_'
'235'
'20주년_'
'2018시즌_'
'2014년_'
'1조원을_'
'1인'
'1월부터_'
'1만1'
'1달러_'
'19일부터_'
'196'
'18억'
'17일부터_'
'15만'
'14개_'
'143'
'1400'
'135'
'12년_'
'123'
'11번가_'
'11개_'
'116'
'109'
'104'
'100명_'
'1000만원_'
'0원'
'0시'
'0만원'
'06_'
'03_'
'000억원'
'000만원_'
'+, _'
'% ↑"_'
' ’_'
'힘들어'
'힐스'
'힐만_'
'힐링'
'히트'
'흥행_'
'흘'
'휠체어'
'훈장_'
'훈이_'
'후보자는_'
'활짝_'
'확충_'
'확충'
'확인하'
'확산을_'
'확보하'
'화이트데이_'
'화이'
'화성시_'
'화가_'
'홍성'
'홈플러스_'
'혼잡'
'호응_'
'호소_'
'호반건설_'
'협회장'
'협정_'
'협박'
'협력사업'
'현실_'
'현수막_'
'현대카드_'
'현대차투자증권'
'현대차그룹'
'현대산업개발_'
'현대리바트'
'현대로템_'
'헤어'
'허리'
'허가'
'향_'
'행정안전부_'
'했다며_'
'핸'
'핵실험'
'해제'
'해요_'
'해외진출_'
'해양수산부_'
'해설_'
'해볼'
'해보'
'항체'
'항암'
'항공사_'
'한화케미칼_'
'한화건설_'
'한파_'
'한승'
'한밤'
'한민구_'
'한국투자증권에서_'
'한국토지주택공사'
'한국전'
'한국을_'
'한국은행이_'
'한국수'
'한국선'
'한국서비스'
'한국산업의_'
'한국농'
'한계'
'한가위_'
'학사'
'학부_'
'하이브리드_'
'하원_'
'하마'
'하려는_'
'하기'
'피우'
'플랫폼을_'
'프로바이오틱스_'
'퓨처'
'푸틴_'
'표정'
'표절_'
'표명'
'포함해_'
'포착_'
'포스트_'
'포수_'
'포르'
'평생_'
'펼치고_'
'펼쳐진다_'
'편을_'
'펫'
'펜스_'
'페이지'
'펀딩'
'패스트트랙_'
'패딩_'
'파트너스_'
'파트너사'
'파울'
'파운'
'파업'
'파리바'
'파라'
'티비'
'특허청_'
'특사'
'특별위원회_'
'특별법_'
'특별관'
'트랙'
'투표를_'
'투자신탁'
'투자가_'
'투스_'
'퇴진'
'퇴장_'
'통지'
'통상_'
'통계_'
'톡스'
'토건'
'텐센트_'
'테일'
'테르'
'테러'
'터치_'
'터즈_'
'터가_'
'태평양'
'탐방_'
'탈환'
'탄력_'
'탄력'
'타임스'
'타임'
'타로_'
'클라'
'퀄컴_'
'쿵'
'쿨_'
'코인_'
'코르'
'켈'
'컴퓨터_'
'컴퓨터'
'컴_'
'컬링'
'컨소시엄_'
'컨소시엄'
'카카오게임즈_'
'카운'
'칩'
'치에'
'측근'
'취_'
'충청'
'충주_'
'충전_'
'충북도_'
'출전한_'
'출시하고_'
'출마를_'
'출루_'
'출근'
'출국'
'추석연휴_'
'추가했다_'
'최혜진'
'최용수_'
'최소'
'최고위원_'
'최경환_'
'최강희_'
'초여름_'
'초미세먼지_'
'체제에서_'
'체제'
'체육회_'
'체류'
'체계'
'청이_'
'청원'
'청와대'
'청사에서_'
'청문'
'첩_'
'천만'
'처장_'
'처음이다_'
'챔프'
'채무보증_'
'찾아온_'
'창의적'
'창사_'
'참여하'
'차질_'
'차지했다고_'
'차지_'
'차를_'
'짝_'
'짐_'
'질의에_'
'진흥기'
'진정한_'
'진정'
'진심'
'진료_'
'직원들_'
'직원들'
'지하_'
'지프_'
'지진이_'
'지지를_'
'지적이_'
'지원하기_'
'지원하'
'지원사업'
'지역주민'
'지역에'
'지역경제'
'지스'
'지속적'
'지사가_'
'지방세_'
'지가_'
'증진'
'증인_'
'증시'
'증가율'
'증가세_'
'즐거'
'쥬'
'중점_'
'중장'
'중앙대'
'중독'
'중남미_'
'중기_'
'중국어'
'중공업_'
'중공업'
'중계_'
'주택금융공사_'
'주최하는_'
'주제'
'주재'
'주유소_'
'주역'
'주얼'
'주범'
'주목된다_'
'주력'
'주권'
'좌파'
'종합지'
'조절_'
'조용'
'조명_'
'제주특별자치도'
'제주에서_'
'제조업체'
'제압'
'제시_'
'제고_'
'제9'
'제8회_'
'제3차_'
'정확'
'정치권_'
'정책토론회_'
'정선'
'정상회의'
'정산'
'정부서울청사_'
'정보공개'
'정문'
'정리_'
'정동영_'
'정동'
'점프_'
'절대'
'전시회'
'전분기'
'전북도_'
'전망치'
'전망이_'
'전기요금_'
'전국적으로_'
'적이_'
'적은_'
'적용된'
'저지_'
'저스'
'저감'
'저가_'
'잭_'
'재현_'
'재취업'
'재료'
'재단'
'재난안전'
'재검'
'장착'
'장시'
'잠수'
'잘하'
'잘못_'
'잔류_'
'잔류'
'작용'
'작년보다_'
'자치구_'
'자진_'
'자전거'
'자이언츠'
'자유한국당이_'
'자유한국당은_'
'자원봉사자'
'자에_'
'자사고_'
'자료'
'있을까_'
'입장하는_'
'입법'
'입국_'
'임직원들'
'임시정부_'
'임시국회'
'임명됐다_'
'임대주택'
'임대료_'
'일자리를_'
'일본은_'
'일동제약_'
'일과_'
'일간_'
'인하대_'
'인턴_'
'인을_'
'인원_'
'인양_'
'인상에_'
'인상률'
'인민'
'인들'
'인대'
'인권위_'
'익산'
'이혼'
'이탈_'
'이집트_'
'이젠_'
'이용하'
'이용자는_'
'이용섭_'
'이어지고_'
'이승우_'
'이슈_'
'이순'
'이보'
'이번이_'
'이번에는_'
'이미지'
'이라_'
'이달부터_'
'이니스프리_'
'이내_'
'이끌었다_'
'이끌어'
'이강'
'의혹이_'
'의혹과_'
'의해_'
'의한_'
'의원의_'
'의료기'
'응원하'
'을지'
'은성'
'으로서_'
'유행'
'유한킴벌리'
'유튜브'
'유지했다_'
'유지하'
'유죄_'
'유족'
'유정'
'유전자_'
'유일_'
'유의'
'유니테스트_'
'유니클로_'
'유격수_'
'유가'
'위해서'
'위탁_'
'위원회의_'
'위원회가_'
'위스'
'위성_'
'위드'
'위가_'
'월세_'
'원회'
'원칙_'
'원주시_'
'원산'
'웍스'
'워터'
'운전자_'
'운영하고_'
'운영을_'
'운영에_'
'우표'
'우상호_'
'우면'
'우리가_'
'우드_'
'용으로_'
'용도'
'용기'
'요구에_'
'외환'
'완전'
'완벽한_'
'완료했다고_'
'와이디온라인'
'올라섰다_'
'오후부터_'
'오재'
'오일'
'오리지널_'
'오디'
'예스'
'예상치_'
'예비후보_'
'예매_'
'영토'
'영웅'
'영암'
'영문'
'영농'
'엽'
'열풍'
'열사_'
'열기_'
'연체_'
'연주'
'연예인'
'연세대_'
'연설을_'
'연구팀_'
'연구결과가_'
'연관'
'여행객'
'여직원'
'여주'
'여자축구'
'여왕_'
'여부'
'여대'
'여개_'
'여가'
'엔터테인먼트'
'엔지니어링_'
'에어컨_'
'에스에'
'에서'
'에만_'
'업체가_'
'업을_'
'업무에_'
'업계가_'
'엄마_'
'엄마'
'얻고_'
'언스'
'어지'
'어울림'
'어야_'
'어스'
'어링'
'양호_'
'양주신도시'
'양정'
'양수'
'양산시'
'양대_'
'양국_'
'양국'
'야외'
'암살_'
'알아보'
'알기_'
'안토니'
'안정자금_'
'안전사고_'
'아프리카돼지열병'
'아카'
'아이템_'
'아이에스'
'아이에'
'아우디'
'아시안'
'아쉬움'
'아빠'
'아버지'
'아모레퍼시픽'
'아르헨티나_'
'아라'
'아디다스_'
'씨앤'
'씨는_'
'쓰러'
'썼다_'
'써_'
'쌍둥이_'
'싱글_'
'심각_'
'실현_'
'실수_'
'실리콘'
'신흥국_'
'신한_'
'신축_'
'신용거래융자_'
'신약'
'신라면세점'
'신기술_'
'식사'
'시행하'
'시큐'
'시책'
'시절_'
'시의회_'
'시연'
'시에_'
'시속_'
'시멘트_'
'시너지'
'시나'
'시기'
'시간이_'
'승점_'
'승소_'
'승부_'
'승객_'
'슬로'
'스톡'
'스타필드_'
'스퀘어'
'스카이_'
'스오'
'스마트홈_'
'스를_'
'슛_'
'쉬운_'
'숫자'
'숨지게_'
'수험생_'
'수하'
'수탁'
'수천'
'수지'
'수여식'
'수성'
'수상자로_'
'수리_'
'수록_'
'수도권'
'솔루'
'손해보험'
'손을_'
'손보'
'손님'
'속초'
'소장'
'소위'
'소식이_'
'소방관_'
'소동_'
'소나'
'소각_'
'세종_'
'세워'
'세계적인_'
'성추행한_'
'성실'
'성수기'
'성북구_'
'성능'
'섰다_'
'설명하고_'
'설립을_'
'선장'
'선보이는_'
'선배'
'선고받았다_'
'석사'
'서울중앙지'
'서울교통공사'
'서민금융'
'서류'
'서로_'
'서대문구_'
'서귀포'
'생체'
'생각했'
'생각_'
'새출발_'
'새마을'
'상황실_'
'상호금융_'
'상한가를_'
'상하이'
'상장법인_'
'상용화_'
'상영_'
'상승하고_'
'삼척'
'삼성전자'
'삼성그룹_'
'삼성SDI'
'삶의_'
'살아있는_'
'살아나'
'산업용_'
'산업에_'
'산사태_'
'사회적기업_'
'사형_'
'사이에서_'
'사이언스_'
'사우디아라비아'
'사범'
'사무총장'
'사무실'
'사명_'
'사립'
'사로_'
'사랑나눔'
'사람은_'
'사격'
'사건을_'
'뿌'
'뽑'
'빠졌다_'
'빚_'
'빈곤'
'비하_'
'비판했다_'
'비트_'
'비에_'
'비어'
'비아'
'블리자드'
'블록_'
'블록'
'블라'
'브릭'
'브리핑룸에서_'
'뷰_'
'붙잡혔습니다_'
'붕'
'불투명'
'불리'
'불구'
'불가피'
'분양한다'
'분석이_'
'부실'
'부서_'
'부사장을_'
'부사'
'부결_'
'본회의'
'본점에서_'
'본점_'
'본부에'
'복지부_'
'보호를_'
'보합'
'보청기_'
'보증'
'보완'
'보름'
'병원에_'
'변화에_'
'변신'
'변수'
'변동성_'
'벨라'
'벤츠'
'벤처기업_'
'베스'
'베베'
'법적_'
'법을_'
'버전'
'버려'
'뱅킹_'
'뱃'
'백제'
'배후'
'배틀'
'배구'
'방향으로_'
'방침_'
'방식'
'방산'
'발행하'
'발탁'
'발전기금_'
'발생하'
'발부'
'발간했다고_'
'받아들'
'반전_'
'반부패'
'반등'
'박철'
'박찬주_'
'박준'
'박성'
'박석민'
'바지'
'바디'
'밀란'
'민주화'
'민주'
'민심'
'민병'
'민경'
'미르'
'미래에셋생명_'
'미드'
'미군기지_'
'미군'
'미국산_'
'뮤직'
'뮤_'
'뮌헨'
'물에_'
'물류_'
'물려_'
'문체부_'
'문서'
'문경'
'묶'
'무협_'
'무학'
'무안'
'무상점검_'
'무디스_'
'무대_'
'무대'
'몽골'
'몸에_'
'몰리'
'몫'
'목적_'
'모티브'
'모친_'
'모드'
'모두'
'명에게_'
'명령'
'명단_'
'면접_'
'메르켈_'
'멍'
'매치'
'매출이_'
'매수세에_'
'말고_'
'많았다_'
'많'
'만족도'
'만족_'
'만들_'
'만개_'
'마카'
'마침'
'마스터스_'
'마무리했다_'
'링크_'
'릭'
'리프'
'리조트'
'리본_'
'리마스터_'
'리듬'
'리더스_'
'리더스'
'루프'
'루시'
'롯데홈쇼핑'
'롯데호텔'
'롯데카드'
'롯데마트'
'로운_'
'로서'
'로버트_'
'로버'
'로를_'
'령관_'
'렛'
'렌터카_'
'렉스_'
'레인지'
'럽'
'럼_'
'러스_'
'랐'
'라이언'
'라운드'
'라미'
'뜻_'
'뚜레쥬르_'
'똘'
'떠난_'
'떠나'
'디움_'
'디스플레이'
'등과_'
'둘러싼_'
'되나_'
'동행'
'동참'
'동작'
'동아리_'
'동부증권_'
'동료'
'동력_'
'돕'
'돌파한_'
'돌파하'
'독점'
'독서'
'독립_'
'도입한'
'도시공사'
'도서_'
'도서'
'도박_'
'도박'
'데이비'
'데이'
'데모'
'덤'
'덜미_'
'더니_'
'댓글_'
'댐_'
'대회가_'
'대한체육회_'
'대한적십자사_'
'대표팀'
'대통령을_'
'대치'
'대축제_'
'대웅제약_'
'대신증권에서_'
'대선주자'
'대림'
'대기업'
'대결_'
'대검찰청_'
'대검'
'대강당에서_'
'당첨'
'당에서_'
'당당'
'닭'
'달부터_'
'달만에_'
'달리'
'달러에_'
'달라고_'
'달라'
'단행_'
'단식_'
'단과_'
'다저스'
'다보'
'닉_'
'니스_'
'느냐'
'뉴질랜드_'
'뉴욕증시'
'뇨'
'뇌졸중_'
'높인다_'
'높이_'
'농협은행_'
'농축'
'농장'
'농어'
'농심'
'농산물'
'농도'
'농구대회_'
'농_'
'녹스'
'넥'
'네트워크'
'네이버가_'
'네덜란드_'
'넘은_'
'내용'
'내비'
'내려_'
'내달'
'내놓은_'
'낳'
'낮아_'
'남해군'
'남해_'
'남양유업'
'남북정상회담_'
'날개_'
'난다_'
'나오고_'
'나오'
'나스닥_'
'나섰'
'나고'
'나가_'
'꼭_'
'깜'
'김환'
'김형기_'
'김형'
'김해시'
'김진욱_'
'김상곤_'
'김도'
'긴다_'
'기후'
'기타_'
'기적'
'기장군'
'기성용_'
'기상청은_'
'기상청_'
'기분_'
'기대된다고_'
'기념관_'
'기구'
'기고_'
'기각'
'기가지니_'
'긍정적인_'
'금융지주_'
'금융지'
'글렌'
'근절'
'근로시간_'
'권오준_'
'군과_'
'국회의원'
'국토부'
'국제여'
'국세청'
'국비'
'국무회의에서_'
'국무장관'
'국무부_'
'국립현대미술관_'
'국군'
'국고'
'구청장'
'구청_'
'구청'
'구미시'
'구매하'
'구로_'
'교통안전_'
'교통_'
'교촌'
'교육청'
'교보증권_'
'교보생명_'
'교도소'
'괴산군'
'괜찮'
'광역시_'
'광역시'
'광양'
'광명'
'관제'
'관저'
'관은_'
'관문'
'관람_'
'관과_'
'관계자들과_'
'관계를_'
'과학_'
'과제'
'과열'
'공직자_'
'공직선거법_'
'공직'
'공조'
'공유하'
'공업'
'공무'
'공립'
'공략에_'
'공략'
'공단이_'
'공기_'
'공공부문_'
'공고_'
'공고'
'공개한_'
'공간으로_'
'골목'
'고흥군_'
'고형권_'
'고충'
'고의'
'고용노동'
'고소_'
'고령'
'고려_'
'고등학교_'
'고독'
'고기'
'계의_'
'계약금_'
'경찰관'
'경제적_'
'경제성장'
'경쟁률'
'경영권_'
'경사'
'경비원'
'경기도의회'
'경계_'
'결합'
'결정할_'
'결정을_'
'결장_'
'결의_'
'결과에_'
'격투'
'겐'
'게임즈는_'
'것이'
'검찰총장'
'검찰청'
'검찰의_'
'검진_'
'걸이_'
'걸었다_'
'거제_'
'거의_'
'거래를_'
'거듭'
'갯'
'갤럭시노트'
'개인투자자'
'개선방안_'
'개방형_'
'개발하'
'개로_'
'갚'
'같습니다_'
'같다_'
'갖는_'
'강화에_'
'강호'
'강하게_'
'강정호'
'강서'
'강국'
'감정'
'감을_'
'감사의견_'
'감리'
'감독을_'
'간호사'
'간편식_'
'간담회'
'각오를_'
'가족과_'
'가속_'
'가맹점'
'가구에_'
'가계_'
'가격에_'
'車'
'英'
'故_'
'協_'
'↑-_'
'… ‘_'
'v'
'tv_'
'ro'
'n_'
'in_'
'h_'
'WBC_'
'VR'
'V50'
'TR'
'TO'
'SW'
'SK하이닉스가_'
'SK와'
'SK건설'
'SE'
'SCM'
'RP'
'Q1'
'PGA_'
'OK저축은행_'
'OK_'
'NY'
'NS홈쇼핑_'
'NH투자증권에서_'
'NH농협은행은_'
'MO'
'MI_'
'LG유플러스는_'
'KTB투자증권'
'KIS'
'KCC'
'KC'
'KBS'
'KBO'
'IBK기업은행_'
'HS'
'HDC'
'G7'
'DNA'
'DJ'
'DGB대구은행_'
'DGB'
'DD'
'CNS_'
'CM'
'CJ오쇼핑_'
'CEO'
'CCTV_'
'BO'
'BI'
'A매치_'
'AA_'
'?"""_'
'9호선_'
'9명'
'950'
'900'
'8조'
'880'
'84'
'82_'
'79_'
'78_'
'6억원'
'6억'
'6개'
'60억_'
'600원_'
'5천만원_'
'5번째_'
'5번'
'50만_'
'500억_'
'4호'
'4층_'
'4차전_'
'4일간_'
'4월부터_'
'4시'
'4대'
'4개월_'
'4가'
'40여'
'400만'
'3주_'
'3조'
'3루'
'3구'
'3D프린팅_'
'30일부터_'
'30만원'
'2만원'
'2동_'
'2곳'
'27일부터_'
'26일부터_'
'269'
'24일부터_'
'247'
'246'
'20만_'
'20만'
'2021년까지_'
'2019년3월_'
'2019'
'1조3'
'1등'
'1기_'
'1개'
'19년'
'1900'
'17년'
'173'
'16개'
'15년'
'14시_'
'137'
'12개_'
'11년_'
'10일'
'10분_'
'10명중_'
'10만원_'
'10만명_'
'108'
'106'
'100만원_'
'100대_'
'100년_'
'0년'
'09_'
'05'
', △_'
', '
'%↑'
'% '_'
'""… _'
'"" '
'!""'
' …'
' : _'
'  '
'女'
'희생자_'
'휴직'
'휴일'
'휴대폰_'
'휩쓸'
'훔친_'
'후보물질_'
'후보는_'
'효율'
'회에_'
'회사가_'
'회계사'
'황의조_'
'황의조'
'활력'
'환으로_'
'환수'
'확진_'
'확정했다'
'확인됐'
'확률'
'화제가_'
'화승'
'화산_'
'홍수'
'홈페이지에_'
'홈페이지'
'홈경기_'
'홀리데이_'
'혼조세_'
'혼란'
'호재'
'호소하'
'혜경'
'협박_'
'현행_'
'현대차는_'
'현대제철'
'현대자동차'
'현대위아_'
'현대엔지니어링_'
'혁신성장'
'혀'
'헬스케어'
'헬기'
'헨'
'헤지'
'헝가리'
'헛'
'헌혈_'
'허그'
'행안부_'
'행사장'
'행보'
'했는데_'
'햄'
'해체_'
'해체'
'해진_'
'해주'
'해운대구_'
'해외주식_'
'해외로_'
'해양환경'
'해석'
'해상풍력발전'
'해마'
'항쟁'
'항로'
'할머니'
'한화투자증권에서_'
'한화전'
'한화는_'
'한진칼_'
'한전KDN'
'한우_'
'한신'
'한성'
'한산'
'한빛'
'한류_'
'한달_'
'한달'
'한남대_'
'한기'
'한글_'
'한국전력'
'한국자'
'한국의'
'한국야쿠르트_'
'한국야'
'한국산_'
'학자'
'학원_'
'학연'
'학생회'
'학생이_'
'학대'
'하자'
'하이파이브_'
'하이트'
'하이투자'
'하수도_'
'하성용_'
'하반기에'
'하락에_'
'하나카드'
'하나금융_'
'필터_'
'필지_'
'필드_'
'핀_'
'피해가_'
'피크_'
'피코'
'피에'
'피아니스트_'
'피는_'
'플랜트'
'플라자호텔'
'플라스틱_'
'프리미'
'프렌즈'
'프렌'
'풍경'
'풀어'
'풀무원'
'표명_'
'폼_'
'폭행'
'포항시_'
'포항시'
'포트_'
'포착'
'포장'
'포수'
'포드_'
'포니'
'포괄'
'폐업'
'펼치는_'
'펼쳤다_'
'펴'
'펫_'
'펜타'
'페르난데스'
'퍼포먼스'
'퍼스'
'패턴_'
'패밀리'
'패널'
'판독'
'파행_'
'파티_'
'파티'
'파격'
'팀과_'
'티는_'
'특판'
'특성화고_'
'특별전_'
'트의_'
'트윈스_'
'트윈'
'트위터_'
'트럼프의_'
'트랜'
'튀'
'툴'
'투자했다'
'투자해_'
'투자한'
'투자로_'
'투자금'
'퇴직연금_'
'통증_'
'통일_'
'통영시'
'통신이_'
'통상임금_'
'통보'
'톱텍'
'톱5_'
'토크'
'토마스_'
'테크노파크_'
'털_'
'터널'
'태우'
'태양'
'태백시'
'태권도_'
'탐색'
'탈락_'
'탄생'
'타이틀'
'타수_'
'타선'
'타석'
'타결_'
'타결'
'킬러_'
'클리닉'
'클레이'
'클러스터_'
'클래시'
'크루즈'
'크고'
'큐로'
'쿠르트'
'코퍼레이션_'
'코카콜라_'
'코카'
'코오롱인더'
'코스타'
'코리아에'
'코레일'
'케이프_'
'컨디션'
'캐나다'
'카페24'
'카카오는_'
'카를'
'카드사'
'침수'
'침_'
'친화'
'친정'
'친선'
'칙'
'측은_'
'취재'
'충청남도'
'충남도_'
'출하'
'출시됐다_'
'출간'
'축하하'
'축전'
'추출'
'추정'
'추돌_'
'추경'
'추격'
'최저가_'
'최재'
'최선_'
'최상위'
'최대치를_'
'최고위원'
'총재는_'
'총재가_'
'총장이_'
'총연'
'총수_'
'총동'
'초콜릿_'
'초코'
'초래'
'체험단_'
'체험관'
'청춘'
'청주공'
'청을_'
'청약통장'
'첩'
'철도공단_'
'천문'
'처방'
'책임을_'
'채택'
'채용한다'
'채용박람회_'
'찾았다_'
'찾는다_'
'창원시_'
'창업자_'
'창립'
'참여해_'
'참여한다_'
'참가한다고_'
'찬성_'
'찬반_'
'착용'
'착수'
'차전'
'찌개_'
'쩍_'
'짝'
'짙은_'
'집중하'
'진흥공단_'
'진행하'
'진안'
'직장인'
'직을_'
'직원이_'
'직원을_'
'직원들에게_'
'직거래_'
'지켜보'
'지친_'
'지출_'
'지지자들'
'지지율_'
'지의_'
'지와_'
'지역사회_'
'지에서_'
'지시하는_'
'지상_'
'지방자치단체'
'지문'
'지대_'
'증자'
'증원'
'증액_'
'증권에'
'증거'
'증가하'
'증가되었다고_'
'즙'
'즉시연금_'
'중징계'
'중요농업유산'
'중앙_'
'중소기업중앙회'
'중상'
'중반'
'중립_'
'중국을_'
'중국산_'
'준공'
'주택재개발'
'주택을_'
'주중_'
'주전_'
'주일'
'주인공은_'
'주의를_'
'주방'
'주민과_'
'주목하'
'주도하'
'주니어_'
'주권_'
'주관한_'
'주공'
'주간'
'종교'
'졸업생'
'조이'
'조원우_'
'조업'
'조사결과'
'조례안_'
'조달_'
'조계'
'제휴를_'
'제철_'
'제안했다_'
'제기했다'
'제과'
'제32회_'
'제2터미널'
'제26'
'제21'
'제17'
'제14회_'
'제12회_'
'제11회_'
'정현'
'정치자금법_'
'정책의_'
'정책위의장'
'정족수_'
'정재'
'정우'
'정상회담을_'
'정병국_'
'정무'
'정면'
'정년'
'정규직'
'접종'
'접대_'
'접근성'
'점검회의_'
'절차'
'전환을_'
'전하'
'전차'
'전장_'
'전의_'
'전은'
'전원'
'전시장_'
'전산'
'전북은행_'
'전병헌_'
'전문가'
'전무_'
'전무'
'전라'
'전도'
'전달하'
'전년동기_'
'전기차'
'적합'
'적폐청산'
'적폐_'
'적립_'
'저평가_'
'저축'
'저지'
'저금리'
'잭'
'재활의학'
'재현'
'재해_'
'재판이_'
'재지정'
'재수'
'재무장관'
'재기_'
'재계_'
'재가_'
'장영'
'장악'
'장식'
'장보고'
'장미'
'장대'
'장내매수_'
'장관상_'
'잡은_'
'잡기_'
'잔액_'
'작업이_'
'자회사'
'자회'
'자진'
'자제_'
'자유무역협정_'
'자수'
'자립'
'자랑스러운_'
'자동화_'
'자격'
'있으며_'
'있으'
'있는데_'
'입학식'
'입학_'
'입학'
'입점'
'입을_'
'입법_'
'입대'
'입단_'
'입구'
'임용'
'임영희'
'임명장_'
'임금체불_'
'일자리창출_'
'일일_'
'일인_'
'일반인'
'일기'
'일교차_'
'일괄_'
'일가족_'
'인피니'
'인트'
'인텔'
'인치_'
'인체'
'인천대'
'인천국제공항_'
'인지_'
'인제'
'인은_'
'인수한다'
'인쇄'
'인삼'
'인사청문회'
'인사청문'
'인민은행'
'인문학_'
'인류'
'인도에'
'인근에서_'
'인근'
'이화여대_'
'이틀'
'이중'
'이의_'
'이용찬'
'이오'
'이영학_'
'이어가'
'이승훈_'
'이스타'
'이륜차'
'이라면_'
'이들은_'
'이동통신'
'이대호_'
'이대목동병원_'
'이니'
'이남'
'이광'
'이것'
'이강인이_'
'이가_'
'의회가_'
'의원들_'
'의원들'
'응원단'
'음주'
'윤석헌_'
'유해발굴'
'유학생_'
'유진투자증권에서_'
'유진_'
'유저'
'유입'
'유은혜_'
'유아_'
'유승'
'유소년야구'
'유산균_'
'유병'
'유망주_'
'유리_'
'유류세_'
'유류'
'유로'
'유공_'
'위해'
'위탁'
'위생_'
'위기의_'
'웹젠_'
'웰컴'
'월급'
'원자'
'원이'
'원료_'
'원들'
'원대'
'원내대표와_'
'웃음'
'웃돌'
'울주군'
'울산시는_'
'우체국'
'우주_'
'우수사례_'
'용품'
'용기_'
'욕_'
'요일'
'요구하는_'
'요건_'
'요건'
'외치고_'
'외야'
'왕자_'
'옥션'
'오히려_'
'오페라_'
'오스트리아_'
'오리'
'오르는_'
'오락'
'옐'
'예측'
'예정이'
'예정대로_'
'예술제'
'예선'
'예산정책'
'예산을_'
'예능_'
'영화의_'
'영주시_'
'영재'
'영업손실이_'
'영어_'
'영남'
'열었다고_'
'열렸습니다_'
'열대'
'연평'
'연탄'
'연출'
'연제구'
'연전'
'연수'
'연속'
'연설'
'연산'
'연구센터_'
'여자골프_'
'여성을_'
'여만원'
'엣지_'
'엑스포'
'엑스코'
'에픽세븐_'
'에코마'
'에이스'
'에비'
'에릭'
'었다고_'
'없으면_'
'없다'
'업황_'
'업체들'
'업자'
'업소'
'업무보고'
'얼마나_'
'얼라이언스_'
'얼굴_'
'얻어'
'언니'
'억원대_'
'어플리케이션_'
'어진'
'어워즈_'
'어린이날_'
'어르신들'
'어렵'
'어닝_'
'어닝'
'어가'
'양회'
'양주시_'
'양양군'
'양양'
'양상'
'양보'
'약자'
'약속했'
'약보_'
'야구장에서_'
'앨범_'
'액은_'
'애플이_'
'애틀랜타'
'았습니다_'
'압수수색했다_'
'압류'
'알바생'
'알렉'
'앉'
'안팎'
'안전한_'
'안전기'
'안전관리_'
'안전관리'
'안은_'
'안양'
'안병'
'안동_'
'안경'
'악화'
'악수를_'
'아이폰'
'아이콘'
'아이뉴스24_'
'아워홈_'
'아웃도어_'
'아시안컵_'
'아스널_'
'아쉬워'
'아세안'
'아산시'
'아사'
'아름다'
'아너'
'아나운서_'
'씨와_'
'쌍용자동차'
'싱가포르'
'십_'
'심하'
'심사위원회'
'실행'
'실탄'
'실제로_'
'실점'
'실장이_'
'실장'
'실에_'
'실시하고_'
'실시간으로_'
'실무자'
'신태용호'
'신차_'
'신원'
'신용평가'
'신용등급을_'
'신용등급'
'신시'
'신속'
'신상품_'
'신부'
'신기술'
'신규가입'
'식에서_'
'식량'
'시행령_'
'시한'
'시켜_'
'시점_'
'시작하는_'
'시인'
'시위를_'
'시연_'
'시승'
'시스템에_'
'시설이_'
'시민참여'
'시민들_'
'시도하고_'
'시경'
'시각장애인'
'승진'
'스피'
'스틱_'
'스토리'
'스테크'
'스테'
'스케이팅_'
'스카'
'스무'
'스님'
'슈_'
'쉼터_'
'순찰'
'순이'
'순방_'
'숙소'
'숙박_'
'수호'
'수협'
'수해'
'수치'
'수출액'
'수차'
'수질'
'수장'
'수자'
'수익률은_'
'수의'
'수유'
'수여'
'수소차_'
'수석부회장'
'수석부'
'수상한_'
'수도권에'
'수당을_'
'수강'
'쇄'
'솔라'
'손혜원_'
'손으로_'
'손오공_'
'손아섭_'
'손실_'
'손실'
'속한_'
'속출_'
'속의_'
'속여_'
'속도를_'
'소지'
'소주_'
'소음'
'소원_'
'소외계층_'
'소외'
'소방안전'
'소문'
'소나기_'
'소가_'
'셰'
'셨'
'셋_'
'셈이다_'
'셀프'
'셀트리온헬스케어_'
'센트럴_'
'센스_'
'세종시_'
'세웠다_'
'세월호'
'세에_'
'세아'
'세수'
'세법'
'세르비아'
'세레'
'세계최'
'성황'
'성화_'
'성장이_'
'성인_'
'성신'
'성대'
'성과를_'
'설정'
'설비'
'선택한_'
'선제골_'
'선정하'
'선임됐다_'
'선에_'
'선수들'
'선수는_'
'선방_'
'선고됐다_'
'서해안'
'서초동_'
'서초'
'서울은_'
'서울역_'
'서울시청'
'서부지'
'서밋_'
'서문시장'
'서명_'
'샵_'
'생활권'
'생이_'
'생산능력'
'생들'
'생긴다_'
'상황에서_'
'상황실에서_'
'상환'
'상화'
'상정_'
'상인_'
'상이_'
'상위_'
'상업용지_'
'상습_'
'상수'
'상생협력_'
'상생협'
'상사'
'상당'
'상금'
'상고'
'삼진_'
'삼송'
'삼성전기_'
'삼성자산운용'
'산후'
'산학협력'
'산학'
'산체스'
'산정'
'산에'
'산업통상자원부'
'산업은행_'
'산림청장'
'산다_'
'사회부총리_'
'사회공헌활동'
'사진전_'
'사지'
'사조'
'사정'
'사전투표_'
'사전예약을_'
'사전예약'
'사자_'
'사임'
'사이판'
'사이즈'
'사원'
'사용한_'
'사업은_'
'사업비_'
'사법부_'
'사무총장이_'
'사무국'
'사모_'
'사리_'
'사례가_'
'사내'
'뿌리_'
'뽑은_'
'비트코인'
'비율은_'
'비에'
'비아_'
'비비안'
'비닐'
'블로'
'블레이'
'브리핑하는_'
'브랜드파워_'
'브라질'
'붙잡'
'붕괴'
'붉은'
'불허'
'불만_'
'불과_'
'불과'
'불거진_'
'분포를_'
'분식회계_'
'분석한_'
'분산'
'분리'
'분권'
'북핵'
'북미회담_'
'부총재'
'부천시_'
'부적절'
'부장_'
'부임'
'부여_'
'부양'
'부안군_'
'부안'
'부시장_'
'부시_'
'부산지역_'
'부분_'
'부분'
'부를_'
'부각'
'봤'
'봉투_'
'봇_'
'볼보'
'본회의에서_'
'본관'
'볶음'
'복지시설_'
'복원_'
'보호예수'
'보호무역'
'보통_'
'보증금_'
'보여'
'보스'
'보성군'
'보상판매'
'보며_'
'보류'
'보드_'
'보도했습니다_'
'보다는_'
'보냈다_'
'보건소_'
'병사_'
'병무청'
'베이스볼'
'베이스'
'베이비_'
'베이비'
'베_'
'법제'
'법인세_'
'법원에_'
'법에_'
'법관'
'벌인'
'버린_'
'버닝썬_'
'밸류'
'백신'
'백년'
'배송'
'배구_'
'밭'
'방향을_'
'방북'
'방경'
'밝히'
'발행을_'
'발주'
'발을_'
'발언에_'
'발사한_'
'발대식을_'
'발달'
'받는다고_'
'반찬'
'반응을_'
'반발하'
'반발'
'반미'
'반도'
'반값_'
'박한_'
'박탈'
'박용택'
'박용만_'
'박영수_'
'박양우_'
'박수'
'박능후_'
'바이올'
'바이오는_'
'바이_'
'바스'
'바른미래_'
'바다에_'
'바다_'
'바나나'
'밀수'
'밀_'
'민주화운동_'
'민자'
'민과_'
'믹스_'
'미치'
'미제'
'미시'
'미스터'
'미션을_'
'미사_'
'미래에셋_'
'미달_'
'물산'
'묻는_'
'문화제_'
'문턱'
'문제는_'
'문재인'
'문의_'
'문구'
'문고'
'문건_'
'무효_'
'무주'
'무제한_'
'무엇'
'무사_'
'무릎_'
'무단_'
'몬드_'
'목사'
'모집에_'
'모임_'
'모색_'
'모래'
'모델하우스_'
'모델들이_'
'명예의_'
'명소_'
'명단'
'명과_'
'멸_'
'면담'
'멜라'
'메인_'
'메이트_'
'메이크업_'
'메이저리'
'메이저_'
'메리츠종금증권에서_'
'메르'
'메뉴_'
'멀티히트_'
'머무는_'
'머니'
'맺었다_'
'맺'
'맵'
'맨시티_'
'맥_'
'매트리스'
'매출액이_'
'매진_'
'매력적'
'매도에_'
'맞춤_'
'맞서'
'말한'
'말이_'
'만장일치'
'만8'
'만7'
'막기_'
'마트_'
'마찰'
'마지막'
'마인'
'마이너'
'마에'
'마무리하'
'마리가_'
'마르퀴즈_'
'마련한'
'마니'
'마곡'
'링링_'
'릭스_'
'릭_'
'리치_'
'리지'
'리의_'
'리버풀_'
'리모델링_'
'리다_'
'리니'
'리그에'
'류장'
'뤄'
'룸'
'룬_'
'롬'
'롤드컵_'
'로한'
'로저_'
'로서_'
'로만_'
'로드맵_'
'려고_'
'렘'
'레전드_'
'레이디'
'레벨'
'럴'
'런칭_'
'럭'
'러워'
'량의_'
'라인업'
'라이엇_'
'라이브'
'라운지_'
'라면'
'띠'
'뛰어'
'뚫'
'또한_'
'떨어지'
'떡국_'
'때마다_'
'따라'
'디저트_'
'디어'
'디아이'
'디바이스'
'등재'
'등기'
'등급을_'
'듯'
'들어선다_'
'들어서는_'
'들어간다_'
'들로'
'드라이'
'드라'
'둘째'
'둘_'
'두산은_'
'두나무'
'되었다_'
'됐지만_'
'돼지열병_'
'동호'
'동향'
'동포'
'동참_'
'동이_'
'동부대우전자_'
'동부건설_'
'동반'
'동물복지'
'동메달'
'동력'
'동대'
'동남아'
'동국제약'
'동거'
'돔_'
'독재'
'도중_'
'도전한다_'
'도에서_'
'도에_'
'도시바_'
'도모'
'도르'
'뎀'
'델리'
'덧붙였다_'
'더샵_'
'대화하'
'대형마트'
'대해서는_'
'대학원_'
'대학교에'
'대표자'
'대타_'
'대청'
'대책회의_'
'대주주'
'대장_'
'대응하'
'대양'
'대세'
'대사관'
'대변인'
'대법원장_'
'대명'
'대금'
'대구지역_'
'대교_'
'당했'
'당첨자'
'당첨금_'
'당선무효형'
'당선_'
'당분간_'
'당대표'
'당기순이익은_'
'닷컴'
'답하고_'
'답변하는_'
'답_'
'달해_'
'달성했다고_'
'달성'
'달리_'
'단지는_'
'단장이_'
'단원'
'다짐'
'다이어트_'
'다음달'
'다우_'
'다발'
'닛'
'늦은_'
'늦게_'
'늘리'
'는지_'
'느낌'
'뉴캐슬'
'뉴딜사업'
'눈높이'
'누리꾼'
'누리_'
'누가_'
'높여_'
'높았다_'
'높다'
'농식품_'
'농림축산식품부'
'놈'
'놀이_'
'놀란_'
'논문_'
'노조가_'
'노원구_'
'녕'
'넥스_'
'넥센타이어_'
'네팔'
'네이마르_'
'내정했다고_'
'내시경_'
'내리겠'
'내륙'
'내년'
'납치_'
'납부_'
'남아_'
'날리고_'
'난방'
'나타냈다_'
'나아'
'나섰습니다_'
'끝났다_'
'끝나'
'끔'
'끌어올'
'꿈의'
'껴'
'깔'
'김현_'
'김의겸_'
'김우'
'김연'
'김미'
'김동철_'
'김대중_'
'기해_'
'기한_'
'기프트'
'기조_'
'기조'
'기적_'
'기자회견에서_'
'기의_'
'기여_'
'기술력'
'기성용'
'기상청이_'
'기본계획_'
'기대에_'
'기다리'
'기념행사_'
'기념하는_'
'기관에_'
'기공식_'
'기간에_'
'기간보다_'
'기가'
'급락세'
'금은_'
'금융투자'
'금융정'
'금융소비자'
'금융감독원장'
'금액은_'
'근로자들'
'극심'
'그룹과_'
'그렇'
'그랜'
'그라운드_'
'규칙'
'규제를_'
'규모는_'
'규명_'
'규명'
'귀성'
'궤도'
'권혁'
'권한대행'
'권위'
'권리락_'
'굿모닝'
'군인'
'군사훈련'
'국회의장과_'
'국회에_'
'국채'
'국제금융'
'국정감사에서_'
'국적_'
'국에_'
'국빈_'
'국방부'
'국민연금이_'
'국민대'
'국무총리는_'
'국립암센터'
'국내선'
'국가의_'
'구체적'
'구직'
'구장_'
'구속됐다_'
'구속기소'
'구리_'
'구로구'
'교육지원청'
'교육과'
'교섭'
'교복_'
'교도'
'광화문'
'광주지'
'광명역_'
'관찰'
'관중'
'관여'
'관악구_'
'관리본부'
'관련주_'
'과일_'
'과도'
'과대학_'
'공학과_'
'공포'
'공판_'
'공천'
'공조_'
'공정한_'
'공정거래위원회'
'공장서_'
'공식화'
'공단'
'공기질_'
'공공지원_'
'공개하'
'공개되'
'공개됐다_'
'곳이_'
'곳으로_'
'골든블루_'
'골든브릿지'
'고향_'
'고창'
'고지_'
'고전'
'고인'
'고의_'
'고위급_'
'고위공'
'고영태_'
'고양'
'고시환율_'
'고수'
'고사'
'고문'
'고리'
'고르'
'계산'
'계룡'
'경질_'
'경진'
'경제사'
'경제과학'
'경정'
'경상북도'
'경보'
'경기서_'
'경기도지사'
'경기도시공사'
'경기는_'
'겹'
'결성_'
'결렬_'
'겪고_'
'겪'
'겨울방학'
'게임의_'
'게임에'
'게임사_'
'게임단'
'것인가_'
'검토하'
'검출됐'
'검찰개혁'
'검역'
'걸려_'
'걷기_'
'걷'
'건축물_'
'건조_'
'거부하'
'거리에'
'거래일보다_'
'거래대금_'
'거뒀'
'거대'
'갤러리아'
'개회식_'
'개최되는_'
'개요_'
'개에_'
'개방'
'개발하고_'
'개강'
'강화해'
'강화된'
'강진_'
'강진'
'강좌_'
'강조_'
'강원대'
'강원FC'
'강영'
'강연회_'
'강서구_'
'강민호_'
'강릉시'
'강도'
'강대'
'강남구'
'갔'
'감찰'
'감옥'
'감염_'
'감식'
'감시_'
'갈수록_'
'간판_'
'간이'
'간부'
'간담회에_'
'가짜뉴스'
'가정의_'
'가입하'
'가이드'
'가의_'
'가요'
'가슴'
'가성비_'
'가능해진다_'
'가능하'
'가능성을_'
'가가'
'硏_'
'大'
'亞_'
'↑…_'
've'
're'
'r_'
'io'
'in'
'e스포츠'
'com_'
'bl'
'bhc치킨'
'a_'
'`'
'U리그_'
'TS'
'TIGER'
'THE_'
'SW_'
'SU'
'SOC'
'SK행복'
'SK하이닉스와_'
'SK브로드밴드'
'SKC_'
'SA'
'ROAD_'
'PS4'
'PI'
'P2P금융_'
'ON'
'NE'
'NBA_'
'LPGA'
'LP'
'LG의_'
'KT와_'
'KTH'
'KGC인삼공사_'
'KEB하나은행은_'
'KEB하나은행'
'KDB'
'KB증권은_'
'KA'
'JW중외제약'
'IT기업_'
'IST_'
'IBK투자증권'
'GS리테일'
'GS건설'
'GM_'
'GI'
'FC안양'
'FC서울_'
'FC가_'
'ETF_'
'ET'
'ENM_'
'EN'
'DE'
'DB'
'CP'
'CJ헬로'
'BS'
'BNK투자증권_'
'BM'
'>  _'
'9개'
'91_'
'8회_'
'8일까지_'
'8일'
'8만원'
'8대'
'8곳_'
'830'
'800원에_'
'7회'
'7이닝_'
'7년'
'7개월_'
'7개'
'730'
'7000원'
'6주'
'66_'
'60억원_'
'60세'
'600억'
'6000만'
'5회'
'5천억'
'5이닝_'
'5세'
'5분'
'5건'
'50조'
'500원'
'500억원_'
'500만원_'
'4승'
'4번_'
'4개월'
'4강'
'4K_'
'470'
'46억'
'3회'
'3호_'
'3층_'
'3점슛'
'3일까지_'
'3인'
'3월부터_'
'3억원'
'3분기'
'3만원'
'36억'
'365일_'
'365'
'350원'
'350'
'34억'
'30대'
'300_'
'3000억원'
'2주년_'
'2승_'
'2부'
'2명'
'2루타를_'
'2루'
'2대'
'2거래일_'
'28억원_'
'28개'
'270'
'262'
'25분_'
'25만'
'23개_'
'228'
'21억'
'20여'
'20억_'
'20억'
'20개'
'2019시즌_'
'2018학년도_'
'2011년'
'1타점_'
'1천1'
'1조1'
'1점'
'1심에서_'
'1만원'
'1개월_'
'1Q_'
'19억'
'1980'
'197'
'195'
'18일까지_'
'18개_'
'17명'
'16년'
'166'
'159'
'158'
'150억원_'
'14억'
'14년'
'13만'
'133'
'10위'
'10억원'
'10명'
'100일'
'100여_'
'100만명_'
'0여'
'08_'
'06'
'000만'
'.” _'
'. '
','_'
''·'_'
'%→_'
'% ↑'
' ↑"_'
' +_'
' ""'
'히어로즈'
'희의_'
'희망나눔'
'흥국생명'
'흥_'
'흡연_'
'흉기로_'
'휴켐스'
'휴일_'
'휴온스'
'휴대전화_'
'휴게소'
'휩싸인_'
'휠라코리아'
'휠'
'후퇴_'
'후쿠시마'
'후보지_'
'효율_'
'효과를_'
'회장과_'
'회의'
'회식'
'회사를_'
'회로'
'회담을_'
'회계법인_'
'환호'
'환전'
'환자를_'
'환원'
'환불'
'환매'
'환담하'
'환담'
'환경을_'
'환경부'
'확대로_'
'화제_'
'화웨이'
'화성연쇄살인'
'화산'
'화물차_'
'화력발전소'
'화는_'
'홍성군'
'홍상수_'
'홍대'
'홋'
'호투_'
'호점'
'호의_'
'호우_'
'호를_'
'호국'
'혜택'
'혜_'
'협회가_'
'협약식_'
'협동조합'
'현장에'
'현장서_'
'현상_'
'현대자동차가_'
'현대미포조선_'
'혁신상_'
'혁신도시'
'혁명_'
'헬스_'
'헤럴드'
'헌재_'
'헌재'
'허성'
'향년_'
'향기'
'행사에서_'
'했으며_'
'했다가_'
'햇감자'
'해운'
'해외서_'
'해양수산'
'해수'
'해설'
'해변'
'해법_'
'해달라고_'
'해달라_'
'해냈다_'
'항의하'
'항목'
'항공기'
'합의_'
'합리'
'함양'
'함안'
'할지'
'할인행사'
'할로'
'한화큐셀'
'한화건설'
'한진해운'
'한진_'
'한중'
'한용덕_'
'한복'
'한번_'
'한방_'
'한라_'
'한남'
'한국형_'
'한국해'
'한국콜마'
'한국전력_'
'한국장'
'한국예탁결제원은_'
'한국수력원자력'
'한국사회'
'한국사'
'한국벤처'
'한국방'
'한국무역협회'
'한국마사회가_'
'한국관광'
'한국과'
'한국P'
'학술상'
'학생들_'
'학부모'
'하키'
'하임'
'하이파'
'하이투자증권에서_'
'하원'
'하만_'
'하루만에_'
'하동군'
'하도록_'
'하도급_'
'하는'
'하노이'
'하남'
'하나금융투자에서_'
'하계'
'하거나_'
'필지를_'
'필요하다고_'
'필수_'
'피리'
'피겨'
'플레이스'
'플랜_'
'플라자_'
'플라이'
'프리카_'
'프리시즌_'
'프란'
'프라이즈'
'퓨쳐'
'풋'
'풀이'
'표창원_'
'표지'
'표심'
'폴리스_'
'폴란드'
'폴라'
'폭풍_'
'폭탄'
'폭이_'
'폭으로_'
'폭스바겐코리아'
'폭발물'
'포획'
'포토'
'포켓몬_'
'포장_'
'포스터_'
'포스코건설_'
'포상금_'
'포드'
'포도'
'포기'
'폐차_'
'폐암_'
'폐사체'
'평화정'
'평화적_'
'평생'
'펼친다'
'펼쳐지'
'편성'
'펜싱'
'펙스'
'페인'
'페이스_'
'페이스'
'퍼팅_'
'팬들에게_'
'팩트_'
'팩토리_'
'패치'
'팝업스토어_'
'판사_'
'판문점_'
'판로_'
'판단_'
'판다'
'판교_'
'판결이_'
'파트너십_'
'파주'
'파이팅'
'파이트_'
'파이터_'
'파이낸셜'
'파업에_'
'파악_'
'파스퇴르'
'파생상품'
'팀장_'
'티에'
'티브'
'티나'
'틈'
'특허를_'
'특수부_'
'특성화_'
'특산물_'
'트에서_'
'트릭'
'트리_'
'트로_'
'트레일러'
'트래블'
'툰'
'투표율_'
'투자유치_'
'투자에_'
'투자비'
'투구_'
'퇴출'
'퇴임_'
'통장'
'통역'
'통과했다'
'톨'
'토탈'
'토론토_'
'텔콘'
'텔레'
'텐트'
'텍스'
'테크놀'
'테크노밸리_'
'테러지원국'
'텀블'
'턱'
'터미널'
'태양광발전소_'
'태안_'
'탑재'
'탈퇴'
'타점_'
'타점'
'타일'
'타인_'
'타이탄'
'타이밍'
'타이거즈_'
'타워크레인_'
'타석_'
'킴이_'
'킴'
'킨텍스에서_'
'키트_'
'키즈'
'키움증권에서_'
'큼_'
'클릭_'
'클랜'
'클래'
'크림_'
'크라운_'
'크라우드펀딩_'
'퀘'
'퀄컴'
'쾌적'
'콜라보레이션_'
'콘서트'
'코프'
'코트라_'
'코트_'
'코와'
'코엑스_'
'코어_'
'코스피200_'
'코스메카코리아'
'코믹'
'케이크_'
'케이스'
'케이블TV_'
'컴퍼니'
'컬링_'
'컬러_'
'컨테이너_'
'컨셉'
'컨벤션센터_'
'커플'
'캠핑'
'캐치'
'칼_'
'카탈루냐_'
'카타르_'
'카카오톡'
'카카오택시_'
'카카오뱅크'
'카카오게임'
'카운트_'
'카드가_'
'카니발_'
'칫'
'침입'
'침수_'
'침묵_'
'칠레'
'친절'
'치즈'
'치의_'
'치여_'
'치기_'
'측정_'
'취임사'
'취업제한'
'취약계층'
'충전기_'
'충성'
'충남지'
'출신'
'출석하고_'
'출범했다_'
'출범한다'
'출발하'
'출몰'
'출루'
'출근길_'
'춘추관'
'춘_'
'축제를_'
'축사를_'
'추진해'
'추진위원'
'추진된다_'
'추신수가_'
'추석맞이_'
'추경안_'
'최하위'
'최적화'
'최우수상_'
'최우수'
'최신'
'최순실씨'
'최순'
'총장에_'
'총선'
'총무'
'총리와_'
'총괄회장'
'촉진_'
'초고속_'
'체코_'
'체질'
'체인'
'체육_'
'체불'
'체력'
'체결한_'
'체감경기'
'체가_'
'청주시'
'청년들'
'청구했'
'첨단소재_'
'첨단소재'
'철회'
'철원'
'철수_'
'철거_'
'철거'
'천안시'
'처분을_'
'채무_'
'채널을_'
'찾아가'
'창훈_'
'창출에_'
'창작_'
'창업자'
'창단'
'창고'
'창간_'
'참좋은'
'참여했'
'참석했다_'
'참석하'
'참배하'
'참가해_'
'찬성'
'착_'
'차별화'
'차별'
'차명'
'차량을_'
'찔'
'째로_'
'째'
'징역'
'집행위원'
'집중해'
'질의'
'질병_'
'질문'
'진흥원은_'
'진행하고_'
'진천군'
'진천'
'진전_'
'진상조사'
'진도군'
'직접적'
'직자'
'직영'
'직불'
'직무_'
'직구'
'지형'
'지크_'
'지체'
'지청_'
'지질'
'지진피해_'
'지정된_'
'지적장애'
'지인'
'지원센터'
'지원금'
'지오'
'지역사회'
'지역본부'
'지스타_'
'지방자치'
'지리산_'
'지도자'
'지난해'
'지급하는_'
'지금까지_'
'지구에서_'
'증을_'
'증언_'
'증시는_'
'증설'
'증거인멸'
'증가세'
'줘야_'
'중형'
'중한_'
'중증'
'중앙회'
'중소기업중앙회에서_'
'중단된'
'중견기업_'
'중거리_'
'중간선거_'
'중간_'
'줄인다_'
'줄인_'
'줄여_'
'줄여'
'줄어든다_'
'준우승_'
'준수'
'준비하'
'준비를_'
'주호영_'
'주택에_'
'주택도시보증공사'
'주택금융'
'주식투자_'
'주스'
'주부'
'주민이_'
'주민들'
'주목받고_'
'주관으로_'
'주거환경'
'좌석'
'좌_'
'좋음_'
'종합사회복지관'
'종목은_'
'좁'
'존스'
'조직위원회'
'조지'
'조종'
'조원진_'
'조원을_'
'조에'
'조성한다'
'조성사업'
'조성된다_'
'조사단'
'조류인플루엔자_'
'조류'
'조달청'
'조달을_'
'조가_'
'제청'
'제조사'
'제일제'
'제일기획_'
'제의_'
'제리_'
'제도개선_'
'제고'
'제강'
'제9회_'
'제20회_'
'제19대_'
'제18회_'
'제18'
'제15회_'
'정훈'
'정황_'
'정화'
'정찬'
'정정'
'정이'
'정수기_'
'정상회담'
'정보통신기술_'
'정도로_'
'정도'
'접_'
'절정_'
'절약_'
'절반으로_'
'절단_'
'전환했다고_'
'전투기'
'전준'
'전주대'
'전자랜드프라이스킹'
'전자랜드_'
'전임'
'전월_'
'전성'
'전선_'
'전반'
'전망된다_'
'전망됐다_'
'전라남도_'
'전두환_'
'전날'
'전과_'
'전개_'
'전개'
'적용하'
'적격'
'저하_'
'저자'
'저수지_'
'저소득층'
'저비용항공'
'저감_'
'재직자_'
'재외'
'재생_'
'재무부'
'재도'
'재난_'
'장흥군'
'장애인의_'
'장서_'
'장례식'
'장례'
'장내_'
'장관회의_'
'장관을_'
'장관에'
'잡는다_'
'잠정'
'잠재'
'잔여'
'잔_'
'작년'
'자카르타_'
'자취안지수'
'자책'
'자제'
'자재_'
'자유무역'
'자유_'
'자신감_'
'자사의_'
'자보'
'자랑스런_'
'자랑'
'자동화'
'자동차부품'
'자금을_'
'자격_'
'잎'
'있나_'
'있기'
'있고_'
'잇달아_'
'입주자_'
'입자'
'임진'
'임성재'
'임산부_'
'임명됐'
'임단협_'
'임기_'
'잃은_'
'잃어버'
'일회성_'
'일진'
'일주일'
'일자리위원회_'
'일원'
'일어나'
'일시적'
'일부터_'
'일본서_'
'일본과_'
'일보'
'인플루엔자_'
'인포'
'인터뷰'
'인터내'
'인정하'
'인적'
'인이_'
'인으로_'
'인에'
'인수에_'
'인상으로_'
'인사청문회에서_'
'인베스트먼트_'
'인베스트'
'인버터_'
'인데_'
'인니_'
'인건비'
'익을_'
'이행_'
'이트'
'이탈리'
'이커'
'이제는_'
'이재현_'
'이재영_'
'이의'
'이유정_'
'이웃돕기_'
'이용자들'
'이었습니다_'
'이식_'
'이시'
'이승엽'
'이슬람_'
'이션'
'이석'
'이상인_'
'이사회에'
'이브_'
'이베이코리아_'
'이범호'
'이민'
'이모티콘_'
'이며_'
'이름_'
'이동하는_'
'이끌_'
'이끈_'
'이길_'
'이기_'
'이근호'
'이과'
'이게_'
'의향'
'의존'
'의장이_'
'의자_'
'의왕시_'
'의왕'
'의상'
'의류_'
'의료원_'
'의도'
'음식물'
'음성인식_'
'음성'
'은이_'
'으로도_'
'으려'
'융복'
'윤지'
'윤중천'
'윤석'
'윤병세_'
'육성을_'
'유한공사'
'유포'
'유치에_'
'유진'
'유족_'
'유입_'
'유일한_'
'유일하'
'유안타증권은_'
'유안타'
'유상증자로_'
'유비'
'유보_'
'유방'
'유명한_'
'유망'
'유료방송_'
'유령'
'유럽증시_'
'유럽서_'
'유니폼을_'
'유니온'
'유니버'
'유권자'
'유구역'
'유가증권시장_'
'윌'
'윈터'
'위탁운'
'위촉식'
'위원회를_'
'위원회'
'위원들'
'위스키_'
'웰빙'
'웠던_'
'월세'
'월성'
'원장이_'
'원익'
'원유_'
'원센터'
'원서'
'원리'
'원가'
'움직'
'운전면허'
'운동장'
'운동본부'
'우회'
'우와_'
'우수상_'
'우선주_'
'우리카드'
'용지'
'용역'
'요금을_'
'외국인의_'
'완주군'
'완도군_'
'완구_'
'완공'
'와일드'
'와이어'
'옷_'
'옵틱스'
'올시즌_'
'올릭스'
'옥천군'
'오후에_'
'오픈한다_'
'오픈한'
'오픈을_'
'오티'
'오존주의보'
'오염_'
'오산'
'오사카'
'오브'
'오르비텍'
'오랜'
'오디션_'
'오도'
'오거'
'오가는_'
'예우'
'예술_'
'예수'
'예방접_'
'영화제'
'영화관_'
'영향이_'
'영유아'
'영예를_'
'영업정지_'
'영업이익'
'영업_'
'영세_'
'영사'
'였다'
'엿'
'열병'
'연휴기간'
'연합뉴스'
'연천'
'연예인_'
'연습경기_'
'연립'
'연료전지'
'연동_'
'연동'
'연구진이_'
'연구자'
'연구원이_'
'연구에_'
'연구기관'
'역전승을_'
'역사교과서_'
'여행지'
'여주_'
'여의도에'
'여만'
'여대_'
'여객_'
'엠플러스_'
'엔터테인먼트는_'
'엔진오일_'
'에피'
'에프앤'
'에버랜드_'
'에바'
'에디'
'에드가'
'에겐_'
'에게도_'
'에게는_'
'었지만_'
'없어'
'없앤다_'
'업종은_'
'업종_'
'업데이트했다'
'업계에_'
'얼리'
'언더'
'어주'
'어시스'
'어비스'
'어린_'
'어려'
'어도_'
'양행'
'양주'
'양궁'
'야스'
'야마'
'야당'
'야권'
'야구장_'
'앵'
'앰배서더_'
'액토즈'
'애니'
'앞으로'
'앞바다'
'앞당'
'암매장'
'앓'
'알파홀딩스'
'알코올_'
'알제'
'알림'
'알려주'
'알고_'
'앉아'
'안하'
'안착_'
'안지'
'안정화'
'안전지'
'안전공단_'
'안양시'
'안성_'
'안방'
'안드로이드_'
'악한_'
'악수_'
'아파트에_'
'아파트가_'
'아티'
'아트센터'
'아주_'
'아제'
'아일'
'아이오닉_'
'아울렛_'
'아에'
'아시아나항공'
'아스트'
'아바'
'아모레퍼시픽은_'
'아마'
'아리랑_'
'아름'
'씬_'
'쓴'
'쓰기'
'싶은_'
'심을_'
'싫'
'실태'
'실질_'
'실을_'
'실업률_'
'실업_'
'실시된'
'실손'
'실세_'
'실리콘밸리'
'실내체육관에서_'
'신화_'
'신화'
'신혼희망타운_'
'신혼'
'신항_'
'신한금융투자에서_'
'신한금융_'
'신탁_'
'신촌_'
'신지'
'신조_'
'신입사원'
'신을_'
'신용대출_'
'신속한_'
'신세계백화점'
'신생'
'신산업'
'신뢰_'
'신당'
'식재'
'식으로_'
'식사_'
'시흥_'
'시행된다'
'시티는_'
'시켰다_'
'시카고'
'시작했'
'시에'
'시안'
'시스코'
'시설물_'
'시범사업'
'시민의_'
'시민과_'
'시몬스_'
'시리즈를_'
'시리아'
'시대가_'
'시급_'
'시공사'
'시각'
'승자'
'승인을_'
'습관'
'스프링'
'스폰서'
'스페이스_'
'스페셜'
'스퍼'
'스파크'
'스팅'
'스티'
'스트레스_'
'스톤_'
'스텝'
'스텔'
'스탠'
'스캔'
'스웨덴_'
'스몰_'
'스러운_'
'스노우'
'숨은_'
'술에'
'순천시_'
'순자산_'
'순익_'
'순간'
'숙명여'
'수출규제_'
'수주공시를_'
'수장_'
'수은'
'수요자'
'수요예측'
'수업_'
'수습_'
'수순_'
'수소_'
'수성_'
'수산시장_'
'수면'
'수로_'
'수도'
'수구'
'숍_'
'쇼미더'
'쇄신'
'송치'
'송창'
'솔로포_'
'손흥민의_'
'속속_'
'소행'
'소한_'
'소집'
'소장_'
'소방청'
'소매'
'소를_'
'소닉'
'소공'
'소개한다_'
'소감을_'
'소각'
'션을_'
'셔널'
'셉_'
'셀렉'
'셀러'
'센트럴'
'세화'
'세탁기_'
'세컨'
'세정'
'세이'
'세의_'
'세액'
'세븐일레븐_'
'세브란스병원'
'세무조사_'
'세무조사'
'세무사'
'세리'
'세력'
'세금_'
'세금'
'세계태권도'
'세계에서_'
'성희롱_'
'성장에_'
'성장세_'
'성윤모_'
'성범죄_'
'성과보'
'성공을_'
'설치를_'
'설에_'
'설립된'
'선출됐다_'
'선체_'
'선진국'
'선점_'
'선의'
'선언하고_'
'선수로_'
'선발로_'
'석탄_'
'석이_'
'석유화학'
'서해'
'서프라이즈_'
'서치'
'서정'
'서의_'
'서울중앙지검장'
'서울시교육청'
'서울국제'
'서울구치소'
'서울교육청_'
'서울과_'
'서산'
'서머'
'서대'
'서경'
'생활체육_'
'생산량_'
'생방송_'
'생명과'
'생들이_'
'샘표'
'샌드박스_'
'새마을금고_'
'상황을_'
'상호금융'
'상품이다_'
'상처'
'상징_'
'상장사'
'상여금_'
'상승하'
'상승률'
'상습적'
'상반기에_'
'삿포로_'
'삼현철강'
'삼진'
'삼지'
'삼성전자의_'
'삼성이_'
'삼성에_'
'삼성SDS'
'삼_'
'삶_'
'살인'
'살이'
'살림'
'산업협회'
'산업혁명과_'
'산업혁명'
'산림청'
'산단_'
'산관'
'산간'
'사후'
'사회적경제_'
'사회복지법인_'
'사할린_'
'사장은_'
'사인회'
'사이드'
'사유_'
'사용자_'
'사에서_'
'사업화'
'사업으로_'
'사업부문'
'사업부'
'사무실에'
'사모'
'사면_'
'사망한_'
'사망사'
'사망률은_'
'사망률'
'사령관'
'사라져'
'사내_'
'사과하'
'사건으로_'
'빼돌린_'
'빠지'
'빌딩에'
'비판하'
'비즈'
'비자금_'
'비오'
'비싼_'
'비스_'
'비수기'
'비서관'
'비보'
'비롯해_'
'비로'
'비디오_'
'블랑_'
'블라디'
'붙은_'
'불황'
'불확실성'
'불출'
'불만'
'불량_'
'불꽃축제'
'불꽃놀이'
'분해'
'분쟁조정'
'분위기'
'분사'
'분당_'
'분당'
'분께_'
'북한군_'
'부회장의_'
'부회장에'
'부하'
'부통령'
'부채_'
'부정_'
'부실_'
'부산진'
'부산시와_'
'부산시가_'
'부산소'
'부사장이_'
'부사관'
'부르크_'
'부담금_'
'부과했다'
'부각_'
'부가'
'봐야_'
'봉사단'
'볼넷'
'본부를_'
'본관_'
'복직'
'복지센터'
'복지기관'
'복음'
'복수'
'복무_'
'복귀전'
'보험료'
'보은군'
'보유하고_'
'보여_'
'보스턴_'
'보류_'
'보령'
'보도에_'
'보고회_'
'보고서'
'보건소'
'보건복지부'
'보강_'
'별세'
'변화를_'
'변호인_'
'변호'
'변에'
'변수_'
'벽화'
'벼_'
'벤투'
'벤처스_'
'벡_'
'베테랑_'
'베어스가_'
'베리_'
'벗어나'
'법정_'
'법이'
'법은_'
'법무법인_'
'범행'
'벌어졌다_'
'번째로_'
'번지'
'번영'
'번역_'
'버터'
'버드_'
'백혈병_'
'백악관'
'배제'
'배수'
'배민'
'밭_'
'방해'
'방통위_'
'방침이다_'
'방출_'
'방조'
'방송통신'
'방산_'
'방문했다_'
'방문의_'
'방망이'
'밟'
'발휘'
'발표할_'
'발표하'
'발표에_'
'발표된'
'발전소'
'발송'
'발사대_'
'발목_'
'발매'
'받으며_'
'받으'
'반이'
'반성'
'반납_'
'반군'
'박효'
'박정희_'
'박동진'
'박동원'
'바캉스_'
'바이오협회'
'바른정당은_'
'바나나_'
'밑돌'
'밋'
'밀착'
'밀레'
'민트'
'민들'
'민간임대주택'
'미안'
'미래창조과학부'
'미래에셋대우에'
'미라'
'미네소타_'
'미국서_'
'물이'
'문화체육'
'문화재청'
'문화재단'
'문화를_'
'문학상_'
'문에_'
'문선'
'무효'
'무패'
'무차'
'무역적자_'
'무안타_'
'무상_'
'무면허'
'무리뉴_'
'무기한_'
'무기징역_'
'무궁화'
'무관'
'몰라'
'몰디브'
'목포_'
'목적으로_'
'목숨을_'
'목동'
'모험_'
'모터쇼'
'모터'
'모시'
'모션'
'모빌리티_'
'모델이'
'모니터링'
'모가'
'명지'
'명이'
'명의'
'명은_'
'명예시민'
'명예_'
'면에서_'
'면에_'
'면담하'
'멘트'
'멘토'
'메이플'
'메이커_'
'메모리'
'멈추'
'먹은_'
'맹활약'
'맨체스터_'
'매물'
'매경'
'맞이하'
'맛집'
'말하고_'
'말하'
'말레이시아'
'많아'
'만찬_'
'만지'
'만이'
'만으로'
'만원의_'
'만원에_'
'만수'
'만루_'
'만대_'
'막이_'
'막걸리_'
'마포'
'마지막으로_'
'마리나'
'마련된_'
'마그'
'릴'
'리티'
'리턴'
'리콜'
'리카'
'리즘'
'리어'
'리버풀'
'리미티드_'
'리더십'
'리니지2M_'
'리고_'
'른다_'
'륙_'
'류현진이_'
'류현진의_'
'룽'
'루에'
'롯데케미칼_'
'롯데제과'
'롯데백화점은_'
'롯데그룹'
'롯데건설'
'로컬'
'로직'
'로엔'
'로맥_'
'로맥'
'로그'
'로가_'
'렴대옥_'
'력이_'
'려야_'
'려다_'
'렌_'
'레일'
'레스토랑'
'레벨_'
'레몬'
'런던'
'랠리_'
'랜섬웨어_'
'랐다_'
'락스'
'라임'
'라이트'
'띠_'
'뛴다_'
'뚫고_'
'또다시_'
'또는_'
'떠올'
'때문'
'때리'
'때는_'
'등장했'
'등에서_'
'들여'
'들어간'
'득_'
'드린다_'
'드로'
'듀얼'
'듀랑고_'
'둘러'
'둘'
'둔화'
'두바이'
'됐고_'
'돼지_'
'동탄_'
'동차'
'동작구_'
'동원_'
'동양생명'
'동부증권'
'동남'
'동계_'
'돗'
'돈이_'
'독자_'
'독성'
'독거노인'
'독감_'
'도착한_'
'도입된'
'도시가스'
'도박사이트_'
'도미니'
'도로에서_'
'도당'
'도그'
'델'
'덴마크'
'데이타'
'데뷔'
'덤_'
'덜어'
'덜'
'덕수'
'덕산네오룩스_'
'더한_'
'더위'
'더블유'
'댓글을_'
'대학생들'
'대표팀의_'
'대표이사에_'
'대표단_'
'대치동_'
'대출을_'
'대출금리'
'대처_'
'대처'
'대책에_'
'대전시는_'
'대우조선해양_'
'대연'
'대승_'
'대설주의보'
'대비해_'
'대북제재'
'대북정책'
'대법_'
'대도'
'대기_'
'대구와_'
'당해_'
'당은_'
'당원_'
'당원'
'당국자'
'닷새간_'
'닷'
'담당자'
'닭고기'
'달을_'
'달에_'
'달력'
'단축'
'단일화_'
'단위_'
'단순_'
'단속에_'
'단백'
'단말기'
'단독으로_'
'단기차입'
'단계적_'
'다쳤'
'다임'
'다음주_'
'다음'
'다양성'
'다양'
'다나'
'다공'
'다가오는_'
'닛케이지수_'
'닐슨'
'닌텐도_'
'능력을_'
'늙'
'늘려_'
'뉴스테이_'
'눔'
'눈이_'
'누릴_'
'높이기_'
'농작물'
'농약'
'농성'
'놀이터_'
'논쟁_'
'노회찬_'
'노화'
'노트북_'
'노선에'
'노리는_'
'노력을_'
'노동자들'
'노동위원회'
'노동_'
'년단'
'넷마블은_'
'네티즌'
'네트웍스'
'네이버는_'
'네오위즈_'
'넣고_'
'넘어서'
'넘기'
'냈습니다_'
'낼'
'내한'
'내일채움공제_'
'내야_'
'내셔'
'내부거래_'
'내린다_'
'내리고_'
'낮추'
'낮지만_'
'낭'
'납치'
'납_'
'남편'
'남미_'
'남미'
'날씨는_'
'날씨'
'날개'
'낚시'
'낙찰_'
'나타'
'나이스'
'나스'
'나빠'
'나미'
'나눔로또'
'나갈_'
'나간'
'낄_'
'끝내_'
'끓'
'끌'
'꿨'
'꿈나무_'
'꾸준한_'
'꾸미'
'껑충_'
'깃발'
'깃'
'김해_'
'김한수_'
'김포공항_'
'김철'
'김천시'
'김천'
'김주식_'
'김재환_'
'김재환'
'김재호_'
'김장겸_'
'김장_'
'김일성'
'김이수_'
'김원중'
'김용환_'
'김연철_'
'김범'
'김기춘_'
'김규'
'길은_'
'기탁했다'
'기초자'
'기준환율'
'기준금리를_'
'기전_'
'기저귀_'
'기자입니다_'
'기자들의_'
'기자간담회에'
'기자간담회를_'
'기자가_'
'기울이'
'기울'
'기온이_'
'기업들의_'
'기억_'
'기아'
'기술이_'
'기술개발_'
'기세'
'기본_'
'기록했습니다_'
'기념주화'
'기념식을_'
'기간제_'
'기간이_'
'급휴'
'급증하'
'급여'
'급물살'
'급감_'
'금품을_'
'금품_'
'금융회'
'금융협회'
'금융투자협회에_'
'금융센터'
'금융감독원이_'
'금연'
'금산'
'근로자의_'
'극적인_'
'극복_'
'그리스'
'그로'
'그런_'
'그랑프리_'
'그들'
'규격'
'궐련형_'
'권은_'
'권성'
'권기'
'군의_'
'군으로_'
'국제신'
'국제선_'
'국제사회'
'국제관'
'국정원'
'국의_'
'국유'
'국시'
'국민은행_'
'국무총리상'
'국립대'
'국립공원'
'국공립_'
'국감_'
'국가정보원'
'국가대표팀_'
'구호_'
'구조대'
'구장에'
'구속영장'
'구미시_'
'구매자'
'구리시_'
'구름이_'
'구독'
'구도_'
'교차로_'
'교재_'
'교육청은_'
'교육자'
'교육원_'
'교육생을_'
'교수들'
'교수는_'
'교섭_'
'교사가_'
'광진구_'
'광주은행_'
'광고제'
'관장'
'관세'
'관리공단'
'관람객_'
'관람객'
'관광상품'
'관계장관회의'
'과학관_'
'과테말라'
'과세_'
'과도한_'
'과는_'
'과기정통부_'
'공화국'
'공헌'
'공학'
'공주'
'공정거래위원장_'
'공정거래'
'공장을_'
'공작'
'공인중개사_'
'공인인증서_'
'공익'
'공영홈쇼핑'
'공시를_'
'공산당_'
'공백_'
'공모한다'
'공모전'
'공론화_'
'공동기'
'곳의_'
'곳에서_'
'골프존'
'골드_'
'고조'
'고위'
'고양시'
'고시_'
'고시'
'고속도로'
'고성군_'
'고병원성_'
'고배당'
'고문_'
'고리_'
'고려해_'
'고래_'
'고객에게_'
'계층'
'계열_'
'계단'
'경향'
'경청'
'경제협력'
'경제자'
'경제인'
'경쟁력을_'
'경인'
'경이_'
'경영자'
'경상수지_'
'경복'
'경남은행_'
'경기지'
'경기력'
'경기대'
'겼'
'결혼식_'
'결혼_'
'결핵_'
'결정했'
'결정적_'
'결정에_'
'결의안'
'결연'
'결승타_'
'게임물'
'검은_'
'검사가_'
'걸쳐_'
'걸어'
'걸린_'
'걸리'
'걸그룹_'
'건에_'
'건수가_'
'건국'
'걱정_'
'거래일'
'거래액'
'거두며_'
'갤럭시S10_'
'갤럭시'
'갤'
'객실_'
'개통'
'개최지'
'개점_'
'개점'
'개원'
'개봉_'
'개봉'
'개발자'
'개교'
'같아_'
'강화하는_'
'강인'
'강등_'
'강남권'
'강관'
'강경_'
'갑론을박'
'감이_'
'감안해'
'감기'
'갈등'
'간판'
'각자대표'
'가하'
'가평'
'가자'
'가입자'
'가솔린_'
'가상화폐'
'가산'
'가뭄'
'가루'
'野_'
'美국'
'男_'
'獨'
'檢'
'北에_'
'伊_'
'㎜'
'㈜'
'◇_'
'◆'
'↓_'
'↑"""_'
'‧_'
'‥_'
'’… _'
'’…'
'···'_'
'to'
'ti'
'kt'
'kg'
'ha'
'at'
'Z_'
'WTI_'
'WT'
'VO'
'UI'
'UC'
'Th'
'Sh수협은행_'
'STX조선_'
'ST'
'SK증권에서_'
'SK는_'
'SKC'
'SI_'
'SC제일은행'
'SBS'
'QM'
'PM'
'PK'
'PD'
'NCS'
'M은_'
'MW'
'MVP'
'MS_'
'LS전선아시아'
'LS산전_'
'LIG넥스원_'
'LG유플러스가_'
'LG는_'
'LED'
'KTX'
'KR모터스'
'KOTRA'
'KF'
'KB손해보험_'
'KB금융'
'KB국민은행은_'
'KB국민은행'
'J_'
'IOC_'
'IMF_'
'HOLD_'
'GS25_'
'GL'
'G4_'
'EW'
'DS'
'DI'
'DGB금융그룹'
'DA'
'CU_'
'CJ푸드빌'
'CJ제일제당'
'CES'
'CB'
'BNK경남은행'
'BGF리테일_'
'BGF리테일'
'B2B_'
'AT'
'AFP'
'A3'
'?' _'
'9일'
'9만_'
'9개월'
'960'
'8호'
'8연'
'8분'
'8번'
'8개월_'
'8개'
'850'
'840'
'83억원'
'800만원'
'7억'
'7기_'
'7곳_'
'74억원'
'73_'
'70억원_'
'6월부터_'
'6분'
'6명'
'6만원'
'680'
'650원_'
'600억원_'
'6000'
'5인'
'5월3'
'5월1'
'5명'
'5만원'
'5당_'
'5단'
'5개월'
'580'
'560'
'530'
'512'
'50주'
'50억_'
'50만원'
'500m'
'5000만'
'4회'
'4주년'
'4월1'
'4번'
'4만원'
'4만5'
'4년간_'
'4곳'
'450원'
'4500'
'450'
'43만'
'40명_'
'4000원'
'4000만'
'3일'
'3원'
'3사'
'3박'
'3곳'
'35억'
'30일'
'30명'
'302'
'300원에_'
'300원'
'300억'
'300만원_'
'2학'
'2차전_'
'2종'
'2점'
'2연패'
'2연승을_'
'2만2'
'2곳_'
'29억'
'290'
'27억'
'245'
'23일까지_'
'22억'
'21개'
'214'
'20억원_'
'20분_'
'204'
'2030년'
'2030_'
'2021년_'
'2013년_'
'2009년_'
'2008년_'
'2000원'
'2000억원'
'1층_'
'1천6'
'1차전'
'1차관이_'
'1조5'
'1일'
'1운동_'
'1억3'
'1사_'
'1분_'
'19억원'
'1995'
'193'
'18세_'
'18명'
'18만'
'184'
'17개_'
'16억'
'16강_'
'15조'
'155'
'150원'
'14명'
'13년_'
'126'
'11번가'
'117'
'10조'
'10배'
'10개월'
'101_'
'100원'
'1000억_'
'1000만'
'0선을_'
'0대_'
'05_'
'00만원'
'000원으로_'
'.""'
',…"" _'
''…""_'
''-_'
'% “_'
' △_'
' · _'
' .'
' ''
'힘찬'
'히든'
'희망하'
'흥국증권'
'흑자를_'
'흐름'
'휴젤'
'휴장'
'휴스'
'휩'
'훔쳐'
'훔'
'훈련하는_'
'훈련에_'
'후회'
'후퇴'
'후즈_'
'후의_'
'후에'
'후손'
'후보에'
'후배_'
'후반기_'
'효성첨단소재_'
'효력_'
'효과적'
'효과로_'
'횡령'
'횡단'
'횟'
'획득'
'회의에'
'회에서_'
'회생'
'회삿돈_'
'회사에'
'황재균'
'황인'
'황사_'
'활약_'
'활동한'
'환호하고_'
'환호_'
'환자에게_'
'환아'
'환송'
'환경연'
'환경에'
'환경교육'
'확정된_'
'확인했'
'확인해'
'확보했다고_'
'확대하고_'
'확대되'
'확_'
'화학물질'
'화학무기_'
'화질_'
'화요일'
'화시'
'화물_'
'화력_'
'화두'
'홍철'
'홍채'
'홍보대사'
'홈앤쇼핑'
'홈구장'
'홈경기'
'홀로_'
'혼란_'
'혼다코리아'
'호흡'
'호평'
'호조'
'호응을_'
'호우주의보_'
'호와_'
'호식'
'형우'
'협치_'
'협정'
'협력하'
'협동'
'혐오'
'현판식'
'현지시'
'현재까지_'
'현장점검_'
'현악'
'현대해상_'
'현대모비스가_'
'현대글로비스_'
'현대건설기계'
'현대가_'
'현대百_'
'현금영수증'
'현과_'
'혁신기'
'헤딩'
'헝그리앱'
'험_'
'헌재소장_'
'헌법재판소장'
'허위사실'
'허브_'
'허가를_'
'향하는_'
'향상을_'
'행정지원'
'행정사_'
'행정명령_'
'행이'
'행위를_'
'행운의_'
'행복나'
'행보_'
'핵심은_'
'핵심기술'
'해커스'
'해의'
'해운대구'
'해운대_'
'해운대'
'해외직'
'해외연수_'
'해외시장'
'해외선물_'
'해외건설'
'해안_'
'해설위원'
'해방'
'해명'
'해남'
'해고_'
'해고'
'해결을_'
'항에_'
'합작'
'합병을_'
'합류했다_'
'합동으로_'
'함을_'
'함께한_'
'할인하는_'
'할인판매_'
'할리'
'한화투자증권은_'
'한화테크윈_'
'한화그룹'
'한해_'
'한중일_'
'한자리'
'한자'
'한이'
'한올바이오파마'
'한스타'
'한송'
'한세'
'한섬_'
'한샘_'
'한번'
'한미연_'
'한마'
'한도'
'한남대'
'한국프로'
'한국중'
'한국인터넷진흥원'
'한국원'
'한국연구재단'
'한국여자'
'한국어판_'
'한국씨티'
'한국산업단지공단_'
'한국도로공사_'
'한국대'
'한국당'
'한국금융지주'
'한국국제'
'한국공'
'한국가스공사_'
'한국가'
'한국e스포츠협회'
'한국GM'
'한광'
'학점'
'학자_'
'학위'
'학술지'
'학술대회_'
'학생부_'
'학대_'
'학년도_'
'학년'
'학기_'
'학교법인'
'학교가_'
'하퍼'
'하토'
'하지'
'하의_'
'하위권'
'하와'
'하얏트'
'하승'
'하수처리'
'하수'
'하반기'
'하락세'
'하다며_'
'하나은행_'
'하겠'
'핑_'
'핏'
'필수'
'피할'
'피하려'
'피츠버그_'
'피츠버그'
'피의자'
'피엔'
'피살'
'피부에_'
'플리'
'플로'
'플레이위드'
'플러스는_'
'플랫'
'플래그십_'
'플라자'
'프트'
'프린터_'
'프리스'
'프로야구'
'프로골'
'프랜차이즈'
'프랑크'
'프라자_'
'프가'
'풍선'
'풍부한_'
'품격'
'풀려_'
'푹_'
'푸조_'
'표팀_'
'폼'
'폭행한_'
'폭우_'
'폭언_'
'포함된_'
'포털'
'포터'
'포켓몬고_'
'포커'
'포지'
'포즈를_'
'포시'
'포스코대우'
'포르투'
'포레스트_'
'포레'
'포럼에서_'
'포기하지_'
'포근'
'폐장'
'폐기물'
'폐_'
'평창올림픽'
'평일_'
'평생학습'
'평가하'
'펼쳐'
'편지_'
'편의_'
'펠리페_'
'펜션'
'펙트_'
'페라리'
'페더러_'
'페더러'
'펍지'
'펍'
'펌프_'
'펌'
'펀드의_'
'펀드온라인코리아'
'펀드에서_'
'펀드에_'
'퍼트'
'퍼레이'
'팽'
'팬오션_'
'팬들의_'
'패키지'
'패밀리_'
'패를_'
'팝업_'
'팔려_'
'판매하'
'판매업'
'판매됐'
'판매는_'
'판단이_'
'파크에서_'
'파일_'
'파이낸스_'
'파이_'
'파우치_'
'파악됐'
'파사'
'파문_'
'파면'
'팁'
'틴'
'틱스'
'티켓을_'
'티어'
'티시'
'티샷'
'티브_'
'티몬_'
'티맥스'
'티드_'
'티드'
'틀_'
'특징'
'특정'
'특수활동비_'
'특수_'
'특산품'
'특별점검_'
'특별대'
'특권'
'특검팀'
'트인_'
'트와이스'
'트에_'
'트에'
'트리플_'
'트론_'
'트레일'
'트럭'
'트러스'
'트라이'
'투자증권_'
'투자전략_'
'투자자문'
'투자유치'
'투입해_'
'투입된'
'투어에'
'투썸플레이스'
'투수들'
'투런'
'투기과열지구_'
'퇴진_'
'통화정책_'
'통행료_'
'통일부'
'통신장비'
'통상교섭본부'
'토크콘서트_'
'토스'
'토리_'
'토르'
'토대'
'톈진'
'텔레콤'
'텍에_'
'테헤란'
'테크윙_'
'테임즈'
'테슬라'
'터에'
'터스'
'터닝메카드_'
'탱크_'
'택지_'
'택지'
'택시운전'
'태인'
'태영건설'
'태영_'
'태어'
'태양광'
'태백산'
'태권'
'탓에_'
'탐사선_'
'탐구_'
'탈세'
'탈모_'
'탄핵심판'
'타파_'
'타코'
'타이틀리스트'
'타워'
'타당성_'
'타개'
'타가'
'킹존_'
'킷_'
'키친_'
'키워드'
'키우'
'키스_'
'클린'
'크에'
'크린'
'크리스티'
'크리스탈'
'크를_'
'크루셜텍'
'크런치'
'크래프'
'크다_'
'퀄컴과'
'쿠킹'
'쿠바'
'쾌척_'
'콩_'
'콜롬비아_'
'콜로라도'
'콘셉트_'
'코칭스태프'
'코칭_'
'코오롱생명과학_'
'코스콤'
'코스닥시장'
'코리안리_'
'코딩'
'코너'
'켐_'
'케이피'
'케이블카'
'케이는_'
'컴백_'
'컬렉션'
'컨퍼런스'
'컨티넨탈'
'컨트롤'
'컨_'
'커진'
'캠코'
'캘리포니아_'
'캐시_'
'캐스트_'
'캐논'
'칼리'
'칵'
'카타르'
'카카오미니'
'카와_'
'카오'
'카시'
'카메'
'카드를_'
'침해'
'칠곡'
'친화도시_'
'치열'
'치약'
'치아'
'치솟'
'치르'
'치료제'
'층의_'
'층에서_'
'층에_'
'취해_'
'취항_'
'취항'
'취한_'
'취하고_'
'취하'
'취임한'
'취업준비'
'취업자'
'취약_'
'취소됐다_'
'췄다_'
'충원'
'충북대_'
'충무로'
'충남대'
'출퇴근'
'출정식'
'출시할_'
'출소'
'출석한_'
'출마선언'
'출근_'
'출고가'
'축제인_'
'축구협회'
'축구대회_'
'축구대표팀'
'축구단'
'추첨_'
'추진할_'
'추진단_'
'추적_'
'추월'
'추세'
'추도식'
'최초'
'최준'
'최적'
'최장수_'
'최은'
'최우선'
'최악'
'최선을_'
'최민정'
'최민'
'최대폭'
'최대주주가_'
'최고경영자_'
'총지배인'
'총영사'
'총생산'
'총기_'
'촛불집회'
'촉구'
'초저'
'초이스_'
'초음'
'초록우산_'
'초등학생_'
'초등학생'
'초교'
'첸'
'체포된_'
'체계를_'
'체결하고_'
'체감'
'청호나이스'
'청탁_'
'청취'
'청춘_'
'청자'
'청운'
'청에서_'
'청에_'
'청신호_'
'청송_'
'청년창업_'
'청년정책_'
'청계'
'첫날인_'
'철수'
'철강업계'
'천호'
'천지'
'천적'
'천식_'
'천리'
'처음'
'처벌'
'챙기'
'챗'
'챔스_'
'책임자_'
'책을_'
'채택했다'
'채취_'
'채용설명회'
'채권시장'
'찾아주'
'창호'
'창조경제'
'창이'
'창의_'
'창업지원'
'창당_'
'창녕군'
'창녕'
'참전용사'
'참여기'
'참사'
'참관'
'참가한다_'
'참가자들'
'찰기'
'착한'
'차지하'
'차지'
'차익'
'차은'
'차원_'
'차범'
'차례로_'
'차량이_'
'차도'
'차게_'
'찍는_'
'짜릿한_'
'집중되고_'
'집중단속_'
'집에서_'
'집니다_'
'집권_'
'집계'
'집값_'
'질서'
'진행해'
'진행되는_'
'진행됐'
'진해'
'진출한'
'진출기업_'
'진이_'
'진에'
'진압_'
'진상_'
'진료비'
'진로_'
'직원의_'
'직원에게_'
'직속_'
'직무대행'
'지키는_'
'지코'
'지켜_'
'지침'
'지지선언'
'지정을_'
'지원협의'
'지원받'
'지원단'
'지온'
'지앤'
'지식산업센터'
'지식'
'지시했다_'
'지속가능한_'
'지소'
'지분을_'
'지분매각_'
'지방재정'
'지방선거'
'지면서_'
'지른_'
'지던'
'지노'
'지난해에'
'지난'
'지기_'
'지금부터'
'증진_'
'증인으로_'
'증여세_'
'증언'
'증세'
'증권이_'
'증권사들'
'증가에_'
'즘'
'즈마_'
'중지_'
'중재'
'중이던_'
'중이'
'중요하다_'
'중앙선'
'중앙도서관'
'중시'
'중소기업에_'
'중랑'
'중단했'
'중단하'
'중단을_'
'중단됐'
'중국법인'
'중고차'
'줄이는_'
'줄어든_'
'줄어'
'줄기세포_'
'줄고_'
'준호_'
'준비하고_'
'준공식'
'준결승_'
'주형'
'주택시장'
'주최'
'주총'
'주차_'
'주주총회를_'
'주주총회_'
'주주총회'
'주장했습니다_'
'주장하'
'주인'
'주의보를_'
'주의보가_'
'주요국_'
'주식을_'
'주상복'
'주변에_'
'주민참여예산'
'주민참여'
'주문하'
'주먹'
'주류'
'주담대_'
'주기'
'주관'
'주거복지_'
'주거복지'
'주가급등'
'좌초'
'좌익수'
'좌우'
'종합운동장에서_'
'종사자'
'종가_'
'졸음운전_'
'존중_'
'존중'
'존슨_'
'조현우_'
'조현_'
'조항'
'조치를_'
'조짐'
'조영'
'조양호_'
'조심'
'조선소'
'조립'
'조기총선'
'조금_'
'조계_'
'젬'
'젤리'
'젠지'
'젠은_'
'제휴'
'제화'
'제품이_'
'제출했다고_'
'제천_'
'제주지사'
'제주시'
'제조업'
'제재금_'
'제작한_'
'제이엠'
'제이_'
'제외됐다_'
'제압_'
'제안한'
'제는_'
'제공하고_'
'제거_'
'제40회_'
'제22회_'
'정한'
'정체성'
'정청'
'정책협의'
'정책실장'
'정차'
'정조준'
'정점'
'정을_'
'정은_'
'정운'
'정우영'
'정신건강'
'정식'
'정세_'
'정상회담에서_'
'정비사업'
'정부조직법_'
'정부대'
'정보공사'
'정무수석'
'정몽규_'
'정리하'
'정규리그_'
'정구'
'접속_'
'접견_'
'점심'
'점검한'
'점검하고_'
'점검에_'
'점거'
'절반이'
'전환청구권'
'전화를_'
'전혀_'
'전파_'
'전체회의'
'전진'
'전자상거래_'
'전임_'
'전인_'
'전용차로'
'전역_'
'전시장'
'전북지역'
'전범기업'
'전문기'
'전망치_'
'전력분'
'전량_'
'전략게임_'
'전라북도_'
'전라북도'
'전당_'
'전당'
'전년동기대비_'
'전남지역_'
'전남도의'
'전국장애'
'전국은_'
'전교조_'
'적자폭'
'적금'
'저히_'
'저평가'
'저의_'
'저렴하게_'
'저가'
'쟁이_'
'잼'
'재활용_'
'재확인'
'재학생'
'재편'
'재탄생_'
'재조사'
'재원'
'재벌'
'재미'
'재료_'
'재규어랜드로버'
'재가'
'장학생_'
'장하'
'장타'
'장착_'
'장제원_'
'장인_'
'장애인과_'
'장애아동'
'장수_'
'장소_'
'장세'
'장병들'
'장병_'
'장면'
'장내매수했다고_'
'장내'
'장난감'
'장기적'
'잡으'
'잠_'
'잘한_'
'잔액'
'잔디'
'작품을_'
'작을_'
'작성_'
'작성'
'자치분권'
'자체가_'
'자인_'
'자원_'
'자연_'
'자선'
'자살_'
'자산운용은_'
'자사주'
'자사'
'자락'
'자동차용_'
'자도_'
'자녀들'
'자국_'
'자구안'
'자격증'
'자격으로_'
'자가'
'잊'
'있으면_'
'있었다'
'있어야_'
'잇츠'
'잇_'
'입항_'
'입학금_'
'입지_'
'입주기업_'
'입원_'
'입었다_'
'입양'
'입성'
'입상'
'입건'
'임플란트_'
'임직원이_'
'임종'
'임을_'
'임용_'
'임시공휴일'
'임명했다고_'
'임금협상'
'임계'
'일하는_'
'일자리정책'
'일자리센터'
'일자리사업'
'일임'
'일요일'
'일어날'
'일선_'
'일반분양'
'일몰'
'일만에_'
'일레븐'
'일러스트'
'일동제약'
'일동'
'일당_'
'일까지'
'일가_'
'일가'
'인터뷰하는_'
'인터뷰에서_'
'인터내셔널_'
'인천에'
'인천공항공사'
'인증서'
'인증샷_'
'인정받아_'
'인용'
'인센티브_'
'인상적'
'인삼_'
'인사회'
'인사에'
'인명피해_'
'인명사'
'인들이_'
'인드'
'인근에_'
'익스프레스_'
'이후에'
'이태원_'
'이크'
'이춘재'
'이총리_'
'이체'
'이철성_'
'이처럼_'
'이지케어텍_'
'이지만_'
'이제'
'이재오_'
'이재성_'
'이재민_'
'이장'
'이임'
'이유를_'
'이완'
'이엠'
'이엔'
'이에스에이'
'이에'
'이어진_'
'이어지는_'
'이앤'
'이스라엘'
'이스_'
'이송_'
'이송'
'이색_'
'이사로_'
'이사가_'
'이벤트는_'
'이베스트투자증권에서_'
'이베스트'
'이바'
'이목'
'이모'
'이론'
'이로_'
'이랜드리테일'
'이라크_'
'이디'
'이드'
'이동걸_'
'이노션'
'이기는'
'이겨'
'의혹으로_'
'의혹'
'의제'
'의정부'
'의정'
'의전당'
'의원총회에서_'
'의약품'
'의붓아'
'의무화'
'의료원'
'의뢰_'
'의날_'
'음주운전'
'음주_'
'음원'
'음식점_'
'음란'
'을지태극'
'은희_'
'은행장_'
'은행의_'
'은행연_'
'으로서'
'윤리경영'
'윤리'
'육성사업_'
'육대'
'육_'
'유해물질'
'유한양행_'
'유통업'
'유통기'
'유치원'
'유전체'
'유전'
'유적'
'유재'
'유원'
'유영'
'유소'
'유세_'
'유상증자'
'유보'
'유발'
'유럽연합'
'유럽에서'
'유라'
'유도_'
'유도'
'유대'
'유니셈'
'유나이티드'
'유기한_'
'유관기관_'
'유골_'
'유가증권'
'유가족'
'윌리'
'위협하'
'위메프'
'위례'
'위드_'
'위니아'
'위는_'
'위기에_'
'웹_'
'웨이버_'
'웨스트'
'웜비어'
'월간_'
'원활'
'원화_'
'원화'
'원유철_'
'원시'
'원생'
'원룸'
'원료'
'원년'
'웅동학원_'
'웃음_'
'웃었다_'
'웃는_'
'움직임이_'
'움직임을_'
'움을_'
'울산시장_'
'울산대'
'울렛'
'운전면허_'
'운영해'
'운영자'
'우즈_'
'우정사업본부'
'우의_'
'우울증_'
'우울'
'우수사'
'우수기업_'
'우수AMS'
'우선협상대'
'우석'
'우산'
'우려를_'
'용평'
'용인대'
'요키시'
'요인_'
'요인'
'요원_'
'요양원'
'요양병원'
'요동'
'요구하'
'외화_'
'외화'
'외치'
'외인_'
'외식업'
'외벽'
'외국계_'
'외교장관_'
'외교안보'
'외교관_'
'외과_'
'왜곡_'
'완판'
'완주_'
'완전자'
'완료하고_'
'와중에'
'와이파'
'와이번스'
'와이드'
'와디즈_'
'옹호'
'올리브영_'
'올렸다고_'
'올레드_'
'올레'
'올가'
'온에'
'온라인몰_'
'옥상'
'오후'
'오피스'
'오피'
'오승환이_'
'오션브릿지'
'오세요_'
'오리진'
'오를_'
'오래_'
'오디오_'
'오늘도_'
'예상되'
'예산안'
'예비후보'
'예비심사_'
'예매'
'영향평가'
'영장실질심사_'
'영입했다_'
'영입을_'
'영업점'
'영업이익은_'
'영업손'
'영업본부'
'영어교육'
'영상이_'
'영덕_'
'영남대'
'영국의_'
'염경엽_'
'열흘'
'열린'
'열기'
'열광'
'연희'
'연합훈련'
'연한_'
'연승_'
'연수원'
'연세대'
'연설하는_'
'연설_'
'연루_'
'연령_'
'연도_'
'연극'
'연구팀'
'연구원장'
'연구용'
'연결하는_'
'연간회원권_'
'역전패'
'역사를_'
'역량강화_'
'여행사_'
'여중생'
'여제_'
'여전_'
'여자배구_'
'여자농구'
'여성가족'
'여민관'
'여름휴가'
'여론조사'
'여당'
'여권'
'여교사'
'여객터미널'
'엠은_'
'엠에스'
'엠앤'
'엘비'
'엔화_'
'엔터_'
'엔비'
'에픽게임즈_'
'에프_'
'에쿼티'
'에이티'
'에이전트_'
'에이씨'
'에이비'
'에어팟_'
'에어서울_'
'에스엠'
'에스맥'
'에버'
'엉덩이'
'엉'
'었으'
'업황'
'업체들_'
'업인_'
'업의_'
'업으로'
'업본부'
'업무협약'
'업과_'
'엄정'
'얼음정수기_'
'얼마'
'얻은_'
'언제까지_'
'언양'
'언론이_'
'억7'
'억5'
'억1'
'어쩌'
'어음'
'어울'
'어선에'
'어반'
'어린이재활병원'
'어리'
'어를_'
'어드벤처_'
'어도비'
'양호한_'
'양해각서를_'
'양해'
'양평군'
'양키스_'
'양준'
'양육'
'양식_'
'양성평등'
'양상문_'
'약품'
'약식기소'
'약세를_'
'약보합_'
'약보합'
'약물'
'약관_'
'야시장_'
'야생의_'
'야놀'
'야구대'
'앵커_'
'앱스토어'
'액션스퀘어'
'액세서리_'
'애국'
'애경'
'애견'
'앞장서'
'았다고_'
'압수'
'압류_'
'암호'
'앓고_'
'알파_'
'알지'
'알았'
'알선'
'알미늄'
'알마'
'안한다_'
'안타까운_'
'안치'
'안착'
'안정성'
'안전체'
'안전진단_'
'안전점검'
'안전을_'
'안전보건공단_'
'안에서_'
'안았다_'
'안산시_'
'안민석_'
'안드'
'안도'
'안개'
'악화로_'
'악성'
'아프리카'
'아파트의_'
'아태'
'아키'
'아크'
'아케이드_'
'아주그룹_'
'아자르'
'아이패드_'
'아이코스'
'아이즈'
'아이스하키_'
'아이스크림_'
'아이스_'
'아연_'
'아시아태평양'
'아쉽'
'아빠_'
'아비'
'아부다비'
'아마추어_'
'아래_'
'아랍에미리트_'
'아들과'
'아동센터'
'아니냐는_'
'아나_'
'아가방'
'씨엔'
'씨에_'
'씨에'
'씨름'
'쓸_'
'쏠리고_'
'쏜_'
'쏙'
'쎌'
'쌍용건설_'
'싸움'
'심포지엄'
'심층'
'심재'
'심의위원회'
'심에서'
'심야'
'심사가_'
'실형을_'
'실질적_'
'실증'
'실종자_'
'실적은_'
'실업수당_'
'실시되'
'실사'
'실무협상_'
'실내'
'신흥'
'신한생명'
'신축'
'신청한_'
'신제품을_'
'신제'
'신재'
'신임대표'
'신용정보_'
'신용보증기금'
'신영자산운용'
'신속_'
'신성장'
'신사업'
'신보_'
'신변'
'신도시'
'신나'
'신기'
'식품의약국'
'식자재'
'식당에서_'
'식당'
'시흥시_'
'시험에_'
'시키기'
'시키고_'
'시큐리티_'
'시켜'
'시총_'
'시집_'
'시장에'
'시장심리지수'
'시장과_'
'시원'
'시외버스터미널'
'시신이_'
'시세_'
'시를_'
'시동을_'
'시대의_'
'시대를_'
'시네마_'
'시내버스_'
'시기를_'
'시군_'
'시군'
'시구_'
'시간입니다_'
'승격_'
'슬레'
'슬_'
'스포티'
'스포츠대'
'스펙'
'스페이스'
'스튜어'
'스테이지_'
'스터_'
'스타크래프트_'
'스타벅스'
'스쿨_'
'스코리아'
'스윕'
'스위트'
'스미'
'스마트팩토리_'
'슈팅'
'슈즈_'
'숭실대_'
'숨졌습니다_'
'순환_'
'순항_'
'순천시'
'순직_'
'순매수를_'
'수칙'
'수입이_'
'수익을_'
'수익성'
'수의_'
'수위_'
'수용소_'
'수송_'
'수상하'
'수상작_'
'수상작'
'수백'
'수배'
'수료식_'
'수렴'
'수량_'
'수단_'
'수단'
'수납'
'수교_'
'송환'
'송이_'
'송영'
'송산'
'송도국제도시_'
'송기'
'송금'
'솜'
'솔샤르_'
'속초_'
'속옷'
'소프트웨어'
'소풍'
'소추'
'소재로_'
'소유_'
'소식을_'
'소시'
'소수자'
'소속사'
'소속'
'소설_'
'소사_'
'소사'
'소비자물가_'
'소득주도성장_'
'소득세_'
'소드_'
'소독'
'소는_'
'소공동_'
'셔_'
'셋째'
'센트_'
'센터의_'
'섹'
'세포_'
'세트를_'
'세이브'
'세이_'
'세원'
'세아제강_'
'세번째_'
'세미나'
'세라'
'세단_'
'세기'
'세계한인'
'세계지질공원_'
'세계시민'
'세계경제'
'성황리_'
'성화봉송_'
'성폭행한_'
'성장성'
'성장률'
'성사_'
'성북'
'성모병원'
'성명'
'성동구_'
'성균관'
'성공한_'
'성공적_'
'섬진강'
'섬에'
'설치된_'
'설정액'
'설비투자'
'설문'
'설립한다'
'설립하'
'선포'
'선진'
'선제적'
'선정되'
'선익시스템'
'선이'
'선수협'
'선수들과_'
'선수권_'
'선수권'
'선선'
'선서하'
'선사'
'선발한다_'
'선발전'
'선미'
'선물세트'
'선도하는_'
'선도_'
'선데이토즈_'
'선관위_'
'선고받은_'
'선고받'
'선거를_'
'석에'
'서초사옥'
'서전'
'서인'
'서이라'
'서울지'
'서울역'
'서울아'
'서울시교육감'
'서울대병원_'
'서울광장'
'서스'
'서상'
'서비스수'
'서가_'
'샤오미'
'샤롯데'
'생활가전_'
'생필품'
'생산시설'
'생명은_'
'생계형_'
'생각한다_'
'샘_'
'색소'
'색상_'
'새정부'
'새만금_'
'새로'
'새내기'
'상황판'
'상황실'
'상환_'
'상한제_'
'상점'
'상장예비심사'
'상장기업'
'상자_'
'상자'
'상인들'
'상인'
'상영'
'상반기'
'상담실'
'상근'
'상관없이_'
'삼양식품'
'삼성중공업_'
'삼성의_'
'삼성생명'
'삼국지'
'살리'
'산화'
'산하기관_'
'산하'
'산청'
'산책_'
'산업은_'
'산업발전'
'삭감_'
'사흘'
'사회혁신'
'사회가_'
'사항은_'
'사표를_'
'사찰_'
'사전등록_'
'사장을_'
'사이트를_'
'사이언스'
'사업주'
'사업부문_'
'사업본부'
'사업단_'
'사업가'
'사양_'
'사상최대_'
'사살'
'사망했다'
'사막'
'사립대'
'사료_'
'사로잡'
'사례를_'
'사령관_'
'사람을_'
'사람들_'
'사람들'
'사들'
'사당'
'사단법인_'
'사냥_'
'사내이사'
'쁜'
'쁘'
'뿐이'
'뿌리'
'뽑혔다'
'뽑는'
'뼈_'
'뼈'
'빠져_'
'빠르게_'
'빠르'
'빙상'
'빅데이터로_'
'빅데이터'
'비행기_'
'비하'
'비율이_'
'비우'
'비욘드_'
'비씨카드_'
'비씨'
'비슷한_'
'비슷'
'비수'
'비서_'
'비서'
'비상대책위원장'
'비만'
'비로_'
'비둘기'
'비대'
'비공개_'
'블록체인과_'
'블록체인'
'블록에_'
'블로그'
'블로_'
'블렌'
'블라인드_'
'브레인'
'불이행'
'불안정'
'불법행위'
'불꽃'
'불구하고_'
'불개미'
'분유'
'분야의_'
'분수'
'분데스리가'
'북한이탈주민'
'북한을_'
'북한대'
'북한과의_'
'북상_'
'북극성_'
'부활'
'부총리'
'부착'
'부족한_'
'부족으로_'
'부정채용'
'부작용'
'부위원장이_'
'부위원장'
'부영_'
'부안_'
'부스_'
'부송'
'부상을_'
'부산은행'
'부산신항'
'부산시장_'
'부문에'
'부모가'
'부른'
'부르는_'
'부동산대책'
'부동'
'부당_'
'부국증권'
'부경대'
'본토'
'본죽'
'본인_'
'본업'
'볶'
'복지재단'
'복귀한'
'복권'
'보호구역_'
'보호관'
'보험공사'
'보증금'
'보좌관회의'
'보좌관'
'보조'
'보이콧'
'보이스피싱'
'보여줬'
'보여줄_'
'보여준_'
'보아'
'보리_'
'보리'
'보를_'
'보라'
'보도가_'
'보답'
'보낸'
'보내고_'
'보급_'
'보관'
'보고서를_'
'보강'
'병원에서_'
'병원성'
'병원과_'
'별이'
'별관'
'변성'
'변동성이_'
'변경을_'
'벽보'
'벳_'
'벤투호_'
'벡스코에서_'
'벡스코_'
'벡'
'베타'
'베이커리_'
'베이션_'
'베스트셀러'
'베를'
'벚꽃'
'벙'
'벗어'
'법인에'
'범죄정보'
'범정부_'
'범위_'
'범위'
'벌어지'
'벌금형'
'번에_'
'벅'
'버트_'
'버전_'
'버스터'
'버스정'
'버디_'
'백팩'
'백승'
'백두산'
'배틀로얄_'
'배출량_'
'배움'
'배우자'
'배스킨라빈스'
'배상하라'
'배상_'
'배를_'
'방학'
'방통'
'방은_'
'방위비_'
'방안이_'
'방식이'
'방송인_'
'방송사'
'방사성'
'방사선'
'방사'
'방미'
'방문한다'
'방문을_'
'방공식별구역'
'밤부터_'
'밝히고_'
'밝혀졌다_'
'발행한다고_'
'발표회_'
'발탁했다_'
'발족'
'발생했다고_'
'발생했'
'발생하는_'
'발매_'
'발리'
'발렌시아_'
'받으려'
'반짝_'
'반려동물'
'반려'
'반대한다'
'반다'
'반납'
'반격'
'박헌'
'박한'
'박지현'
'박종'
'박수를_'
'박세혁'
'박삼구_'
'박물관은_'
'바이트'
'바운드_'
'바우'
'바쁜_'
'바라는_'
'바뀐_'
'바꾸는_'
'바꾸고_'
'밋_'
'밀어내기_'
'믿는'
'민정수석_'
'민정수석'
'민이_'
'민의'
'민원실_'
'민영화_'
'민에_'
'민생'
'민간인_'
'미흡'
'미팅_'
'미트'
'미투_'
'미지급'
'미주'
'미와_'
'미아_'
'미스터피자_'
'미스'
'미세_'
'미성년자_'
'미샤'
'미생물'
'미래컴퍼니'
'미래에셋대우는_'
'미래부_'
'미국인_'
'미국에_'
'미가'
'뮤지'
'뮤즈'
'물티슈_'
'물어'
'문화콘텐츠_'
'문화예술_'
'문화상'
'문화산업진흥원'
'문제에_'
'문자_'
'문의'
'문위'
'무형'
'무주군'
'무인_'
'무원_'
'무역수지_'
'무역분쟁_'
'무승'
'무소속_'
'무사'
'무비'
'무력'
'무등산'
'무기명식_'
'무기_'
'무고'
'몰카'
'목표주가'
'목표전환'
'목표를_'
'목원'
'목소리를_'
'모자_'
'모인_'
'모이스'
'모으고_'
'모유'
'모았다_'
'모습이_'
'모스크'
'모빌'
'모비톡_'
'모바일게임'
'모를_'
'모른다'
'모두투어_'
'모두발언'
'모델하우스'
'모내기'
'모교'
'명예교수_'
'명소'
'명령_'
'명동_'
'명동'
'면허_'
'면제'
'면적'
'면세점은_'
'멧'
'메카로_'
'메시지를_'
'메리어트'
'메가맨_'
'멋진_'
'멈춰'
'멀티_'
'먼트'
'먹어'
'먹는'
'머신'
'머물'
'머리를_'
'맹활약_'
'매체들'
'매진'
'매직마이크로'
'매장을_'
'매장에_'
'매운'
'매스'
'매수강세_'
'매매거래'
'매매가'
'매도우위'
'매달_'
'매뉴얼'
'매각을_'
'맡아_'
'맞힌_'
'맞춤'
'맞춘_'
'맞추'
'맞았다_'
'맞다_'
'맛집_'
'맛있'
'맘_'
'말하는_'
'말자'
'말아'
'말씀'
'말로_'
'말레'
'많았'
'많고_'
'만주_'
'만들었다_'
'만두'
'만남_'
'만남'
'만건_'
'만개'
'만2'
'막말_'
'마피아'
'마포구'
'마이크로닉스'
'마이리'
'마이너스_'
'마의'
'마을에서_'
'마스터'
'마산'
'마비'
'마라톤'
'마라'
'링크'
'립대_'
'립니다_'
'릴라'
'린드블럼_'
'린드블럼'
'리프트_'
'리틀'
'리테일'
'리코'
'리즈_'
'리젠'
'리전'
'리를_'
'리딩'
'리니지2레볼루션_'
'리니지'
'르노삼성'
'르노'
'륭'
'류현진'
'류석춘_'
'룸에'
'룰_'
'룩스'
'루미'
'롯데칠성음료_'
'롯데주류_'
'롯데월드_'
'롯데월드'
'롭게_'
'론칭했다'
'론칭한'
'론은_'
'론에_'
'로하스'
'로의_'
'로열'
'로얄'
'로사'
'로보틱스'
'로메'
'로라'
'로또복권_'
'로닉'
'로그인_'
'로고_'
'렸습니다_'
'렬'
'렌즈_'
'렉트_'
'렉_'
'레이더_'
'레스터'
'렁_'
'렀다_'
'러블_'
'러닝'
'량은_'
'랜드에'
'랜드마크시티_'
'랜더'
'랄_'
'랄'
'라인을_'
'라이트_'
'라바'
'라디오_'
'라도_'
'뛰어넘'
'뛰어난_'
'딴'
'딥러닝_'
'딕_'
'디펜스_'
'디즈니'
'디젤'
'디자인을_'
'디자인상_'
'디엔에이링크_'
'디아지오'
'등장한_'
'등록을_'
'등록금_'
'등급분류_'
'들에_'
'들었다_'
'들리'
'드에'
'드립니다_'
'드럼'
'드러나_'
'드라이버_'
'둬'
'둥_'
'둑'
'두산인프라코어'
'두산이_'
'두산밥캣'
'두배'
'되기_'
'됐으며_'
'동해상'
'동학농민혁명'
'동탄2신도시_'
'동창'
'동진'
'동점골_'
'동전_'
'동일_'
'동의안_'
'동원시스템즈'
'동아에스티_'
'동부_'
'동반자_'
'동물_'
'동면'
'동남권_'
'동남_'
'동국제강_'
'돔'
'돌파구_'
'돌입한다'
'돌아가'
'돌봄_'
'돌려'
'돋보이는_'
'독자'
'도전장'
'도입해'
'도입한다_'
'도입하'
'도의회'
'도의'
'도어'
'도시로_'
'도봉구'
'도르_'
'도루_'
'도달'
'도구'
'델타'
'델_'
'덱스터'
'덱스_'
'데뷔전_'
'데뷔골_'
'데미'
'덩크'
'덤핑'
'던전_'
'더해'
'더비_'
'더블유게임즈'
'댄스_'
'댄스'
'대회는_'
'대항전_'
'대한전선'
'대한상의_'
'대한상공회의소'
'대한민국의_'
'대표하는_'
'대표의_'
'대통령으로'
'대중화_'
'대전에'
'대전시의'
'대응방안'
'대우전자'
'대역'
'대에서_'
'대소'
'대선후보가_'
'대선에'
'대상지'
'대상자_'
'대상자'
'대부분'
'대변인은_'
'대미'
'대명리조트_'
'대림산업'
'대대적인_'
'대대'
'대단지_'
'대금을_'
'대국민_'
'대구의_'
'대구에'
'대구시민'
'대교'
'대관령'
'대공'
'대가'
'당첨번호는_'
'당부했다_'
'당국은_'
'당국에_'
'답변_'
'담아'
'담보_'
'담배'
'달한다'
'달성한_'
'달렸다_'
'단행했'
'단한_'
'단풍_'
'단체협'
'단체와_'
'단지에_'
'단조'
'단일_'
'단일'
'단어'
'단속을_'
'단독주택'
'단골'
'단거리_'
'다할_'
'다큐'
'다자'
'다이빙'
'다이노스'
'다음으로_'
'다음과_'
'다오'
'다수'
'다섯_'
'다만_'
'다로'
'닛케이225지수는_'
'닛_'
'니퍼트'
'니까_'
'늦어'
'늘어날_'
'늘리는_'
'늘리기'
'늄'
'눈치'
'눈에_'
'놓치'
'농협중앙회'
'농협은_'
'농어촌_'
'농부_'
'농림축산식품부_'
'농단_'
'농구대'
'논의하는_'
'논문'
'논리'
'녹색_'
'노인복지'
'노원'
'노숙인'
'노무현'
'노리'
'노력이_'
'노래_'
'노래'
'노랑풍선'
'노동시'
'노동계_'
'년의_'
'넵튠_'
'네이처셀_'
'네이버웹툰'
'네오위즈는_'
'넘어섰'
'넉'
'냥'
'냉장'
'냉동_'
'냈다'
'낸스'
'내정자_'
'내정됐다'
'내장'
'내일도_'
'내연'
'내역_'
'내셔널리그_'
'내릴_'
'내려진_'
'내려졌다_'
'내려졌'
'내놨'
'내놔_'
'내내_'
'낮췄다_'
'낮춘_'
'났습니다_'
'남편에'
'남양주_'
'남아'
'남성은_'
'남산'
'남북정상'
'날씨를_'
'날리는_'
'난항'
'난치'
'나타나'
'나와'
'나올_'
'나무심기_'
'나르'
'나도'
'나눔재단_'
'나누기_'
'나누'
'나노스'
'나노_'
'나갔'
'끼리_'
'끝내'
'꿈에'
'꼽히는_'
'꼽았다_'
'꼴_'
'꼴'
'김현수'
'김택'
'김태년_'
'김재현_'
'김자'
'김일성_'
'김윤'
'김영춘_'
'김연경_'
'김씨'
'김소'
'김상수'
'김봉'
'김민재'
'김문'
'김동엽_'
'김대현'
'김근'
'김건'
'긴급체포'
'기후변화_'
'기획전'
'기획재정부'
'기한'
'기초연'
'기지에'
'기지국_'
'기준이_'
'기조연설_'
'기조강연'
'기운'
'기우'
'기용'
'기여한_'
'기업협'
'기업집단'
'기어'
'기아자동차_'
'기승_'
'기술주_'
'기술과_'
'기수_'
'기생'
'기쁘다_'
'기부했다_'
'기부하'
'기보_'
'기보'
'기름'
'기록했'
'기동'
'기대된다'
'기대감을_'
'기념하'
'기념촬영_'
'기념식에'
'기관장_'
'급제_'
'급속'
'금호아시아나'
'금투협'
'금투_'
'금일_'
'금융투자협회'
'금융센터_'
'금융서비스'
'금융상품'
'금요일'
'금속_'
'금상'
'금값'
'근속'
'극복'
'극동'
'극대화'
'극단'
'그친_'
'그쳐_'
'그릇'
'그레이'
'그러면서_'
'그래도_'
'그라'
'귤_'
'균형발전'
'규제개'
'귀순_'
'귀가_'
'권총'
'권익'
'권이_'
'권오'
'권부'
'굿_'
'굴_'
'군인_'
'군산_'
'군사_'
'군민'
'국회서_'
'국책'
'국제학술대회'
'국제영화제'
'국제세미나_'
'국제공항_'
'국정기획위_'
'국정교과서_'
'국으로_'
'국왕'
'국수_'
'국방부는_'
'국방부가_'
'국민행복'
'국민체육'
'국민에'
'국민안전처'
'국민권익위원'
'국대'
'국내주식형펀드'
'국가주석'
'국가재정'
'국가유공자'
'국가안보실장_'
'국가산단_'
'국가고객만족도_'
'구치소'
'구축을_'
'구직자_'
'구직_'
'구조조정'
'구인_'
'구연'
'구세군'
'구서'
'구본준_'
'구민'
'구로'
'구도'
'구글플레이_'
'교황_'
'교통공사_'
'교육청이_'
'교육이'
'교육생_'
'교육부는_'
'교육기'
'교육과정_'
'교수에_'
'교수를_'
'교복'
'괴산'
'광주세계수영선수권'
'광주세계'
'광주광역시_'
'광저우'
'광장'
'광역교통'
'광동제약_'
'광고를_'
'관측_'
'관세청_'
'관세청'
'관리원_'
'관로'
'관련종목들_'
'관련종목들'
'관련성'
'관계기관_'
'관객'
'과학자상_'
'과학원'
'과학대'
'과학기술정보통신부_'
'과학기술정보통신부'
'과정'
'과장_'
'과잉'
'과목'
'공화당_'
'공주_'
'공제회_'
'공정거래위원회가_'
'공정거래위원장이_'
'공을_'
'공용'
'공연장'
'공업은_'
'공약을_'
'공시에_'
'공습'
'공사수주_'
'공보'
'공방'
'공모에_'
'공모를_'
'공룡메카드_'
'공론화위원회'
'공론화'
'공략을_'
'공동위'
'공동연구'
'공동개발_'
'공덕'
'공급에'
'공공택지'
'공개한다'
'공개하고_'
'공개채용을_'
'공개모집_'
'공간에'
'골프대회_'
'골키퍼_'
'골키퍼'
'골자'
'골목상권_'
'골라'
'골드만삭스'
'곤충'
'곡물'
'고통스'
'고창_'
'고진영_'
'고조_'
'고장_'
'고의사'
'고유정_'
'고유'
'고용부_'
'고시했다_'
'고성장'
'고비'
'고분'
'고무'
'고립'
'고룡군협전2_'
'고령화'
'고령자'
'고령_'
'고려대학교'
'고등학생'
'고도'
'고는_'
'고객에_'
'고객들'
'고강도_'
'계열사인_'
'계에'
'계약했다_'
'계속되'
'계명대'
'경협'
'경찰청장'
'경찰청은_'
'경찰서에'
'경찰서'
'경제정책_'
'경제자유구역_'
'경제위'
'경제계_'
'경쟁을_'
'경은'
'경유차'
'경위'
'경우'
'경영평가_'
'경영지원'
'경영정'
'경영인_'
'경영연구소'
'경연'
'경매_'
'경마'
'경남지사'
'경남FC_'
'경기장에서_'
'경기도교육청은_'
'경과'
'결함_'
'결정하'
'결정전'
'결정됐다'
'결실'
'결선'
'견학'
'견본주택을_'
'견본'
'겪었'
'격돌_'
'겠'
'게임산업'
'겁니다_'
'검장'
'검색어_'
'걷어'
'건축심의'
'건이_'
'건설현장'
'건설부'
'건설기'
'건보'
'건물에서_'
'건강하'
'건강에_'
'건강관리'
'거품_'
'거포'
'거짓'
'거점_'
'거시_'
'거북'
'거론'
'거래일째_'
'거듭_'
'거두'
'갤럭시노트9_'
'갤럭시S9_'
'갤러리아_'
'개항_'
'개포'
'개최됐다_'
'개장한다'
'개입'
'개악_'
'개설한다'
'개선에_'
'개사'
'개발했다고_'
'개발해_'
'개발이_'
'개발업'
'개발공사'
'개막했다_'
'개그맨_'
'강화한_'
'강행'
'강풍_'
'강조했'
'강제_'
'강원지역본부'
'강연하는_'
'강아지'
'강소'
'강보_'
'강백호'
'강기정_'
'갑자기_'
'감에_'
'감소세'
'감사원'
'감사를_'
'감독님'
'갈아'
'갈비'
'간편_'
'간암_'
'간식_'
'간소화'
'간사'
'각국'
'각광'
'가해자_'
'가톨릭대_'
'가톨릭'
'가치를_'
'가지고_'
'가좌'
'가족들과_'
'가정간편식_'
'가입하는_'
'가세'
'가보'
'가맹점에'
'가락_'
'가드_'
'가능성은_'
'가능성에_'
'가꾸'
'가까'
'가구는_'
'가게'
'靑'
'百_'
'月_'
'委_'
'兆_'
'亞'
'」'
'「_'
'■ _'
'ⓒ _'
'↓""'
'↑ _'
'Ⅱ'
'…”'
'··'
'·'
'~"'
'z_'
'x_'
'vs'
'ra'
'pa'
'ou'
'on_'
'g_'
'for'
'et'
'er_'
'el'
'ec'
'cm_'
'aT센터에서_'
'WS'
'WB'
'VM'
'UP'
'UF'
'UEFA'
'Technology'
'TD'
'S에'
'SR'
'SPC_'
'SK하이닉스는_'
'SK와이번스_'
'SK그룹_'
'SBI'
'RF'
'PS_'
'PSG_'
'POSCO'
'PE_'
'PER'
'PA'
'OPE'
'ON_'
'NO_'
'NI'
'NH투자증권'
'NH농협카드_'
'NH농협생명_'
'NHN고도'
'NHK'
'NG'
'NB'
'NAVER_'
'MM'
'ML_'
'ML'
'MBN'
'MA'
'LoL_'
'LG하우시스_'
'LG하우시스'
'LG생활건강은_'
'LG생'
'LG상사'
'LG디스플레이에_'
'LGD'
'KIA전'
'KB손'
'JTBC_'
'JP'
'JB금융지주'
'In'
'ISO'
'IBK투자증권은_'
'HU'
'HE'
'HC'
'G마켓'
'GT_'
'GS칼텍스_'
'GS25'
'GPM'
'G2'
'FO'
'EMP'
'EC'
'DGB금융지주'
'DB손해보험_'
'DB그룹_'
'C의_'
'CNN_'
'CL'
'CJ프레시웨이_'
'CJ제일제당이_'
'CJ오쇼핑'
'CI_'
'CE'
'CB_'
'BI_'
'BC카드_'
'BBC_'
'AW'
'AD'
'AC_'
'AB'
'?…'
'?”_'
'?..._'
'9호'
'9일부터_'
'9위'
'9만원'
'9만'
'98_'
'90억'
'8회'
'8주'
'8월부터_'
'8년'
'8강'
'890'
'850원'
'82억'
'80억원_'
'80억'
'800만'
'8000억원'
'7번째'
'77_'
'75억'
'750원'
'71억'
'70주년_'
'700원'
'6층'
'6위'
'6연'
'6세'
'6대_'
'6년간_'
'69억'
'65세_'
'65_'
'611'
'60억원'
'6000억원'
'5위'
'5연승'
'5연'
'5대'
'5곳_'
'5곳'
'5가'
'58억'
'550원_'
'50만'
'500원을_'
'500만_'
'5000원'
'4천억'
'4차산업혁명'
'4주차_'
'4주_'
'4조원_'
'4일부터_'
'4위'
'4실'
'4시간_'
'4세'
'4번째_'
'4대강'
'4개사'
'48억원'
'410'
'40주년'
'40원'
'40분'
'40대'
'400원_'
'400만_'
'3천만'
'3위'
'3억원을_'
'3세'
'3만원_'
'3만_'
'3만5'
'3D'
'37만'
'36개'
'33명'
'30홈런'
'30여명'
'30여_'
'30억원'
'2천만원'
'2주간_'
'2조원_'
'2시부터_'
'2시간'
'2배로_'
'2만여'
'2만6'
'2로_'
'2년만에_'
'2년간_'
'2권'
'2골_'
'2건'
'291'
'275'
'263'
'25개_'
'250원'
'250만원'
'2400'
'23억'
'23명'
'236'
'232'
'22조'
'225'
'212'
'210'
'20명_'
'2025'
'2024년'
'2023년'
'2018평창동계올림픽'
'2018년3월_'
'2015년'
'2010년'
'200일'
'200억원'
'200명'
'200만원'
'200만명'
'200만_'
'2000여'
'2000만원'
'2000만'
'1천억원'
'1조7'
'1이닝_'
'1을_'
'1블록'
'1부'
'1번_'
'1박'
'1만대_'
'1만5'
'1로_'
'1동'
'1대'
'1경'
'19만'
'194'
'192'
'18세'
'187'
'17주년'
'17일까지_'
'17억'
'17명_'
'17년_'
'171'
'161'
'15분'
'15명_'
'150억_'
'1500억원_'
'1500만'
'14일부터_'
'14명_'
'14개'
'149'
'147'
'145'
'144'
'141'
'13일'
'13명_'
'13개_'
'13개'
'138'
'136'
'12호'
'12일'
'12억원'
'12시'
'12명_'
'127'
'11명'
'1100원'
'1100'
'10번째_'
'10번'
'10만명'
'10개'
'101억'
'101'
'100여명'
'100억원을_'
'100세시대연구소'
'100명'
'100년'
'1000억원'
'0회_'
'0원에_'
'0원대'
'0분_'
'0명'
'02'
'00원'
'000여'
'000억원_'
'000명'
'000만원'
'/'
'..'_'
'. ◆_'
', …"" _'
''…'_'
''..'
'&'
'%↓'
'%↑…'
'%…'
'% ‘_'
'"◆ _'
'"▲ '
'!’_'
' ↓'
' ↑_'
'ｍ_'
'年'
'힘든_'
'힘겨운_'
'힐튼'
'힌다_'
'힌'
'히트_'
'히토_'
'히어로즈와'
'히어로_'
'희망의_'
'희망도'
'희귀_'
'흡입'
'흡연율'
'흔드는_'
'흐르'
'흐려'
'흉기_'
'휴스턴_'
'휴가철'
'휠라_'
'훼'
'훌륭한_'
'훈련장_'
'후임'
'후원하'
'후속_'
'후보들'
'후반'
'후끈_'
'후기'
'효율성'
'효성중공업'
'획득했다_'
'회피'
'회전율이_'
'회전'
'회의소'
'회원사_'
'회원들'
'회와_'
'회서_'
'회생절차'
'회생_'
'회사인_'
'회사로_'
'회비'
'회복했다_'
'회복세_'
'회담이'
'회관'
'회계_'
'황희찬_'
'황대헌'
'활용하'
'활동가'
'활기'
'환자가_'
'환인'
'환이_'
'환영하'
'환영사'
'환상적인_'
'환상_'
'환경정'
'환경영향평가서'
'환경영향평가_'
'환경부는_'
'환경보호_'
'확인한_'
'확인된'
'확인되'
'확실_'
'확산되'
'확보했다_'
'확보한_'
'확보에_'
'확대해_'
'확대하는_'
'확대된다_'
'화학은_'
'화재로_'
'화이트_'
'화수'
'화백'
'화로_'
'홍준'
'홍재'
'홍삼_'
'홍보하'
'홍보관'
'홈페이지에서'
'홈경기에서_'
'홀푸드'
'홀드'
'혼합'
'혼조_'
'혼조'
'혼인'
'혼다_'
'혹_'
'호흡기'
'호화'
'호프'
'호투'
'호치민_'
'호조로_'
'호전'
'호사'
'호랑이'
'호날두를_'
'혜원'
'형사부'
'혔다'
'협조'
'협약식'
'협력회사'
'협력사에_'
'혐의가_'
'혈당'
'현황을_'
'현충일'
'현진'
'현지에'
'현지법인'
'현주'
'현재가_'
'현수'
'현물'
'현대화_'
'현대엔'
'현대시멘트'
'현대산업개발은_'
'현대산업_'
'현대모비스'
'현대로템'
'현대그린푸드'
'현대건설은_'
'현금배'
'혁이_'
'혁신창업_'
'혁신위원'
'헬로'
'헥터'
'헤이'
'헤아'
'헤리티지'
'헝그리앱에서_'
'헐'
'헌화'
'헌장_'
'허창수_'
'허용한'
'허용하'
'허더'
'허_'
'향하고_'
'향적_'
'향가'
'행정명령'
'행성'
'행복마을'
'행렬'
'했으'
'했다'
'했나_'
'햇반_'
'햄스트링'
'핸드볼'
'핵실험장'
'핵무기'
'해질_'
'해제된'
'해제됐다'
'해외주식'
'해외여행_'
'해외에'
'해외봉사단_'
'해양생'
'해야'
'해수욕장'
'해소하'
'해선'
'해서'
'해상서_'
'해산'
'해변에서_'
'해리_'
'해리'
'해를_'
'해당한다'
'해당하는'
'해군참모총장'
'해결해'
'항해_'
'항암치료_'
'항암제'
'항소심에서_'
'항소심서'
'항소_'
'항서'
'항생제_'
'합의했'
'합성'
'합격자'
'함평군'
'함이'
'함유_'
'함대'
'할인된_'
'할부'
'한화이글스'
'한화와'
'한현희'
'한투'
'한창'
'한은'
'한옥'
'한신공영'
'한식_'
'한숨_'
'한수'
'한솔제지'
'한상범_'
'한불'
'한발'
'한미일_'
'한미반도체_'
'한라산_'
'한동민_'
'한동민'
'한독'
'한다'
'한글과'
'한국프로축구연맹'
'한국폴리텍'
'한국콘텐츠진흥원'
'한국카'
'한국철도'
'한국조선해양'
'한국조'
'한국제'
'한국전자'
'한국전력공사'
'한국전기'
'한국장학재단_'
'한국은행은_'
'한국으로'
'한국영화_'
'한국여성'
'한국에서_'
'한국에'
'한국어판을_'
'한국문화'
'한국대사'
'한국노'
'한국금'
'한국국'
'한국관광공사'
'한국계_'
'한국거래소에_'
'한국감'
'한국IR'
'한곳'
'한겨레'
'한강신도시'
'한ㆍ'
'학재'
'학업'
'학생들이_'
'학년_'
'학교폭력_'
'학교와_'
'학교를_'
'학계'
'하회_'
'하청업체'
'하청'
'하이트진로가_'
'하이스'
'하이브리드'
'하이라이'
'하위'
'하우'
'하였다_'
'하비'
'하반기부터_'
'하림'
'하리'
'하려'
'하락했'
'하락하고_'
'하락폭'
'하락세를_'
'하라고_'
'하라'
'하드웨어_'
'하되'
'하동_'
'하다'
'하는데_'
'하남시'
'하나투어_'
'하나인_'
'하나멤버스'
'하나금융지주'
'하나금융그룹_'
'하고'
'핑크_'
'필요하다'
'필요하'
'필요성을'
'필립스_'
'필룩스_'
'필드'
'픽스_'
'피해지역'
'피해기업_'
'피해구제_'
'피하'
'피트'
'피치_'
'피처'
'피임약'
'피부염_'
'플로어'
'플렉스_'
'플렉'
'플레'
'플러'
'플랫폼의_'
'플랜'
'프티'
'프리미엄아'
'프리미어리그'
'프리마'
'프로스테믹스'
'프로세'
'프로바'
'프로듀'
'프로그램인_'
'프로게임단'
'프레임_'
'프레시웨이'
'프레스센터에서_'
'프라이빗'
'프라이데이'
'퓨처스리그'
'퓨리케어_'
'풍에'
'풍성한_'
'풍미'
'풍력발전'
'풍랑'
'풍기'
'품질평가'
'품질지수_'
'품을_'
'풀린'
'풀리'
'푸마'
'푸르트'
'표팀'
'표준협회'
'표정으로_'
'표류'
'퐁'
'폴리텍'
'폴드'
'폴더블'
'폭행해_'
'폭은_'
'폭우'
'폭염주의보'
'폭발적'
'폭발로_'
'폭로'
'폭등'
'포항지역_'
'포항에서_'
'포항시의'
'포티'
'포체티노_'
'포부'
'포르쉐_'
'포그바_'
'폐지하'
'평화와_'
'평화를_'
'평창동계올림픽'
'평양에서'
'평소보다_'
'평소'
'평등'
'평가전_'
'평가전'
'평가서_'
'펼쳐_'
'편집숍_'
'편지'
'펭'
'펩'
'페이코_'
'페어'
'페스티벌'
'페리아_'
'페루_'
'펄_'
'펀드매니저'
'퍼시픽'
'퍼블리싱_'
'팽팽'
'팻'
'팸'
'팰리스_'
'팬클럽'
'팬이_'
'팬과_'
'패트'
'패전'
'패싱'
'패스트'
'패소했'
'팝_'
'판촉'
'판이_'
'판으로'
'판사'
'판문점선언_'
'판매했'
'판매한_'
'판매전'
'판매된'
'판매대'
'판결에_'
'파트'
'파크로쉬_'
'파주시'
'파이어'
'파이널판타지14_'
'파손'
'파문'
'파동_'
'파기환송심_'
'파괴_'
'팅크웨어_'
'팀이'
'틸러슨'
'틱'
'티켓링크'
'티저_'
'티웨이항공'
'티앤알바이오팹'
'티스_'
'티로'
'특허출원'
'특보'
'특별재'
'특별시'
'특별단속_'
'특별공급_'
'특별검사'
'특별감찰'
'특강을_'
'트하우스'
'트립'
'트리플A_'
'트리플'
'트로피_'
'트레이드_'
'튜'
'투자펀드_'
'투자설명회를_'
'투자사'
'투자관'
'투입한다'
'투약_'
'투신_'
'투명_'
'투르'
'투데이'
'투기'
'퇴출_'
'퇴임'
'통학'
'통하'
'통신은_'
'통신원_'
'통상부_'
'통보했'
'톡톡_'
'토키_'
'토큰'
'토익_'
'토요일_'
'토리아'
'토론회에'
'토론회가_'
'토로'
'토러스투자증권'
'토니모리_'
'토끼'
'텝스'
'템퍼'
'텍이_'
'텍의_'
'텍에'
'테크닉'
'테크는_'
'테크놀로지는_'
'테크노파크'
'테오'
'테스_'
'테고'
'턴트_'
'턴어'
'터키서_'
'터졌'
'터뜨'
'탬파베이'
'택시기사'
'태화강'
'태운_'
'태안'
'태블릿'
'탐지'
'탐앤탐스'
'탐사'
'탐방'
'탈핵'
'탈출'
'탈북_'
'탈바꿈_'
'탈루'
'탄탄한_'
'탄생했'
'탄도미사일'
'탁구대회_'
'타지'
'타자로_'
'타인'
'타이어코드'
'타이어뱅크'
'타이어를_'
'타이어'
'타워에'
'타스'
'타선_'
'타리'
'타다_'
'타는_'
'타구에_'
'킨텍스'
'킨다'
'키자'
'키위'
'키워드_'
'키운다_'
'키오'
'키르기스스탄_'
'키는_'
'큼'
'클리오'
'클리어'
'클렌'
'클러'
'크스'
'크리에이티브'
'크리에이터'
'크루'
'크라우드_'
'크라우드'
'크다는'
'큘'
'쿼터'
'쿤_'
'쿡_'
'쿠폰'
'쿠팡_'
'쿠쿠전자'
'쿠르드'
'쾌청'
'쾌거_'
'콰'
'콜오브'
'콜업'
'콜센터'
'콜렉션'
'콜드'
'콘텐츠를_'
'코웨이'
'코오롱글로벌_'
'코엑스'
'코아루'
'코스맥스_'
'코스닥벤처펀드_'
'코스_'
'코비'
'코발트'
'코리아텍'
'코리아의_'
'코는_'
'켰'
'켐텍'
'켈리'
'케이프투자증권_'
'케이프투자증권'
'케이프'
'케이엠더블유'
'케이에'
'케이블'
'케스'
'케미칼_'
'컴투스'
'컨슈머'
'컨벤시아에서_'
'컨벤션_'
'커지면서_'
'커지'
'커즈'
'커쇼_'
'커브'
'커버리'
'커버'
'캡틴'
'캠핑카'
'캘'
'캐슬'
'칼럼니스트'
'카톡'
'카카오게임즈는_'
'카카오가_'
'카자흐'
'침투'
'침입해_'
'침몰_'
'침구'
'친화_'
'칙_'
'치어'
'치른_'
'치료비_'
'치렀다_'
'층은_'
'츠카'
'츄'
'취향'
'취해'
'취임했다고_'
'취업박람회_'
'취소되'
'충주시_'
'충주시'
'충주'
'충정로'
'충전소_'
'충북지역_'
'충돌해'
'출하_'
'출판사_'
'출전해_'
'출입_'
'출신인_'
'출신의_'
'출시하며_'
'출시에_'
'출시된_'
'출석했다_'
'출석하는_'
'출산휴가_'
'출범식에'
'출력_'
'출국하'
'출구'
'춘기'
'축산물'
'축구연맹_'
'추측'
'추진위원회_'
'추진에'
'추진되'
'추위가_'
'추위'
'추워'
'추억_'
'추신수'
'추방'
'추모제'
'추모식'
'추모_'
'추락해_'
'추락사고_'
'추대_'
'추구하는_'
'추가하는_'
'추가된'
'추가됐다_'
'최흥식_'
'최태웅'
'최진'
'최적화된_'
'최인'
'최원태_'
'최우수상'
'최영'
'최연소_'
'최대한_'
'최고인'
'최고위원회의에_'
'최고위원회'
'최고위'
'최고등급'
'최고기온'
'최고경'
'최고가_'
'촬영하'
'총회에_'
'총연맹'
'총액'
'총수'
'총상금_'
'총리의_'
'총리는_'
'총력전'
'총량'
'촛불_'
'촘촘'
'촌에'
'촉각_'
'초읽기'
'초소형_'
'초미세'
'초등_'
'초대전_'
'초기'
'초가'
'쳤다'
'쳤'
'체험존_'
'체포영장'
'체육대회'
'체를_'
'체납자'
'체납_'
'체계적'
'체결을_'
'청원_'
'청소기_'
'청서'
'청라'
'청도'
'청담'
'청년인'
'청년실업'
'청년기'
'청각장애'
'첫째'
'첫선'
'철회하'
'철학'
'철폐_'
'철폐'
'철저한_'
'철을_'
'철원_'
'철도공사'
'천하'
'천연물'
'천성'
'천사'
'천명_'
'천명'
'천동_'
'척결'
'처음이'
'처우'
'처에'
'처리하'
'처리시'
'처리기'
'처를_'
'처가_'
'챙겨'
'챔피언십'
'챔피언스리그_'
'책자'
'책임지'
'책임감'
'책은_'
'책상_'
'창출을_'
'창조경제혁신센터'
'창업기'
'창설'
'창문'
'창극_'
'참치'
'참전용사_'
'참여형'
'참여하고_'
'참여자'
'참고'
'참가했다'
'참가하는_'
'찰_'
'찬이'
'착취'
'착수한'
'착륙'
'차질'
'차지한'
'차종'
'차장_'
'차입'
'차우찬'
'차바이오텍'
'차량에_'
'쫓'
'짠'
'징수_'
'짓는_'
'짓기'
'집행유예를_'
'집이'
'집을_'
'집에_'
'집무실에'
'집무실_'
'집단에'
'집단소송'
'질의_'
'질문을_'
'질문_'
'진흥법'
'진행할_'
'진행되고_'
'진행되'
'진통'
'진출에_'
'진정성'
'진입했다'
'진의_'
'진원'
'진술'
'진성'
'진상규명'
'진과_'
'직접투자'
'직장_'
'직위'
'직업_'
'직무정지'
'직능'
'직격탄_'
'지휘_'
'지회_'
'지현'
'지폐_'
'지팡'
'지켰'
'지청'
'지진으로_'
'지진대'
'지지율'
'지지도_'
'지정학적_'
'지정됐다'
'지점에'
'지적_'
'지원했다'
'지원해_'
'지원하고_'
'지원이_'
'지원은_'
'지원대책'
'지역화폐_'
'지역인재_'
'지역은_'
'지역으로_'
'지역아동센터_'
'지역난방공사'
'지었다_'
'지않은_'
'지시했습니다_'
'지속가능경영_'
'지분투자'
'지방의'
'지방은_'
'지문_'
'지목'
'지면'
'지르'
'지대'
'지단_'
'지단'
'지났'
'지급한다고_'
'지급한'
'지갑_'
'증축_'
'증정한다'
'증여세'
'증여_'
'증시에'
'증상_'
'증권을_'
'증거_'
'증가했'
'즉위'
'즈와_'
'즈는_'
'줬'
'줘'
'중학교'
'중이_'
'중원'
'중요성'
'중에서_'
'중에'
'중심상업'
'중소형주_'
'중소기업진흥공단은_'
'중소기업중앙회_'
'중소기업을_'
'중서부_'
'중산층'
'중등교'
'중등'
'중도_'
'중대_'
'중단한다'
'중단하라'
'중기청_'
'중기부_'
'중국은_'
'중국발_'
'중국과_'
'중구는_'
'중개사'
'준환'
'준비했다_'
'주효'
'주한미군'
'주파수'
'주택매'
'주춤'
'주차장_'
'주주환원_'
'주주가'
'주정'
'주저'
'주장을_'
'주자_'
'주인_'
'주유'
'주영'
'주역_'
'주식형펀드에서_'
'주식형펀드'
'주식시'
'주식매'
'주소'
'주민들에게'
'주무'
'주면'
'주말에'
'주들'
'주교'
'주관사'
'주공_'
'주거용_'
'주가조'
'주가등락폭은_'
'죄송'
'좋지_'
'좋아하'
'좋겠다'
'종속회사인_'
'종류'
'졸업_'
'족을_'
'조화'
'조한'
'조폭_'
'조폐'
'조치에_'
'조차'
'조정회의'
'조정실'
'조작한'
'조율'
'조성진_'
'조선호텔에'
'조선업_'
'조선소_'
'조상우'
'조사한'
'조무'
'조리법'
'조류_'
'조례'
'조대'
'조달청_'
'조6'
'졌지만_'
'져야_'
'젠트리피케이션'
'젠텍'
'제한하'
'제한적'
'제품에_'
'제테르손'
'제출했'
'제쳤다_'
'제천시_'
'제지_'
'제지'
'제주포럼'
'제주에'
'제주신'
'제주서'
'제주공항'
'제조설비_'
'제재를_'
'제일홀딩스'
'제의'
'제약회사_'
'제약업계_'
'제약사_'
'제약사'
'제안을_'
'제빵기사'
'제목'
'제도가_'
'제대'
'제네시스'
'제기된'
'제73'
'제6차_'
'제5기_'
'제3자_'
'제39회_'
'제38회_'
'제2여객터미널_'
'제2공'
'제2_'
'제25'
'제19회_'
'제13'
'정황'
'정형'
'정품'
'정치개혁특'
'정취'
'정책회의'
'정책제안'
'정책자금_'
'정책이_'
'정책으로'
'정책연구원'
'정책과'
'정정용'
'정작_'
'정일'
'정의당'
'정읍시'
'정은'
'정유라'
'정우택_'
'정에_'
'정신적_'
'정신병원'
'정시_'
'정선_'
'정상화'
'정상제이엘에스'
'정상에'
'정부포상_'
'정부세종청사에서_'
'정부를_'
'정부로부터_'
'정보화'
'정보통신기술'
'정보통신_'
'정보보안_'
'정보기술'
'정박'
'정무수석_'
'정몽구'
'정당_'
'정기총회'
'정기적금_'
'정규직으로_'
'정권교체'
'정국'
'정경'
'정갑윤_'
'젓'
'접전'
'접어'
'접수한다'
'접목한_'
'접목_'
'접견실에서_'
'점차_'
'점진적'
'점유율'
'점수_'
'점과_'
'점검회의'
'점검하는_'
'절차에_'
'절실'
'절상'
'절반'
'절단'
'절기_'
'전환한'
'전환가액'
'전폭적'
'전통시장'
'전통문화'
'전철_'
'전집_'
'전지훈련'
'전제'
'전자투표'
'전원회의'
'전용면적'
'전시실'
'전시상품'
'전시관'
'전술핵'
'전수조사_'
'전수_'
'전수'
'전송'
'전사자_'
'전북현대'
'전북은'
'전북대_'
'전부터_'
'전부'
'전복'
'전방위_'
'전방_'
'전반적'
'전반기_'
'전문인'
'전문대학'
'전문관'
'전망을_'
'전망은_'
'전량'
'전략이'
'전략사'
'전당에'
'전년동월'
'전남지'
'전까지_'
'전기차용_'
'전기자동차_'
'전국체전_'
'전국장애학생체육대회_'
'전국에서_'
'전국시'
'전국대회'
'전광'
'전경'
'전개한다'
'적정한_'
'적응'
'적용되'
'적십자_'
'적십자'
'적시타를_'
'적시'
'적성'
'적도'
'적기'
'저항'
'저커버그'
'저장장치_'
'저우'
'저수'
'저는_'
'저감조치_'
'쟁점_'
'재훈_'
'재회'
'재확인_'
'재협상_'
'재해보'
'재판을_'
'재판관'
'재테크_'
'재직'
'재조명_'
'재욱'
'재영'
'재에'
'재소'
'재선임_'
'재생에'
'재산세_'
'재벌_'
'재발_'
'재미있'
'재무구조_'
'재단에_'
'재난관리'
'재고_'
'재검토_'
'재개발_'
'재개될'
'장흥'
'장항'
'장진'
'장점'
'장에'
'장애인체육회'
'장애인복지'
'장수군_'
'장소'
'장선'
'장사_'
'장부'
'장맛비'
'장기화'
'장교'
'장관회의'
'장관상을_'
'잡이_'
'잡는_'
'잡기에_'
'잠자는_'
'잘한다'
'잔치_'
'작업을_'
'작별'
'자회사에'
'자카'
'자치권'
'자진사퇴'
'자율주행'
'자유한국당'
'자위'
'자원봉사센터'
'자외선_'
'자올'
'자연발효'
'자신감을_'
'자선_'
'자생'
'자산운용의_'
'자산신탁'
'자백'
'자발'
'자문회의_'
'자문위원회'
'자료에'
'자동차세_'
'자동차보험'
'자동으로_'
'자기주식취득_'
'자기주'
'자기_'
'자극'
'자격정지'
'잊지_'
'잉크젯_'
'잉글랜드_'
'있다면_'
'있다며_'
'있는'
'잇따른_'
'입찰을_'
'입찰에_'
'입장하고_'
'입원'
'입성_'
'입사'
'입당_'
'입건된_'
'임효준_'
'임찬규'
'임정'
'임의'
'임은'
'임원인사'
'임원들'
'임에'
'임실'
'임산'
'임명하'
'임명동의'
'임금을_'
'일회'
'일하기'
'일하'
'일체형_'
'일찍'
'일지'
'일주일_'
'일정이_'
'일정을_'
'일이'
'일의_'
'일으키'
'일원_'
'일왕_'
'일시'
'일손_'
'일손'
'일성'
'일본이'
'일본대'
'일본군'
'일반고_'
'일반고'
'일리'
'일룸'
'일렉트릭'
'일대에_'
'일당이_'
'일단_'
'일감_'
'인형_'
'인협'
'인트로메딕'
'인테'
'인턴십_'
'인턴'
'인천지'
'인증기관'
'인제군_'
'인정했다_'
'인적자원개발'
'인자'
'인용해_'
'인신'
'인수했다고_'
'인수전'
'인성'
'인상한다'
'인삼공사'
'인사이트'
'인사동_'
'인보'
'인더'
'인다_'
'인기몰이_'
'인권침해_'
'인구정책_'
'인과'
'익산시'
'이희호_'
'이희'
'이하로_'
'이펙트_'
'이코노'
'이카'
'이춘재_'
'이청'
'이천시'
'이즈_'
'이중_'
'이주_'
'이정후'
'이정현_'
'이전에_'
'이재정_'
'이재성'
'이익이_'
'이익을_'
'이유가_'
'이월'
'이우찬'
'이영하'
'이영선_'
'이영규'
'이엘'
'이엔티'
'이에스'
'이양'
'이야기를_'
'이야'
'이슬람'
'이슬_'
'이스트'
'이석채_'
'이상호'
'이상은_'
'이상으로_'
'이산가족_'
'이사직'
'이비스_'
'이브'
'이베이'
'이민아'
'이마트24'
'이뤘다_'
'이뤄질'
'이뤄진_'
'이력'
'이렇'
'이러'
'이디야커피'
'이디야_'
'이들이_'
'이들을_'
'이들_'
'이동섭_'
'이동국_'
'이더리'
'이대목동병원'
'이달'
'이닝'
'이노비즈'
'이날'
'이그'
'이건희_'
'이같은_'
'의회는_'
'의정부_'
'의전'
'의실에'
'의식_'
'의를_'
'의료진'
'의료지'
'의료정보'
'의료재'
'의료비'
'의대'
'의결했다_'
'의결권'
'음악회를_'
'은행에_'
'은행들'
'은폐_'
'은평구_'
'은퇴식_'
'윤장현_'
'윤리위'
'육아휴직_'
'육상_'
'유희관'
'유흥비_'
'유화증권'
'유화'
'유플'
'유튜버'
'유통업체_'
'유채꽃'
'유찰'
'유진투자증권은_'
'유진테크'
'유지하고_'
'유증_'
'유전자'
'유적지'
'유일호_'
'유의_'
'유용_'
'유예_'
'유예'
'유연'
'유엔총회_'
'유시민_'
'유스_'
'유소년'
'유성엽_'
'유성구'
'유선'
'유상호_'
'유물_'
'유물'
'유로파'
'유로존'
'유로_'
'유럽의'
'유도하'
'유니테스트는_'
'유나이티드가_'
'유나이티드_'
'유나이트_'
'윌슨'
'윈도'
'위험도_'
'위의_'
'위원회에서_'
'위안으로_'
'위브_'
'위메이드_'
'위로'
'위닉스'
'위기를_'
'위기관리_'
'웹젠'
'웹소설_'
'웰스'
'웰니스'
'웨이브'
'웨스틴'
'월드컵에'
'월드컵경기장에서_'
'월드컵'
'원한다'
'원천_'
'원천'
'원장과_'
'원인이_'
'원스톱'
'원스토어'
'원사'
'원복지'
'원리금_'
'원동'
'원도'
'원달러'
'원내대표는_'
'원내대책회의에'
'원광'
'워킹'
'워크숍'
'워크샵'
'웃고_'
'움이_'
'울프'
'울상'
'울산에_'
'울산시설공단'
'울산농수산물도매시장_'
'울릉도_'
'운정'
'운재'
'운임'
'운영할_'
'운영위원회'
'운영위원'
'운영사'
'운영된'
'운영대'
'운송사업'
'운세'
'운동화'
'운동장_'
'운동가'
'운다_'
'우호'
'우편'
'우크라'
'우천으로_'
'우유'
'우월'
'우완'
'우왁굳'
'우승자'
'우수상'
'우수사례'
'우수기관'
'우수기'
'우선협상대상자로_'
'우선협상대상자_'
'우선'
'우미'
'우리에게_'
'우리를_'
'우리기술투자'
'우레'
'용컵'
'용이'
'용의자가_'
'용의자'
'용의'
'용산_'
'욕설_'
'요청한'
'요즘_'
'요소'
'요구했습니다_'
'요구했다'
'요가'
'왼쪽'
'외환시장'
'외환보유액_'
'외화예'
'외형성장'
'외출'
'외에'
'외국인투자'
'외국인근로자_'
'외교위'
'외교부'
'외교관'
'외곽'
'외고_'
'왕자'
'왕복_'
'왔던_'
'완패'
'완승'
'완성차_'
'완벽'
'와이지'
'와이비엠넷'
'와이번스_'
'와이드앵글_'
'옹진'
'올스타_'
'올림픽파크'
'올린다'
'올렸'
'올레_'
'올들어_'
'올드'
'온라인에서_'
'온라인4'
'온도'
'옥정'
'옥상_'
'오토바이_'
'오케스트라'
'오찬에'
'오지환'
'오전까지'
'오작'
'오인표'
'오스템'
'오송'
'오션_'
'오성'
'오비'
'오바마'
'오메가3'
'오리엔테이션'
'오름세_'
'오름_'
'오름'
'오른'
'예탁금'
'예외'
'예술단_'
'예상했다_'
'예상된다'
'예배'
'예방에'
'예림'
'예년'
'영향에'
'영향력'
'영주_'
'영종'
'영자'
'영입했다고_'
'영입하며_'
'영은_'
'영월'
'영우디에스피_'
'영역'
'영업점_'
'영업실적'
'영어'
'영암군_'
'영수'
'영석_'
'영서'
'영산'
'영남_'
'영과_'
'영감'
'염기훈'
'열전'
'열었'
'열쇠'
'열병_'
'열리'
'열렸다'
'연회'
'연초_'
'연천군'
'연찬회'
'연장하'
'연임에_'
'연임'
'연승'
'연습경기'
'연습_'
'연수구'
'연쇄살인'
'연속골_'
'연세'
'연석회의'
'연방준비제도'
'연말정산_'
'연료_'
'연료'
'연금복권'
'연구진'
'연구소장'
'연계해'
'역지'
'역외탈세'
'역에_'
'역사에'
'역기'
'역과_'
'여행상품_'
'여행객들'
'여중'
'여정_'
'여자프로농구_'
'여자프로골프'
'여자아'
'여유'
'여신금융'
'여신_'
'여수시'
'여성리더'
'여부에_'
'여부가_'
'여러'
'여드름'
'여는_'
'여권_'
'여군'
'여고생'
'여객기'
'여객'
'엘리베이터'
'엘라'
'엔케이맥스'
'엔지니어'
'엔지'
'엔씨_'
'엔시'
'엔대_'
'에티오피아_'
'에타'
'에콰도르_'
'에코_'
'에잇'
'에이지_'
'에이에스'
'에이블씨엔씨_'
'에어컨'
'에어부산_'
'에쓰오일'
'에스원'
'에스엘'
'에스엔'
'에스에프에이_'
'에스마크'
'에미'
'에르_'
'에듀윌_'
'에너지기'
'엇갈린_'
'없이도_'
'없음_'
'없었다'
'없었'
'업체의_'
'업체를_'
'업이_'
'업그레이드'
'얼음'
'얻었다_'
'얻'
'언제_'
'언제'
'언론인_'
'언급한_'
'언급하'
'억원이_'
'억원'
'억류'
'억달러'
'어코'
'어졌'
'어서_'
'어버이'
'어바웃'
'어려워'
'어려움을_'
'어때_'
'어니'
'어가_'
'양현종'
'양천'
'양이'
'양의지_'
'양의'
'양영'
'양심적_'
'양수도'
'양수_'
'양성사업'
'양방향_'
'양극화'
'양강'
'약세에_'
'야영장'
'야구대회_'
'야구단_'
'앤디'
'액의_'
'액상형_'
'애틀'
'애인'
'애들'
'애니메'
'애국가'
'애경그룹'
'앗'
'압력_'
'압도적_'
'압도적'
'암환자'
'암치료'
'암사'
'알티'
'알몸'
'알린'
'알루미늄_'
'알렸다'
'알려졌습니다_'
'알레르기'
'않아도_'
'않겠다고_'
'안트로젠'
'안전에_'
'안전도'
'안전교육'
'안전공사_'
'안전공'
'안으로_'
'안심_'
'안보실장'
'안병훈'
'안된다'
'안과_'
'안개_'
'악산_'
'악기_'
'아프리카TV'
'아파트에'
'아파트값이_'
'아티스트_'
'아트홀'
'아찔한_'
'아직도_'
'아주대_'
'아이폰X'
'아이폰8'
'아이파크'
'아이엘사이언스'
'아이씨디'
'아이슬란드'
'아이나비'
'아의_'
'아워'
'아야'
'아시아나_'
'아세아'
'아미'
'아무'
'아모레'
'아메리카'
'아리_'
'아래로_'
'아들이_'
'아동학대_'
'아동에게_'
'아니었'
'아가방앤컴퍼니_'
'씹'
'씩을_'
'씨케이_'
'씨엠'
'씨에게'
'씌'
'쓸'
'쑥_'
'쏜다_'
'쏘카_'
'썸머_'
'썸_'
'썩'
'싸게_'
'싶어_'
'싱가포르에'
'십을_'
'심할'
'심판위원'
'심판에'
'심천'
'실질심사_'
'실전_'
'실적에_'
'실업자'
'실시하는_'
'실습'
'실사_'
'실무회담'
'실내_'
'실검'
'실거래'
'신축공사'
'신청했다_'
'신청하'
'신청자'
'신청서를_'
'신청서_'
'신차'
'신재영_'
'신인상_'
'신이'
'신의_'
'신용보증재단'
'신용거래융자'
'신영증권_'
'신영증권'
'신에_'
'신약개발_'
'신약개발'
'신안군'
'신세계인터'
'신세계면세점_'
'신세계TV쇼핑'
'신분으로_'
'신분_'
'신분'
'신반포'
'신라젠_'
'신라대'
'신동욱_'
'신도'
'신년사_'
'신기록'
'신규취항_'
'신공'
'신고했'
'신고하'
'신경전_'
'신개념_'
'식품의약품안전처'
'식초'
'식중독_'
'식음'
'식은_'
'시황변동_'
'시험장_'
'시험을_'
'시험운행'
'시험대에_'
'시트로엥'
'시키'
'시청률_'
'시찰_'
'시즌에'
'시즈'
'시정연설_'
'시장진'
'시장으로_'
'시작해'
'시작을_'
'시일'
'시위대'
'시어'
'시야'
'시신을_'
'시신'
'시스템과'
'시설관리공단'
'시선'
'시상식을_'
'시범운'
'시민단체'
'시뮬레이'
'시마'
'시디'
'시대에_'
'시니'
'시노'
'시급'
'시계'
'시간당_'
'시가'
'승차권'
'승조'
'승인했다'
'승에'
'승부수_'
'승마'
'승리로_'
'승리는_'
'승객'
'슬림'
'슬리'
'슬라이'
'슬금'
'스플'
'스프링캠프_'
'스프링_'
'스팸'
'스팀_'
'스티븐_'
'스트리트_'
'스튜디오드래곤'
'스톱_'
'스톰_'
'스템'
'스터디'
'스탄_'
'스타즈'
'스타일링_'
'스타디움에서_'
'스크'
'스카이스포츠'
'스카이문'
'스위치_'
'스웨'
'스와프'
'스에서_'
'스시티'
'스마일게이트'
'스로_'
'스낵'
'슈피겐'
'슈퍼마켓'
'쉴'
'숯'
'순천대'
'순창_'
'순조'
'순유출됐다_'
'순유출'
'순유입됐다_'
'순위로_'
'순매수했다_'
'순매도'
'순례'
'수훈'
'수형'
'수험생들'
'수출하'
'수출증'
'수출을_'
'수출상담회'
'수출계약'
'수천만_'
'수채'
'수집_'
'수지_'
'수준인'
'수정_'
'수인'
'수익금_'
'수원FC_'
'수영대회_'
'수여하는_'
'수여하'
'수에_'
'수시모집_'
'수술을_'
'수수료율'
'수송대책'
'수선'
'수석보좌관회의'
'수석대'
'수색에_'
'수상의_'
'수산식품'
'수사해'
'수사팀'
'수사로_'
'수사결과'
'수목원_'
'수목원'
'수면_'
'수료식'
'수도권은_'
'수급자'
'수감_'
'쇼호스트'
'솥'
'송편_'
'송어'
'송성'
'송광'
'손해보험_'
'손에'
'손석희'
'손상_'
'손가'
'속초시_'
'속에서'
'소회'
'소행_'
'소프트는_'
'소포'
'소통하'
'소집_'
'소외계층'
'소송에서_'
'소속팀'
'소설가'
'소방헬기_'
'소방공무원'
'소명_'
'소득자'
'소동이_'
'소다'
'소기'
'소개하는_'
'소개하고_'
'소감'
'셰프_'
'셰프'
'셧다운'
'셜'
'셔틀'
'셀트리온헬스케어'
'셀렉트'
'센트'
'센터에_'
'세훈_'
'세터'
'세탁기'
'세탁'
'세제개'
'세제'
'세인트루'
'세운_'
'세스코_'
'세력_'
'세다'
'세기_'
'세금을_'
'세계자연'
'세계인명'
'세계에_'
'세계수'
'세계선수권_'
'세계선수권'
'세계문화유산_'
'세계문화'
'성형'
'성평등_'
'성추'
'성주_'
'성전'
'성의_'
'성원'
'성에_'
'성숙'
'성산'
'성사'
'성명서'
'성동구청'
'성관계_'
'성과에_'
'성공적인_'
'성공시'
'설치했다'
'설치한다'
'설이_'
'설연휴_'
'설문조사'
'설명회'
'설명이'
'설명을_'
'설날'
'설계사_'
'선호도'
'선행'
'선포식'
'선제_'
'선정되었다'
'선은_'
'선으로'
'선언하는_'
'선수에_'
'선서'
'선보일_'
'선보였다고_'
'선발투수'
'선발대'
'선물을_'
'선두타자_'
'선도하'
'선고했다_'
'선거인'
'선거에_'
'선거비'
'석의_'
'석달'
'서희건설'
'서호전기'
'서해안고속도로'
'서포'
'서청'
'서쪽'
'서적'
'서울지하철'
'서울지방'
'서울중앙지법_'
'서울중앙지방법원에'
'서울중앙지검_'
'서울우유'
'서울시의회_'
'서울시의_'
'서울시민'
'서울성모병원'
'서울리'
'서울경'
'서영'
'서에_'
'서양'
'서비스와_'
'서비스에_'
'서비스업'
'서비스센터'
'서비스는_'
'서부발전'
'서바이벌_'
'서명운동'
'서남대'
'서관_'
'서경배'
'서거'
'섀도우버스'
'샷을_'
'샵'
'샤이'
'샤_'
'생활체'
'생활비'
'생태계'
'생체인'
'생존자'
'생생'
'생산한'
'생산적_'
'생산성_'
'생산라인'
'생명이'
'생명과학은_'
'생명과학_'
'샘물'
'샌프란시스코_'
'샌드'
'새해'
'새벽'
'새마을금고중앙회'
'새단장'
'새누리당'
'상현'
'상향했다'
'상향조정'
'상해'
'상하이지수_'
'상품권'
'상태가_'
'상정'
'상장지수펀드'
'상장적격성_'
'상임위원'
'상은_'
'상원의'
'상용화'
'상에서_'
'상암동_'
'상승폭_'
'상습'
'상수도_'
'상수도'
'상봉'
'상복'
'상반기까지_'
'상무가_'
'상륙_'
'상대는_'
'상담회_'
'삽_'
'삼호'
'삼영엠텍'
'삼성카드_'
'삼성증권은_'
'삼성엔지니어링'
'삼성重_'
'삼부토건_'
'삼다수'
'삼국지_'
'삼계탕'
'삼각'
'살해하고_'
'살피는_'
'살피'
'살펴보는_'
'살펴보'
'살펴'
'살리기_'
'살렸'
'살균제_'
'살균'
'산업혁명의_'
'산업혁명을_'
'산업진흥원_'
'산업전_'
'산업을_'
'산업연구원'
'산업단지'
'산업기'
'산성'
'산란계'
'산동'
'산국립공원'
'삭제_'
'사회적경제기업_'
'사회적경제'
'사회적'
'사회복지공동모금회에_'
'사회복지공동모금회'
'사협회_'
'사항을_'
'사학연금_'
'사파'
'사체_'
'사주'
'사장의_'
'사자'
'사이버대'
'사운드_'
'사우스'
'사용료_'
'사용되'
'사옥에'
'사연_'
'사업인_'
'사업소'
'사업기'
'사실무근_'
'사생활'
'사살_'
'사사'
'사무처장'
'사무용'
'사망하'
'사랑하'
'사랑나눔재단'
'사람들이_'
'사들이_'
'사내이사_'
'사나'
'사구'
'사교육비'
'사관학교'
'사관'
'사계절_'
'사격_'
'사1'
'뿔'
'뿐'
'뿌리산업'
'빼앗'
'빼돌'
'빨라지고_'
'빨라_'
'빨'
'빠져나'
'빛낸_'
'빛가람'
'빚어'
'빌미'
'빌리지'
'빈소_'
'빈소'
'비행하'
'비판에_'
'비타_'
'비타'
'비츠'
'비축'
'비즈_'
'비자_'
'비자'
'비싸'
'비서관에'
'비상대책'
'비상근무'
'비비고_'
'비디오판'
'비나'
'비극'
'비과세_'
'비결은_'
'비건_'
'블룸버그'
'블랙박스'
'브이원텍'
'브스'
'브릿지'
'브리핑'
'브레이크'
'브라질에'
'뷰'
'뷔'
'붙이는_'
'불황에'
'불이'
'불에_'
'불어_'
'불성실공시법인_'
'불성실'
'불복_'
'불법조업'
'불명_'
'불량'
'불닭볶음면_'
'불기소_'
'불교_'
'불교'
'불고'
'분주'
'분이'
'분을_'
'분양할_'
'분양가'
'분야에'
'분석해'
'분류'
'분뇨_'
'분노_'
'북한인'
'북한산_'
'북한과_'
'북적_'
'북상'
'북미정상'
'북면'
'북구는_'
'부회장은_'
'부활절_'
'부품업체'
'부패_'
'부티'
'부천시'
'부정수'
'부전'
'부장에'
'부자_'
'부자'
'부인과'
'부의_'
'부에_'
'부에'
'부시'
'부속'
'부산항에'
'부산중'
'부산은_'
'부산연'
'부산시민'
'부산발'
'부산광역시'
'부산경남'
'부모에'
'부로_'
'부담이_'
'부담을_'
'부근_'
'부과하'
'봉주_'
'볼턴_'
'볼빅'
'볼보_'
'볼리비아'
'볼넷으로_'
'본회의장에서_'
'본청'
'본인부담'
'복싱'
'복식'
'복귀했다_'
'보험금을_'
'보트_'
'보증을_'
'보조_'
'보자_'
'보일러'
'보이겠다_'
'보이_'
'보유액'
'보였다'
'보여드'
'보에'
'보상선수'
'보물_'
'보문'
'보디'
'보내는_'
'보궐선'
'보고서에'
'보가_'
'병을_'
'병원이'
'병역거부'
'병역_'
'병력'
'변형'
'변신한'
'변경한다고_'
'벽걸이_'
'벼베기'
'벼랑'
'벼락'
'벨트_'
'벨로'
'벤큐'
'벤처캐피'
'베어_'
'베드'
'베니'
'법인을_'
'법원행정처'
'법사'
'법률_'
'법령'
'범죄예방'
'범인'
'범이_'
'범국민'
'벌레'
'번호판_'
'번째'
'번즈'
'번이'
'버티'
'버추얼텍'
'버드'
'버그'
'버거_'
'뱅킹'
'밸브'
'백이'
'백악관이_'
'백사'
'백만'
'배후수요_'
'배포한'
'배틀_'
'배출가스'
'배추_'
'배제_'
'배임'
'배에_'
'배상책임'
'배분'
'배달의민족'
'배기'
'배구단'
'배관'
'배경_'
'배가'
'방콕'
'방출'
'방지하'
'방제_'
'방위사업'
'방에_'
'방송이_'
'방사능'
'방북_'
'방배'
'방문하고_'
'방류'
'방과후'
'밤에_'
'밝혀지'
'발표했'
'발주_'
'발전협의회'
'발전에_'
'발전설비'
'발전사업_'
'발언으로_'
'발병_'
'발병'
'발목'
'발렌'
'발레리'
'발레'
'발동'
'발달장애인'
'발굴하'
'발견됐습니다_'
'발걸음'
'반환_'
'반환'
'반영하'
'반박_'
'반문'
'반려견_'
'반려견'
'반등에'
'반도체업'
'반기_'
'밖으로_'
'박현주'
'박하'
'박차를_'
'박지수_'
'박정호_'
'박용'
'박수현_'
'박성진_'
'박병호와_'
'박람회를_'
'박근혜'
'박광'
'바텐더_'
'바퀴_'
'바자회_'
'바이크'
'바이오헬스'
'바이오벤처'
'바이오기'
'바이에른_'
'바이어'
'바이러스가_'
'바바'
'바람직'
'바디프랜드_'
'바둑리그_'
'바다의'
'바꾼_'
'바가'
'밀집'
'민주화_'
'민주평화'
'민주노총'
'민을_'
'민선'
'민사소송'
'민갑룡_'
'민감'
'미화원'
'미칠'
'미친'
'미정'
'미자'
'미식'
'미성년'
'미사강변'
'미분양관리지역'
'미분양_'
'미리_'
'미르의_'
'미러'
'미래에셋박현주재단_'
'미래기'
'미디어센터'
'미달'
'미네'
'미국발_'
'므로_'
'뭔가'
'뭉쳐'
'물질이_'
'물재생센터'
'물자'
'물의_'
'물류기업'
'물량이_'
'물들'
'물결'
'물가지수'
'묻지마_'
'문화회관_'
'문화체육관광부'
'문화의_'
'문화교'
'문화공간'
'문화계_'
'문화가_'
'문제와_'
'문재인정부'
'문서_'
'문대'
'문규영_'
'묵념하'
'묵_'
'무원'
'무역흑자'
'무역전쟁'
'무상증자_'
'무상급식'
'무부_'
'무보'
'무를_'
'무력화'
'무더기로_'
'무대에_'
'무능'
'무너져_'
'무기계약직'
'무게'
'묘역_'
'몸을_'
'몰수'
'몰린_'
'몰렸다_'
'목표가'
'목포신항'
'목원대'
'목욕탕'
'목에'
'목소리'
'목록'
'모형'
'모터스_'
'모집을_'
'모임을_'
'모인'
'모의고사_'
'모은_'
'모였'
'모어_'
'모씨'
'모습이다_'
'모색하'
'모색'
'모멘텀'
'모레'
'모두의'
'모두를_'
'모두가_'
'모델은_'
'모니터'
'명칭'
'명중'
'명인'
'명단을_'
'면세점이_'
'멜론'
'메틱'
'메트라이프'
'메카_'
'메이드_'
'메쉬코리아'
'메르스_'
'메라'
'메딕스'
'메디포스트'
'메디컬_'
'메디칼'
'메드_'
'메드'
'메니'
'메뉴에'
'메뉴로_'
'멈'
'멀다_'
'먼지_'
'먹거리'
'맺은_'
'맹비난'
'매트_'
'매칭'
'매장에서_'
'매일유업_'
'매수우'
'매물_'
'매력'
'매거진_'
'매각에_'
'맡는'
'맡긴'
'맞으'
'맞대결'
'맞게_'
'망친'
'맛보'
'맑겠'
'말해'
'만화_'
'만취_'
'만주'
'만들자_'
'만들고_'
'만났다_'
'만남의_'
'만난'
'만나다_'
'만6'
'만5'
'막은_'
'막바지_'
'막는'
'마트'
'마크로젠'
'마크'
'마카오_'
'마쳐_'
'마차_'
'마주'
'마저_'
'마장_'
'마이클_'
'마이크'
'마이스터'
'마음으로_'
'마운드'
'마우스'
'마시고_'
'마세'
'마사회'
'마비_'
'마리오아울렛'
'마를_'
'마련했다고_'
'마련했'
'마련해'
'마련에'
'마련된다_'
'마닐라'
'마늘_'
'릴리'
'리포트_'
'리퍼'
'리케'
'리커창_'
'리치'
'리조트에서_'
'리자'
'리와_'
'리스트'
'리서치_'
'리뷰_'
'리베이트'
'리바운드_'
'리모델링'
'리라'
'리드'
'리더'
'리대'
'리나_'
'르펜'
'르도'
'르노삼성자동차'
'르노_'
'륜'
'룹'
'룰'
'룩'
'루비'
'루브'
'룡산'
'료가_'
'롯데하이마트'
'롯데지주_'
'롯데시네마'
'롯데슈퍼_'
'롯데쇼핑_'
'롯데리아'
'롯데는_'
'롯'
'롭다'
'론칭한다고_'
'론이_'
'론과_'
'로테이션'
'로타'
'로시'
'로사리오_'
'로비에서_'
'로비'
'로보어드바이저_'
'로레알'
'로도_'
'로그_'
'려진_'
'렛츠런'
'렉서스_'
'레이트'
'레이터'
'레이크_'
'레이크'
'레이스'
'레이드_'
'레오'
'레어'
'레시피'
'레라_'
'레노'
'렁'
'럿'
'럴_'
'러지_'
'량을_'
'랜드로버'
'랜드는_'
'래프'
'란드'
'란다'
'락하'
'락앤락_'
'라인업에서_'
'라이즈_'
'라이스_'
'라이벌'
'라운드테이블_'
'라오스_'
'라비'
'라건아'
'뜯어'
'뜨겁'
'뛰고_'
'또'
'떼_'
'떠났'
'떠나_'
'따복'
'따르'
'딧_'
'디지털금융'
'디젤_'
'디움'
'디앤'
'디안_'
'디스크'
'디스_'
'디는_'
'등학'
'등판해_'
'등판한다'
'등장'
'등산'
'등록된'
'들어선_'
'들썩'
'듣'
'든든한_'
'드에_'
'드릴'
'드리는_'
'드래곤플라이'
'듈'
'듀티_'
'듀오_'
'듀_'
'뒷받침'
'뒤에_'
'뒤에'
'둥지_'
'두테르테_'
'두에'
'두산건설_'
'두루'
'두로_'
'두드러'
'두대'
'두근'
'되찾'
'되었다'
'되도록_'
'됐으'
'동화약품'
'동화'
'동행복권'
'동포_'
'동작_'
'동을_'
'동욱'
'동우'
'동양대'
'동아전'
'동아엘텍'
'동아시아_'
'동신'
'동성애_'
'동서발전_'
'동상'
'동부산'
'동명'
'동료들'
'동두천'
'동기比_'
'동국대'
'동과'
'동강'
'돌진_'
'돌이'
'돌연변이_'
'돌연_'
'돋보'
'독특한_'
'독서_'
'도쿄올림픽'
'도청'
'도주_'
'도종환_'
'도전한'
'도입했'
'도입할_'
'도이치'
'도움을_'
'도움'
'도우미'
'도요타_'
'도심에서'
'도심공항터미널'
'도시재생사업'
'도시에서_'
'도시락'
'도사'
'도미'
'도매시장'
'도로를_'
'도로교통공단'
'도레'
'도농'
'도날드'
'덴_'
'덱스'
'데이터센터_'
'데이즈'
'데이션'
'데르'
'데드_'
'덥'
'던졌다_'
'던졌'
'덕여'
'덕에'
'덕성'
'더플'
'더욱이_'
'더라_'
'댓글'
'대회에_'
'대해서도_'
'대해'
'대항'
'대한해운_'
'대한체육회'
'대한적십자'
'대학의_'
'대학은_'
'대학에'
'대학들'
'대학교가_'
'대피하는_'
'대표팀에_'
'대표적'
'대표연설_'
'대통령선거_'
'대통령상_'
'대통령기'
'대테러'
'대타로_'
'대출이_'
'대출규제'
'대체투자'
'대책회의에서_'
'대책특위'
'대책본부_'
'대창'
'대중교통'
'대중'
'대주'
'대정부질문_'
'대정'
'대접'
'대전형_'
'대전시장_'
'대전교육'
'대입_'
'대이'
'대응할_'
'대응하기_'
'대웅'
'대우건설은_'
'대용량'
'대신증권은_'
'대사를_'
'대북특사'
'대북제재_'
'대부업'
'대부_'
'대법관_'
'대박_'
'대면조사_'
'대면조사'
'대리점_'
'대리인'
'대령'
'대란_'
'대덕전자_'
'대대적_'
'대구에서'
'대구시장_'
'대구도시'
'대구FC'
'대결'
'당첨_'
'당정협의'
'당정청_'
'당장_'
'당연한_'
'당산'
'당부_'
'당뇨병_'
'답했다_'
'답변하고_'
'답답'
'담았'
'담보제공_'
'담보대출_'
'닭_'
'달했다'
'달성하'
'달성군_'
'달린다_'
'달린_'
'달리던_'
'달리기'
'달려'
'달러화_'
'달라진_'
'달라졌'
'단행했다_'
'단체장_'
'단체들이_'
'단체들'
'단지로_'
'단절'
'단일팀'
'단의_'
'단원고'
'단에_'
'단양'
'단말'
'단독판'
'단기금융'
'단교'
'다카'
'다채'
'다지'
'다주택자'
'다이아몬드'
'다음주'
'다운로드'
'다수_'
'다세대_'
'다산신도시'
'다산네트웍스_'
'다변화_'
'다문화가족_'
'다드_'
'다가왔'
'다가온_'
'닛산'
'닌'
'닉'
'니혼'
'니티'
'니트'
'니아'
'니드'
'능률협회컨설팅'
'능력시험_'
'능_'
'늘어났다_'
'늘어난다'
'늘렸다_'
'늘_'
'느끼는_'
'뉴프'
'뉴타운_'
'뉴욕에'
'뉴스를_'
'눌'
'눈빛'
'눈물을_'
'눈물'
'누출_'
'누적매출'
'누수'
'누락'
'높일_'
'높인'
'높이는_'
'높이고_'
'농협금융_'
'농장에서_'
'농업기술'
'농어촌공사_'
'농수산식품'
'농수산'
'농림축산'
'농도_'
'농기계'
'논의했다_'
'논의가_'
'논문상'
'녹화'
'노후주택'
'노하'
'노트8_'
'노트10'
'노출_'
'노총'
'노조원'
'노정'
'노위_'
'노사가_'
'노부'
'노벨'
'노믹스'
'노르웨이'
'노려_'
'노란우산공제_'
'노란'
'념_'
'년째_'
'넷마블게임즈'
'넷게임즈'
'넵'
'넥슨컴퓨터박물관_'
'네트워크를_'
'네트'
'네즈'
'넘치'
'넘어지'
'넘버'
'넘겨_'
'넘겨'
'널리_'
'널_'
'너지공'
'너지'
'너구리_'
'냈지만_'
'내줬'
'내주_'
'내용은_'
'내역'
'내수'
'내성'
'내면'
'내며_'
'내년에'
'내년까지_'
'낮춘다'
'낭독'
'납품_'
'납부'
'남원'
'남용_'
'남양주시'
'남양주'
'남아있'
'남북교류협력'
'남북관계_'
'남부지'
'남녀'
'남구청장'
'남광'
'날은_'
'날레_'
'난한_'
'난이'
'난민_'
'낙태'
'낙동강_'
'나폴리'
'나타내'
'나타난_'
'나이츠'
'나이언틱'
'나의_'
'나아가'
'나설_'
'나사'
'나머지_'
'나만'
'나들목'
'나다_'
'나노캠텍'
'낀'
'끝나지_'
'끝까지_'
'끌었'
'끄럽'
'꿈을_'
'꿈꾸는_'
'꾸준히_'
'꽃축제'
'꼼수_'
'꼴찌_'
'꼈'
'깨끗한나라'
'깨끗한_'
'깡'
'깝'
'까치'
'까닭'
'깊어지'
'김형준_'
'김한'
'김하성'
'김하늘'
'김포한강_'
'김포시'
'김태환_'
'김청'
'김진규'
'김제_'
'김정일_'
'김정은'
'김재영'
'김유'
'김원석'
'김용수_'
'김용범_'
'김영철_'
'김양'
'김신욱_'
'김승기_'
'김수현'
'김성환_'
'김보'
'김병진_'
'김병수_'
'김민성'
'김광수_'
'김광석'
'김관영_'
'길에'
'길고양이'
'기획전_'
'기획단_'
'기탁'
'기준치'
'기준을_'
'기종'
'기전'
'기자들과'
'기업은_'
'기업들_'
'기업구조'
'기업공'
'기아자동차가_'
'기아자동차'
'기승을_'
'기술특례'
'기술지'
'기술의_'
'기술원'
'기술로_'
'기술대'
'기술개발'
'기숙사'
'기쁨을_'
'기뻐'
'기부금'
'기본권_'
'기무사'
'기리'
'기록하'
'기록이다_'
'기독교'
'기대한다_'
'기대치를_'
'기대치_'
'기대작_'
'기대된다_'
'기대되'
'기대감으로_'
'기대감'
'기념행사'
'기념촬영하는_'
'기념전_'
'기념식'
'기네스'
'기내_'
'기금운용'
'기관투자자'
'기공'
'기간별_'
'기각됐'
'긍정'
'긋'
'급성장'
'급변'
'급락했'
'급등했다_'
'급등세_'
'급격한_'
'금호산업_'
'금천구_'
'금증'
'금융포'
'금융의_'
'금융위'
'금융산업'
'금융사'
'금융보안원'
'금융당국이_'
'금융당국'
'금융교육_'
'금융공'
'금융거래_'
'금융감독원_'
'금성'
'금복'
'금메달을_'
'금리인'
'금리는_'
'금감원장'
'글을_'
'글라스_'
'근본적'
'근로복지공단_'
'근로_'
'근경'
'극찬_'
'극찬'
'극적'
'극장에서_'
'극우_'
'그치'
'그룹에_'
'그루'
'그랜저_'
'그랜드볼룸에서_'
'그래픽_'
'그래서_'
'그늘'
'균형발전사업'
'균형_'
'규탄'
'규어'
'규모에_'
'귀환'
'귀가'
'귀_'
'궐기'
'권인'
'권선택_'
'권력기관'
'권경'
'굴삭기'
'굳은_'
'군을_'
'군사훈련을_'
'군비'
'군복무'
'국회의원이_'
'국회의'
'국회를_'
'국토교통부가_'
'국토교통부'
'국채_'
'국제해'
'국제학'
'국제표준_'
'국제전'
'국제인'
'국제유가'
'국제사회의_'
'국제무'
'국제기구'
'국제공항'
'국정현안점검조정회의_'
'국정조사_'
'국인'
'국순당_'
'국세청장'
'국세'
'국산'
'국빈방'
'국보_'
'국민청원'
'국무부가_'
'국면'
'국립현'
'국립수산'
'국립서울현충원'
'국립_'
'국도'
'국내은행'
'국가인권위원회'
'국가안전대진단_'
'국가안전'
'국가안보실_'
'국가보훈처장'
'국가과학'
'구형했다_'
'구테'
'구축했다_'
'구축한다'
'구축하'
'구축사업_'
'구직자'
'구정'
'구의'
'구위'
'구속했'
'구속여부'
'구속됐습니다_'
'구성해_'
'구성하'
'구상_'
'구상'
'구본'
'구매한_'
'구매시'
'구단은_'
'구급대'
'교회에서_'
'교환장'
'교체됐다_'
'교차'
'교육청에'
'교육연'
'교육센터'
'교육사령'
'교육부와_'
'교육기관'
'교육국'
'교실'
'교수팀'
'교비'
'교보생명'
'교류협'
'괴롭'
'광화문광장에서_'
'광화문광장'
'광주시장'
'광주디자인비엔날레'
'광장에'
'광양항_'
'광양시'
'광복절'
'광명시'
'광고물_'
'관행'
'관절'
'관서_'
'관리할_'
'관리하'
'관리사_'
'관리를_'
'관람하'
'관광자원'
'관계자들'
'관계없'
'관계사'
'과학전'
'과태'
'과정에'
'과정서_'
'과자_'
'과이도_'
'과대'
'과기대_'
'공항에'
'공표'
'공채'
'공직_'
'공정성'
'공정무역'
'공장이_'
'공인_'
'공이'
'공유업체'
'공원서_'
'공연이_'
'공여_'
'공에_'
'공식적'
'공시가격'
'공세'
'공사현장'
'공사장'
'공사비'
'공법'
'공백'
'공모펀드'
'공모주_'
'공모사업'
'공룡_'
'공론화위_'
'공로상'
'공동주택'
'공동선'
'공기청정기'
'공급된다'
'공군참모총장'
'공구'
'공관병_'
'공공임대주택_'
'공공임대_'
'공공임대'
'공공기관에'
'공공건축'
'공격하는_'
'공격적'
'공개했다고_'
'공개된_'
'공간정보'
'공간이'
'곳서_'
'곳곳에서_'
'곰_'
'골프연습장'
'골에_'
'골로_'
'골드만삭스_'
'곡성군'
'곡동_'
'고통_'
'고통'
'고척돔'
'고지에_'
'고조되'
'고위험'
'고용하'
'고용지표'
'고영표'
'고양이_'
'고심_'
'고신대'
'고속철'
'고속버스'
'고성장_'
'고성능_'
'고부'
'고령층'
'고려해'
'고려한_'
'고도화_'
'고농도_'
'고공행진_'
'고객이_'
'고객과'
'고객감사_'
'고가'
'계획하'
'계정'
'계엄령_'
'계약했'
'계약이_'
'계약서_'
'계리'
'계기_'
'경호'
'경총_'
'경찰관에'
'경주시_'
'경제현안'
'경제지표_'
'경제부'
'경제대'
'경제관'
'경의'
'경영진_'
'경영진'
'경영시스템_'
'경연대회'
'경신'
'경상북도_'
'경상남도'
'경상_'
'경부고속도로_'
'경부'
'경민_'
'경례'
'경력직_'
'경력사원_'
'경남지'
'경남농협_'
'경기콘텐츠진흥원'
'경기지역'
'경기전망'
'경기북'
'경기도청'
'경기도와_'
'경기도교육'
'경기남'
'경기교육'
'결혼식'
'결항'
'결함'
'결제하'
'결제대금_'
'결정된다_'
'결정된_'
'결의대회_'
'결승전_'
'결승에_'
'결승골'
'결산_'
'결별_'
'결국'
'견하'
'겪는'
'격화'
'격을_'
'격상_'
'격려금'
'겨진'
'겠다'
'게재'
'게임이다_'
'게임이_'
'게임으로_'
'게임사'
'게이머'
'게스'
'것이라'
'것들'
'것도_'
'검토한_'
'검토하고_'
'검출된_'
'검출'
'검찰총장이_'
'검도'
'검거됐'
'검거'
'걷기'
'건축물'
'건조기'
'건수'
'건설의_'
'건설업자'
'건설공제조'
'건물이_'
'건국대_'
'건강증진'
'건강식품'
'건강강좌_'
'거친_'
'거취'
'거창군'
'거주하'
'거제시'
'거제'
'거절_'
'거장'
'거스'
'거수'
'갤럭시S'
'개화'
'개혁안'
'개혁보수신당_'
'개헌안_'
'개통한'
'개최해_'
'개최하기로_'
'개정법률안'
'개장했다'
'개인택'
'개인사업자'
'개월'
'개선될_'
'개선과'
'개발원_'
'개발사'
'개발됐다_'
'개미'
'개막한다_'
'개막식_'
'개량'
'개띠'
'개국'
'같았'
'갖춰_'
'갖추'
'갖는다'
'강화한다고_'
'강화하기_'
'강화하고_'
'강화하'
'강한'
'강풍'
'강조하는_'
'강제추행_'
'강제수'
'강제로_'
'강제동원_'
'강정'
'강의'
'강원미'
'강에'
'강민'
'강렬'
'강동구_'
'갓_'
'감자_'
'감은_'
'감원'
'감사패'
'감사의_'
'감사위원회'
'감독에_'
'감격의_'
'갈등을_'
'간에'
'간부가_'
'각지'
'각서_'
'가축질병'
'가짜_'
'가지로_'
'가족친화'
'가족사'
'가졌'
'가정용_'
'가입한_'
'가이드라인'
'가을야구_'
'가운_'
'가습기살균제'
'가스파'
'가스안전공사_'
'가속도_'
'가상_'
'가사도우미'
'가맹점주_'
'가르'
'가로챈_'
'가로수_'
'가량이'
'가든_'
'가득_'
'가능해'
'가능할까_'
'가능할_'
'가능하다'
'가나_'
'가격을_'
'가겠'
'가게_'
'車부품'
'與'
'美하원'
'美금'
'美국방'
'社_'
'發_'
'無_'
'法_'
'朴'
'新'
'愛'
'弗_'
'展_'
'安_'
'中企'
'㎝ '
'㎏ _'
'◇'
'▶'
'①'
'↓"_'
'↑""-_'
'…`_'
'”…‘_'
'”·'
'“'
'’···'
'···“_'
'···'
'·"_'
'with_'
'wi'
'un'
't으로_'
'te'
'td_'
'ss'
'pl'
'ne'
'nd'
'mm_'
'is'
'int'
'ing_'
'igh'
'iF_'
'he'
'fnDB_'
'fe'
'er'
'ce'
'ay_'
'ak'
'aT_'
'`…_'
'WF'
'VS_'
'VR게임_'
'VIP_'
'VC'
'UX'
'UCL_'
'UAE_'
'T모'
'TP'
'TI'
'TEX'
'TC_'
'TC'
'S는_'
'St'
'ST_'
'SSG닷컴'
'SPC삼립_'
'SP'
'SM_'
'SK플래닛'
'SK텔'
'SK케미칼'
'SK전_'
'SK에'
'SK바이오팜'
'SK디앤디_'
'SH공사_'
'SF'
'REA'
'RE'
'PGA'
'PE'
'PCA생명'
'PBR_'
'P2P_'
'OM'
'OIL'
'OCI'
'O2'
'NS홈쇼핑'
'NK_'
'NH농협금융_'
'NG_'
'NBA'
'MTS'
'MK'
'MINI_'
'MB_'
'LS전선_'
'LNG선_'
'LNG_'
'LNG'
'LE'
'LAD_'
'K리'
'KT의_'
'KT스카이라이프'
'KR'
'KLPGA'
'KD'
'KC그린홀딩스'
'KB증권'
'KB금융그룹'
'KB_'
'JYP'
'JL'
'IoT'
'IST'
'ICO'
'IBK기업'
'HO'
'HMC투자증권_'
'HDR'
'HDC신라'
'GN'
'GK'
'GH'
'GDP'
'GC녹십자_'
'GC녹십자'
'GB'
'GA_'
'FW'
'FT'
'FC안양_'
'FC서울'
'EU'
'ESS_'
'ESPN_'
'EL'
'EG'
'EBS_'
'DP'
'DMZ_'
'DH'
'DG'
'DF'
'DC_'
'DB금융투자'
'C에서_'
'CU'
'CT'
'CS_'
'CME'
'CJ푸드빌_'
'CJ대한통운'
'CF'
'B씨'
'B는_'
'Ba'
'BYC_'
'BU'
'BTS_'
'BNP'
'BC_'
'B2'
'A등급_'
'API_'
'AM'
'AK플라자_'
'AI가_'
'AIA'
'ADI'
'ABL'
'?” '
'9회'
'9조원_'
'9원'
'9분'
'9대'
'9곳_'
'9가'
'93억'
'93_'
'90만원'
'900만'
'9000원'
'8차_'
'8억원을_'
'8개월만'
'8K_'
'8700'
'80여'
'8000만원'
'8000만'
'7호선'
'7주'
'7조_'
'7원_'
'7분'
'7명은_'
'7대_'
'790'
'77명'
'7600'
'75명'
'750만'
'740'
'737_'
'72억'
'70억'
'70년'
'7000만원'
'6차'
'6주년'
'6이닝'
'6월까지_'
'6원_'
'6억원을_'
'6번'
'6명이_'
'6년만에_'
'6거래일'
'6개월만'
'68억'
'675'
'670'
'66억'
'64억'
'640'
'630'
'60개'
'600만원'
'6000원'
'6000만원_'
'5천만_'
'5천_'
'5차'
'5주년'
'5주'
'5조원_'
'5위_'
'5월에'
'5월부터_'
'5월까지_'
'5억원을_'
'5억원'
'5승'
'5명이'
'5만원권_'
'5만_'
'5기_'
'5개사'
'593'
'590'
'56억원'
'561'
'540'
'53억원'
'539'
'51만'
'50원_'
'50분'
'50만대'
'500만원'
'500만'
'500대_'
'5000억_'
'5000만원'
'4인'
'4월에'
'4원_'
'4연패'
'4분기에'
'4단계_'
'4년만에_'
'4기'
'47억원'
'460억'
'45억'
'45만'
'45개'
'44억'
'43억원'
'430원'
'42억'
'400원'
'400억원'
'4000만원_'
'3형'
'3주년_'
'3주기'
'3종_'
'3조원_'
'3조원'
'3자배정_'
'3자_'
'3위에_'
'3연전_'
'3억7'
'3세_'
'3분의'
'3만명_'
'3루타를_'
'3루타'
'3년만에_'
'3기_'
'3국'
'3가지'
'39억'
'361'
'3500'
'347'
'345'
'32개'
'325'
'31일부터_'
'31만'
'30주'
'30여'
'30개'
'300여명'
'3000만'
'2패'
'2천여'
'2척_'
'2원'
'2심도_'
'2세트_'
'2분기부터_'
'2분'
'2부제'
'2부_'
'2번_'
'2명을_'
'2만명_'
'2만5000'
'2도'
'2단지'
'2군_'
'2개월'
'2가'
'2G'
'28년'
'27억원_'
'272'
'2700'
'26억원_'
'266'
'25주년_'
'25일'
'25억원'
'25년'
'258'
'257'
'255'
'250억'
'24억'
'24만'
'241'
'231'
'22만'
'22개_'
'21일까지_'
'21만'
'21대'
'219'
'20여_'
'20시즌'
'20세'
'20명'
'20만원_'
'20만원'
'20만명_'
'20년만'
'205억'
'2017년형_'
'2014'
'2012년부터_'
'200여명'
'2007년_'
'2000만원_'
'1호점'
'1호기'
'1패'
'1천만원'
'1천200'
'1주일'
'1주년을_'
'1조8'
'1일까지_'
'1이'
'1억500'
'1안타'
'1심서_'
'1실점_'
'1시간'
'1승_'
'1세트'
'1세대'
'1만주'
'1만명'
'1루수'
'1루'
'1도움'
'1단'
'1년새_'
'1공'
'1곳'
'1개월'
'19개_'
'1997'
'191'
'18대_'
'18년_'
'188'
'182'
'1800'
'17일'
'17만'
'175'
'1700'
'16번'
'162'
'160원'
'1600만'
'15일'
'15시_'
'157'
'152'
'150억원'
'150_'
'14형_'
'14조'
'14곳'
'142'
'13조'
'13억원_'
'13명'
'13년만'
'132'
'131'
'12주'
'12조'
'12년'
'12개'
'129'
'124'
'120억원'
'1200'
'11월부터'
'11월까지_'
'11분_'
'11명_'
'118'
'115'
'1118'
'10호'
'10주년'
'10인'
'10여'
'10시간_'
'10대'
'10년만'
'10년간_'
'10경기_'
'10개월_'
'107'
'102'
'100타점_'
'100원에_'
'100세시대_'
'100세'
'100만원'
'1000원_'
'1000명'
'1000만_'
'0만원으로_'
'0만달러_'
'0만_'
'050원_'
'01일'
'00억원'
'000억_'
'./_'
'...“'
'., '
'. ‘_'
',‘_'
')_'
'%·'
'#_'
'"■'
'"<_'
'"/_'
'"-'
'""…'_'
'""···_'
'"".._'
'"", '
'!”'
' “‘_'
' “ '
' ‘'
' = ◇_'
' -'
' """'
'李'
'흠'
'퓰'
'팰'
'텅'
'텀'
'콧'
'컷'
'챔'
'챌'
'찢'
'찜'
'젯'
'잰'
'잦'
'윗'
'웠'
'왈'
'옴'
'옳'
'앨'
'씽'
'쑤'
'썬'
'쌍'
'싯'
'슝'
'쉼'
'샐'
'삿'
'삐'
'뽐'
'뺀'
'벼'
'뮬'
'뭄'
'몹'
'맏'
'를'
'뤼'
'뤘'
'룬'
'롄'
'렷'
'렵'
'똥'
'뗀'
'떨'
'땡'
'듬'
'뒀'
'댄'
'닐'
'낫'
'끽'
'끄'
'껑'
'귤'
'궤'
'곱'
'겁'
'行'
'男'
'洪'
'來'
'佛'
'人'
'㎥'
'㎞'
'▲'
'□'
'②'
'→'
'Δ'
'~'
'='
':'
'('
'ｍ'
'흰'
'핼'
'튤'
'킷'
'큠'
'퀀'
'콥'
'콕'
'컹'
'춥'
'챙'
'짬'
'짚'
'줏'
'젊'
'웡'
'엣'
'씰'
'쓱'
'쏟'
'쎈'
'썽'
'쌈'
'숍'
'숀'
'섀'
'샷'
'벵'
'밖'
'뮨'
'뭇'
'며'
'멥'
'맙'
'릎'
'릅'
'렀'
'랠'
'랙'
'뜸'
'뚱'
'뚝'
'땠'
'딤'
'딛'
'딕'
'둠'
'댐'
'닮'
'늪'
'늑'
'놔'
'넌'
'끗'
'꿇'
'꽉'
'께'
'껏'
'껍'
'깼'
'깐'
'깅'
'궈'
'괄'
'곧'
'겟'
'걀'
'같'
'갓'
'갇'
'黃'
'道'
'父'
'戰'
'年'
'對'
'子'
'全'
'免'
'㏊'
'③'
'∙'
'ℓ'
'–'
']'
'@'
')'
'#'
'］'
'［'
'힝'
'흙'
'훨'
'홉'
'혔'
'픔'
'푼'
'팥'
'팍'
'튠'
'퉈'
'텟'
'탠'
'탓'
'킵'
'쿤'
'쾰'
'켠'
'컸'
'캣'
'촨'
'찹'
'찮'
'쪼'
'짱'
'젼'
'윔'
'웬'
'욘'
'왼'
'옛'
'옌'
'엎'
'얇'
'앳'
'씻'
'쉘'
'셉'
'섣'
'샹'
'샴'
'샬'
'쁨'
'빡'
'빔'
'븐'
'붓'
'봅'
'벳'
'밸'
'믐'
'뭘'
'랏'
'띤'
'뛴'
'뗏'
'딱'
'덟'
'댈'
'뉘'
'녁'
'넨'
'넛'
'냈'
'낡'
'낚'
'꽝'
'꽂'
'깬'
'깎'
'긱'
'귄'
'굉'
'겔'
'갸'
'重'
'賞'
'警'
'說'
'女'
'反'
'印'
'南'
'伊'
'ㄷ'
'ㄱ'
'≫'
'≪'
'⅓'
'‥'
'․'
'‘'
'×'
'|'
'j'
','
'*'
'�'
'，'
'劉'
'金'
'힛'
'흡'
'흄'
'훙'
'횡'
'헹'
'헵'
'헉'
'퍽'
'팹'
'틔'
'튬'
'튕'
'텄'
'탤'
'탉'
'쾅'
'컥'
'츰'
'췌'
'첼'
'찐'
'쯤'
'쫄'
'쩐'
'쩍'
'짙'
'죌'
'젝'
'젖'
'쟉'
'쟈'
'잖'
'욜'
'왁'
'옷'
'옭'
'엮'
'엥'
'얽'
'얹'
'얘'
'얄'
'씀'
'쑨'
'쐐'
'썰'
'슴'
'슘'
'슐'
'쉿'
'쉰'
'숏'
'솟'
'셸'
'섰'
'뻗'
'뻔'
'뺑'
'빽'
'빕'
'뷸'
'볕'
'볍'
'뱉'
'뱀'
'므'
'뭔'
'멕'
'맷'
'맴'
'륨'
'뤠'
'략'
'랬'
'랫'
'랗'
'뜯'
'떴'
'땄'
'딪'
'딧'
'듭'
'둡'
'돛'
'돋'
'뎠'
'뎁'
'덧'
'댕'
'닿'
'닙'
'넴'
'넙'
'냠'
'냇'
'냅'
'꿰'
'꿋'
'꾹'
'껌'
'깽'
'긍'
'궐'
'굽'
'굵'
'굣'
'괭'
'곁'
'겜'
'걱'
'걍'
'갭'
'非'
'電'
'軍'
'親'
'社'
'犬'
'州'
'家'
'安'
'太'
'多'
'外'
'國'
'光'
'償'
'㎿'
'㎸'
'㎡'
'㎏'
'』'
'『'
'〉'
'〈'
'♥'
'○'
'⑦'
'⑤'
'↔'
'Ⅷ'
'Ⅲ'
'⅔'
'℃'
'′'
'​'
'˝'
'´'
'°'
'®'
';'
'$'
'･'
'ｇ'
'＞'
'）'
'＆'
'聯'
'沈'
'盧'
'힙'
'휙'
'훠'
'횐'
'혐'
'헴'
'헥'
'헝'
'햅'
'핍'
'픈'
'푹'
'팠'
'팃'
'틋'
'튿'
'퉁'
'툼'
'톈'
'텼'
'텨'
'텁'
'탰'
'탯'
'탬'
'큽'
'퀼'
'쿱'
'쿡'
'켤'
'켕'
'켑'
'캥'
'캉'
'춧'
'첵'
'챈'
'찼'
'찡'
'쯔'
'쭤'
'쭈'
'쩡'
'쩔'
'짊'
'쥔'
'줜'
'줍'
'죵'
'죤'
'좇'
'읕'
'윳'
'윱'
'윅'
'웜'
'웍'
'웁'
'욤'
'옇'
'옅'
'엡'
'엊'
'앴'
'씬'
'씩'
'씁'
'쑥'
'쏭'
'썹'
'쌩'
'쌤'
'쉑'
'숟'
'숄'
'셧'
'셍'
'섐'
'샛'
'삽'
'삯'
'쀼'
'뽕'
'뻬'
'뻘'
'뻑'
'뻐'
'뻉'
'뺐'
'뺌'
'빴'
'뷴'
'뵙'
'뵈'
'벚'
'뱁'
'밧'
'밎'
'밌'
'뭅'
'뫼'
'몇'
'멓'
'먀'
'맣'
'륵'
'룻'
'렇'
'띵'
'뜰'
'뜬'
'뜁'
'뗄'
'떤'
'땀'
'딨'
'듸'
'듄'
'됨'
'댔'
'댁'
'닦'
'늬'
'뉜'
'눴'
'눅'
'뇽'
'뇰'
'놨'
'녘'
'낱'
'뀔'
'꿔'
'꾀'
'꽈'
'껐'
'꺽'
'깰'
'깥'
'깍'
'깁'
'궜'
'굶'
'괘'
'黨'
'銀'
'金'
'週'
'輸'
'貿'
'訪'
'號'
'色'
'署'
'稅'
'私'
'禹'
'禍'
'硏'
'百'
'甲'
'田'
'産'
'生'
'無'
'災'
'潘'
'油'
'民'
'比'
'母'
'案'
'東'
'月'
'最'
'曲'
'政'
'心'
'式'
'市'
'尼'
'宋'
'化'
'勝'
'加'
'制'
'兵'
'公'
'內'
'先'
'兆'
'億'
'價'
'低'
'京'
'主'
'上'
'丁'
'㎝'
'㎖'
'㎓'
'㎎'
'㈔'
'ㄹ'
'〕'
'〔'
'〃'
'●'
'◀'
'⑥'
'⋯'
'⋅'
'∝'
'™'
'―'
'²'
'z'
'\'
'['
'팎'
'텝'
'퀄'
'쿄'
'췄'
'촬'
'촛'
'촘'
'쩌'
'죠'
'윕'
'얏'
'쏜'
'썼'
'슷'
'숫'
'붉'
'봬'
'및'
'뮌'
'멤'
'릇'
'떻'
'땐'
'됩'
'덱'
'댓'
'눠'
'낸'
'낵'
'낌'
'낄'
'뀐'
'뀌'
'꼭'
'괜'
'괌'
'野'
'證'
'發'
'法'
'株'
'故'
'弗'
'展'
'委'
'協'
'企'
'「'
'△'
'■'
'ⓒ'
'∼'
'‧'
'>'
'<'
