'<pad>'
'<EOS>'
'"_'
'_'
', _'
'._'
' '_'
'' _'
'에_'
'을_'
'의_'
'이_'
'·_'
''_'
'…_'
'"""_'
'는_'
'가_'
'를_'
' ‘_'
' ""_'
'있다_'
'은_'
'."_'
'밝혔다_'
'한_'
'’ _'
'로_'
'에서_'
'과_'
'고_'
'-_'
'으로_'
'와_'
'서_'
'’_'
'도_'
'% _'
'전_'
'서울_'
'다_'
'하고_'
'인_'
'등_'
'"'_'
'했다_'
' “_'
'수_'
'원_'
', '_'
'하는_'
'첫_'
'""_'
',_'
'할_'
'”_'
'출시_'
'중_'
'열린_'
'1_'
'위한_'
'대비_'
'기_'
'해_'
'오후_'
'위해_'
'개최_'
'대_'
'대통령_'
'것으로_'
'만에_'
'있는_'
'..._'
'2_'
'%_'
'오전_'
'오는_'
'및_'
'국내_'
'미국_'
'한다_'
''"_'
'5_'
'올해_'
'된_'
'연속_'
'지난_'
'3_'
'‘_'
'지_'
'장_'
'것_'
'… _'
'공시했다_'
'이'
'자_'
'까지_'
'약_'
'대한_'
'규모_'
'4_'
'최대_'
'지원_'
'대해_'
'0_'
'전일_'
'며_'
'감독_'
'문재인_'
'서비스_'
'지'
'한국_'
'”"_'
'게_'
'일본_'
'중국_'
'수'
'사_'
'상승_'
'6_'
', ""_'
'명_'
'대표_'
'기업_'
'스_'
'리'
'됐다_'
'만_'
'경기_'
'고'
'대'
'기'
'시장_'
'사'
'. _'
'시_'
'지난해_'
'오'
'사업_'
'보'
'아'
'비'
'에게_'
', ‘_'
'가'
'한국'
'성_'
'…""_'
'스'
'내_'
'관련_'
'더_'
'정'
'후_'
'제_'
'전국_'
'부산_'
'유'
'형_'
'어'
'미'
'회_'
' `_'
'했다고_'
'전'
'원'
'면_'
'정부_'
'트럼프_'
'주'
'장관_'
'~_'
'함께_'
'주_'
'호_'
'진_'
'동_'
'일'
'다'
'조'
'시'
'서'
'매수_'
'` _'
'인'
'도'
'나'
'오늘_'
'7_'
'안'
'시즌_'
'문_'
'이벤트_'
'대상_'
'상_'
'진행_'
'일_'
'이다_'
'부터_'
'글로벌_'
'재'
'자'
'선_'
'국회_'
'선정_'
'구'
'24일_'
'야_'
'미_'
'비_'
'브랜드_'
'적_'
'통해_'
'간_'
'美_'
'한'
'하'
'지역_'
'부'
'8_'
'2018_'
'단_'
'결정_'
'모바일_'
'신'
'선'
'LG_'
'라'
'화'
'실시_'
'북한_'
'판매_'
'최근_'
'장'
'우'
'로'
'12일_'
'26일_'
'모'
'공개_'
'가장_'
'해'
'나_'
'진'
'된다_'
'추가_'
'27일_'
'제'
'이상_'
'세'
'20일_'
'"‘_'
'소'
'19일_'
'했습니다_'
'23일_'
'2'
'신규_'
'세_'
'4일_'
'해야_'
'새_'
'산'
'계약_'
'21일_'
'2017_'
'1위_'
'14일_'
'13일_'
'추진_'
'5일_'
'11일_'
'세계_'
'9일_'
'회장_'
'무'
'동'
'"" _'
'차_'
'상'
'양'
'경기도_'
'6일_'
'호'
'7일_'
'22일_'
'1일_'
'트_'
'두'
'권_'
'3'
'라_'
'8일_'
'30일_'
'28일_'
'10일_'
'1'
'센터_'
'들이_'
'확대_'
'안_'
'국제'
'29일_'
'18일_'
'맞아_'
'9_'
'증가_'
'내년_'
'군_'
'2일_'
'용_'
'보다_'
'발표_'
'강'
'17일_'
'코로나19_'
'성'
'마'
'개발_'
'외국인_'
'연'
'삼성_'
'던_'
'노'
'내'
'게임_'
'투자_'
'타'
'억원_'
'박'
'대회_'
'아_'
'25일_'
'16일_'
'연_'
'3일_'
'식_'
'경찰_'
'검찰_'
'&_'
'한다고_'
'될_'
'디'
'?"_'
'삼성전자_'
'파'
'점_'
'여의도_'
'이후_'
'현재_'
'법_'
'리_'
'가운데_'
'코'
'이날_'
'개_'
'화_'
'트'
'최고_'
'대통령이_'
'당_'
'피'
'체결_'
'또_'
'달러_'
'15일_'
'여성_'
'돌파_'
'의원_'
'오픈_'
'문'
'날_'
'선발_'
'경'
'천'
'만'
'위'
'SK_'
'토'
'불'
'2019_'
'""…_'
'치'
'총_'
'중'
'에도_'
'실적_'
'서울'
'모집_'
'더불어민주당_'
'나타났다_'
'공'
'초'
'실'
'김'
'공식_'
'부_'
'백'
'방'
'들_'
'두_'
'그룹_'
'KT_'
'현_'
'운영_'
'어_'
'구_'
'설_'
'배'
'조_'
'상승한_'
'단'
'4'
'.._'
'자유한국당_'
'임'
'드'
'“_'
'?_'
'10_'
' -_'
'하락한_'
'포'
'이번_'
'여'
'바'
'학교_'
'온라인_'
'시작_'
'팀_'
'위_'
'올_'
'인천_'
'신임_'
'개'
'中_'
'없는_'
'명'
'강화_'
'', _'
'하락_'
'차'
'선수_'
'티'
'최초_'
'이라고_'
'···_'
'영업이익_'
'영_'
'아파트_'
'세계'
'앞두고_'
'알'
'석_'
'반'
'두산_'
'대상으로_'
'관_'
'계'
'조사_'
'억_'
'드_'
'대구_'
'교육_'
'청와대_'
'우_'
'역대_'
'방문_'
'물'
'그'
'…'_'
''…_'
'코스피_'
'건_'
'5'
'윤'
'기념_'
'공급_'
'카'
'루'
'규모의_'
'레'
'ㆍ'
'31일_'
'영'
'송'
'면서_'
'광주_'
'태'
'업체_'
'사상_'
'롯데_'
'진출_'
'심'
'습니다_'
'서울시_'
'부산'
'다고_'
'금'
'울산_'
'없다_'
'남'
'행사_'
'저'
'추'
'6'
'큰_'
'분_'
'매출_'
'현대'
'승'
'교육'
'모두_'
'되는_'
'즈_'
'석'
'민'
'년_'
' _'
'우승_'
'열'
'역_'
'다시_'
'…"" _'
'코리아_'
'전남_'
'돼_'
'길_'
'체결했다고_'
'준_'
'제주_'
'니'
'금_'
'권'
'광'
'감'
'민_'
'금융'
'공사_'
'수상_'
'혐의로_'
'투자'
'경북_'
'2017년_'
'린_'
'교수_'
'S_'
'코스닥_'
'주요_'
'이어_'
'손'
'산업_'
'교'
'과'
'`_'
'한화_'
'조국_'
'발'
'물_'
'대한민국_'
'기술_'
'관'
'7'
'4월_'
'1분기_'
'회의_'
'의'
'상반기_'
'산_'
'北_'
'허'
'여_'
'승_'
'번째_'
'라고_'
'더'
'경제'
'거'
'중인_'
'정_'
'에'
'사망_'
'분'
'뒤_'
'2018년_'
'청'
'지역'
'시스템_'
'부문_'
'5월_'
'후'
'체'
'업_'
'러시아_'
'2019년_'
'황'
'해외_'
'치_'
'지만_'
'온_'
'내달_'
'A'
'할인_'
'크'
'예'
'베트남_'
'배_'
'마감_'
'달_'
'기관_'
'10월_'
'히_'
'협회_'
'하게_'
'피해_'
'전북_'
'의혹_'
'용'
'라며_'
'등을_'
'기로_'
'펀드_'
'투'
'신_'
'발표했다_'
'대전_'
'국가'
'” _'
'SK'
'/_'
'터_'
'키'
'수사_'
'말했다_'
'기업'
'’"_'
'LG전자_'
'형'
'포럼_'
'축제_'
'야'
'삼'
'대선_'
'3월_'
'하며_'
'지원'
'시설_'
'소_'
'관련해_'
'9월_'
'환_'
'하반기_'
'일자리_'
'산업'
'리그_'
'도입_'
'대표가_'
'군'
'경기'
'훈_'
'종'
'선임_'
'박근혜_'
'기술'
'국회에서_'
'결과_'
'G'
'홈런_'
'최'
'정부가_'
'역'
'식'
'네'
'급'
'계_'
'플랫폼_'
'판'
'철_'
'중구_'
'원을_'
'아이'
'새로운_'
'병원_'
'미세먼지_'
'문제_'
'기록_'
'국_'
'국'
'日_'
'특별'
'통_'
'왕'
'말_'
'르'
'따라_'
'공동_'
'6월_'
'중단_'
'장관이_'
'입'
'요'
'반도체_'
'때_'
'따르면_'
'경남_'
'초_'
'인기_'
'수출_'
'난'
'C_'
'프로그램_'
'통'
'터'
'문화'
'달'
'  _'
'입니다_'
'승리_'
'순'
'논란_'
'혐의_'
'청_'
'주식_'
'잘_'
'작년_'
'외'
'었다_'
'당'
'다는_'
'급_'
'감독이_'
'간담회_'
'S'
'준'
'인수_'
'에는_'
'앤'
'살'
'건'
'개선_'
'30'
'현장_'
'평균_'
'위원회_'
'월'
'설'
'거래되고_'
'2분기_'
'10'
'후보_'
'원내대표_'
'새'
'매'
'니_'
'나왔다_'
':_'
'확정_'
'협력_'
'총'
'전국'
'재_'
'자동차_'
'이낙연_'
'암'
'안전'
'받은_'
'국민'
'고객_'
'B'
'해외'
'진행한다_'
'지분_'
'은'
'없어_'
'생'
'사고_'
'병'
'메'
'기대_'
'18'
'최초로_'
'정보_'
'적인_'
'요_'
'실_'
'세월호_'
'상장_'
'본'
'경제_'
'강원_'
'T'
'8'
'2년_'
'충북_'
'일부_'
'애'
'성장_'
'면'
'말'
'류'
'대학_'
'관리'
'3분기_'
'희_'
'하기_'
'평가_'
'차량_'
'여성'
'속_'
'성공_'
'변'
'되고_'
'그_'
'관리_'
'훈련_'
'행_'
'하지_'
'투자의견을_'
'총리_'
'정책_'
'장이_'
'신청_'
'복'
'버'
'난_'
'골_'
'검토_'
'개막_'
'가구_'
'8월_'
'3년_'
'프리미엄_'
'질_'
'있습니다_'
'월_'
'분양_'
'계약을_'
'감소_'
'C'
'+_'
'홍'
'텍_'
'취득_'
'전달_'
'연구'
'사장_'
'보도했다_'
'목'
'간'
'’, _'
'집_'
'적'
'울산'
'봉'
'들의_'
'기준_'
'A_'
'평'
'탄'
'촉구_'
'직'
'지정_'
'주가_'
'제품_'
'있다고_'
'인증_'
'인상_'
'이벤트를_'
'올림픽_'
'온'
'부동산_'
'9'
'2월_'
'15'
'타_'
'전망_'
'약'
'롯데'
'데_'
'다음_'
'경_'
'TV_'
'5G_'
'"“_'
'활동_'
'지난달_'
'적으로_'
'우리_'
'업무협약_'
'손흥민_'
'소식에_'
'생활'
'발생_'
'대구'
'내일_'
'기자_'
'구속_'
'겠다_'
'30_'
'2차_'
'합니다_'
'출'
'참석한_'
'인사_'
'월드컵_'
'우려_'
'상품_'
'베'
'받는_'
'러_'
'나섰다_'
'꺾고_'
'개최한다고_'
'쿠'
'캠페인_'
'출발_'
'운'
'욱_'
'씨_'
'스포츠'
'발견_'
'데'
'대책_'
'대응_'
'공공'
'개발'
'美'
'1년_'
'16'
'평창_'
'채용_'
'창'
'직접_'
'제공_'
'전년比_'
'이달_'
'없이_'
'사건_'
'발행_'
'듯_'
'국립'
'과학'
'계획_'
'거래소_'
'개최한다_'
'같은_'
'AI_'
'채_'
'중소기업_'
'종로구_'
'볼_'
'별_'
'미래'
'근'
'규_'
'결정했다고_'
', `_'
'화재_'
'협약_'
'하면_'
'패'
'커'
'전용_'
'업계_'
'삼성'
'브'
'변경_'
'민주당_'
'모든_'
'립'
'대표팀_'
'논의_'
'기간_'
'학'
'하기로_'
'티_'
'증'
'종_'
'의원이_'
'원에_'
'울'
'운_'
'영입_'
'영국_'
'엘'
'악'
'사업'
'부상_'
'바이오'
'너'
'광주'
'공장_'
'경영'
'결'
'각'
'가격_'
'D_'
'5년_'
'15_'
'13'
'혁신'
'추석_'
'청년'
'째_'
'중국'
'정부'
'은행_'
'수출'
'매각_'
'동안_'
'대한'
'달성_'
'단체_'
'누'
'김정은_'
'공급계약_'
'격'
'M_'
'50'
'25'
'11월_'
'!"_'
'항'
'판매'
'특'
'크_'
'전했다_'
'범_'
'박람회_'
'박_'
'구축_'
'p_'
'4차_'
'11_'
'현대차_'
'투어_'
'취임_'
'참여_'
'진행한다고_'
'주당_'
'져_'
'엠'
'스타'
'속'
'서비스를_'
'바른정당_'
'게임'
'K'
'2016_'
'11'
'희'
'표_'
'채'
'좋은_'
'정보'
'전환_'
'오_'
'에스'
'받고_'
'반대_'
'막'
'러'
'데이_'
'남성_'
'나선다_'
'길'
'국민_'
'14'
'100'
' '
'환자_'
'향'
'한국당_'
'하루_'
'카_'
'출시했다고_'
'처음으로_'
'징역_'
'점검_'
'의회_'
'외교부_'
'열리는_'
'연장_'
'여야_'
'어린이_'
'신종_'
'사진_'
'북'
'방_'
'국민의당_'
'공동'
'…“_'
'X'
'? _'
'12_'
'12'
', “_'
'환경'
'하다_'
'철'
'집'
'종합'
'전일대비_'
'본격_'
'보유_'
'방송_'
'마_'
'기반_'
'경신_'
'거래_'
'U_'
'KIA_'
'21'
'20_'
'20'
'황교안_'
'환'
'현'
'프'
'판_'
'투수_'
'콘텐츠_'
'카드_'
'최고'
'직_'
'위원장_'
'영화_'
'열린다_'
'안철수_'
'아시아_'
'실시한다고_'
'시대_'
'범'
'방안_'
'발_'
'명을_'
'림'
'대통령의_'
'대규모_'
'담'
'김_'
'기록했다_'
'R'
'2명_'
'회'
'했던_'
'청년_'
'참가_'
'전자'
'전년_'
'법인_'
'밝혔습니다_'
'류현진_'
'라이'
'구조'
'것은_'
'검사_'
'건설_'
'∼_'
'M'
'F'
'17'
'히'
'희망'
'후보자_'
'추가'
'절'
'의료'
'유럽_'
'앞서_'
'시간_'
'사회'
'몰'
'많은_'
'년'
'긴급_'
'규'
'관광'
'P_'
'O'
'E'
'D'
'%↑"_'
'활성화_'
'호텔_'
'편'
'출신_'
'지급_'
'중앙'
'정책'
'장비_'
'위반_'
'시민'
'맞'
'높은_'
'기자회견_'
'가능성_'
'19'
'13_'
'현금배당_'
'하이'
'평가'
'파_'
'증시_'
'정치'
'이동'
'올'
'업'
'아울러_'
'수주_'
'설치_'
'복귀_'
'무료_'
'마지막_'
'론_'
'도널드_'
'대출_'
'는데_'
'내놓았다_'
'강세_'
'25_'
'화장품_'
'케이'
'취소_'
'출범_'
'점'
'장애인_'
'수사'
'선정됐다_'
'블록체인_'
'분야_'
'복_'
'병_'
'바_'
'무역'
'많이_'
'만원_'
'려'
'등의_'
'들'
'돈_'
'대학'
'단지_'
'다음달_'
'다양한_'
'네이버_'
'→_'
'7월_'
'4분기_'
'4년_'
'18_'
'... _'
'탈'
'전기'
'왜_'
'였다_'
'앞에서_'
'시행_'
'선거'
'사전예약_'
'본_'
'법무부_'
'날'
'국내'
'공모_'
'겸_'
'NC_'
'52주_'
'혼'
'해양'
'풍'
'팔'
'집중_'
'제주'
'이전_'
'앱_'
'아닌_'
'도시'
'대통령은_'
'대전'
'근_'
'개선'
'H'
'22'
'1월_'
'1명_'
'효과_'
'회장이_'
'현장'
'혁신_'
'행정'
'행'
'합'
'프랑스_'
'페스티벌_'
'참석_'
'찬'
'즈'
'조성_'
'조선'
'제3'
'워'
'옥'
'영향_'
'스마트_'
'소재_'
'서비스'
'살_'
'발전'
'마련_'
'라는_'
'기부_'
'경남'
'홍준표_'
'함'
'페'
'퍼'
'코로나_'
'층_'
'축구'
'직원_'
'제시하였고_'
'자금_'
'일본'
'인도_'
'여름_'
'스포츠_'
'상승세_'
'버스_'
'받았다_'
'바이'
'목표주가로는_'
'망'
'마스크_'
'도전_'
'뉴스_'
'금융_'
'R_'
'P'
' - _'
'학교'
'프_'
'태풍_'
'추진'
'질문에_'
'지구_'
'주민_'
'존'
'전략_'
'재단_'
'음'
'우수'
'언'
'씨'
'수가_'
'생산'
'불법_'
'볼'
'모델_'
'명이_'
'론'
'려_'
'남북_'
'남북'
'금리_'
'공모전_'
'곳_'
'경영_'
'각_'
'K_'
'50_'
'2016년_'
'홀'
'행사를_'
'행복'
'항공'
'표'
'친'
'진다_'
'증_'
'주의_'
'제1'
'인천'
'유치_'
'원의_'
'완'
'오른_'
'연다_'
'여행'
'에너지_'
'액_'
'안타_'
'사용'
'보_'
'법원_'
'배우_'
'됐습니다_'
'독일_'
'도시_'
'넥센_'
'공연_'
'강원도_'
'I'
'확진자_'
'홍콩_'
'학생_'
'체험'
'찾은_'
'찾아_'
'창업'
'지방'
'졌다_'
'정의당_'
'유통'
'열어_'
'열_'
'에너지'
'생_'
'부회장_'
'발전_'
'독'
'대만_'
'다른_'
'까_'
'공공기관_'
'G_'
'E_'
'23'
'20대_'
'19_'
'효'
'확산_'
'포항_'
'평화'
'출전_'
'지는_'
'준비'
'정세균_'
'접'
'유엔_'
'완료_'
'열고_'
'억'
'신고가_'
'스마트폰_'
'소상공인_'
'설립_'
'부산시_'
'로부터_'
'때'
'김영'
'골'
'것이다_'
'검찰이_'
'강_'
'e'
'U'
'N'
'LG'
'3명_'
'폭'
'코로나바이러스_'
'지속_'
'정부의_'
'점을_'
'재개_'
'장을_'
'와의_'
'엔_'
'업무협약을_'
'업데이트_'
'았다_'
'북한의_'
'본부_'
'바른미래당_'
'미사일_'
'래'
'디_'
'덕'
'대표이사_'
'뉴_'
'낸_'
'글로벌'
'공무원_'
'견'
'거래'
'감독은_'
'BUY_'
'200'
'10년_'
'환율_'
'지정'
'지수_'
'주택'
'전면_'
'익'
'안전_'
'슈퍼'
'북_'
'보이고_'
'별'
'밀'
'등'
'들을_'
'경찰에_'
'F_'
'24_'
'혜'
'통신'
'취'
'청소년_'
'창립_'
'주택_'
'주는_'
'접수_'
'우수_'
'우리'
'연휴_'
'앞으로_'
'않은_'
'신작_'
'섭_'
'사드_'
'분석_'
'방송'
'방문해_'
'반_'
'매출액_'
'량_'
'됐다고_'
'돌입_'
'단체'
'단독_'
'는다_'
'뉴'
'농'
'기념'
'극'
'文대통령_'
'32'
'12월_'
'확대'
'한미_'
'하지만_'
'필리핀_'
'프로'
'통합'
'테'
'키움_'
'충남_'
'최저임금_'
'처'
'책'
'줄_'
'전문_'
'인권'
'이용'
'이란_'
'월드'
'영업익_'
'아니다_'
'슈'
'술'
'순매수_'
'성장'
'샤'
'상대로_'
'모_'
'맞이_'
'레이'
'도로_'
'대형_'
'대한항공_'
'대출'
'누적_'
'노조_'
'귀'
'교_'
'개인_'
'm_'
'B_'
': _'
'24'
'출시했다_'
'출시한다고_'
'최종_'
'최다_'
'초청_'
'책_'
'참석해_'
'질'
'지진_'
'제품'
'제2'
'있어_'
'육'
'요구_'
'예상_'
'여자_'
'신제품_'
'스마트'
'생산_'
'사용_'
'빈_'
'빅'
'브라질_'
'불법'
'분양'
'문화_'
'노_'
'남자_'
'기아차_'
'국방부_'
'공개'
'경찰이_'
'건설'
'건강'
'강화'
'가능_'
'i'
'K리그_'
'50대_'
'000원을_'
'0'
'휴'
'확진_'
'확인_'
'프로모션_'
'폭발_'
'포_'
'탄_'
'코리아'
'코_'
'츠'
'체_'
'창업_'
'주제로_'
'전북'
'작_'
'작'
'인사'
'예술'
'예비'
'선언_'
'사업에_'
'복지'
'보통주_'
'번_'
'방안을_'
'미래_'
'마친_'
'린'
'란'
'대학생_'
'김동연_'
'교통'
'골프'
'곡'
'가족_'
'확보_'
'품'
'푸'
'포인트_'
'통산_'
'착수_'
'전망이다_'
'전략'
'적용_'
'잡'
'있다는_'
'이해찬_'
'이재용_'
'이에_'
'외_'
'앞둔_'
'시장'
'세미나_'
'성공'
'설명회_'
'상승'
'빈'
'불_'
'맞은_'
'마무리_'
'력'
'락'
'따'
'든_'
'두고_'
'되'
'넘어_'
'기존_'
'과정_'
'과의_'
'고용'
'vs_'
'MOU_'
'40대_'
'35'
'10명_'
'협의회_'
'협력'
'한다는_'
'한국인_'
'필요_'
'품_'
'폐'
'충'
'축구_'
'좌'
'존_'
'정상회담_'
'정기'
'원으로_'
'원내대표가_'
'우리은행_'
'와'
'여자'
'엔'
'에서는_'
'액'
'숨진_'
'숙'
'손_'
'소속_'
'선물_'
'색'
'사전_'
'브_'
'법'
'벌'
'바이오_'
'만나_'
'마을_'
'마을'
'량'
'등이_'
'등에_'
'늘어_'
'기자회견을_'
'금지_'
'고속도로_'
'靑_'
'文_'
'W'
'29'
'합의_'
'필'
'키_'
'커_'
'친_'
'청주_'
'준비_'
'젠'
'자동차'
'잇따라_'
'이상'
'왕_'
'오픈'
'염'
'연구_'
'업무_'
'야구_'
'압수수색_'
'아동'
'시설'
'스타_'
'성추행_'
'보고_'
'발생한_'
'받아_'
'렸다_'
'력_'
'디자인_'
'들어_'
'대표'
'단기_'
'눈_'
'나경원_'
'글'
'광고_'
'공급'
'공개했다_'
'것을_'
'강남구_'
'韓_'
'”…_'
'X_'
'L_'
'4명_'
'30대_'
'2020년_'
'회사_'
'호텔'
'토_'
'카카오'
'참석하는_'
'인수'
'운영'
'예정_'
'열려_'
'에이'
'업무'
'실시간_'
'슬'
'쇼'
'선거_'
'사업을_'
'사랑'
'발언하는_'
'미국'
'먹'
'만든_'
'류_'
'락_'
'동아'
'기를_'
'그린'
'공략_'
'것이_'
'개인'
'가족'
'V'
'L'
'=_'
'40'
'39'
'2억원_'
'17_'
'! _'
'현대_'
'한반도_'
'특별관계자_'
'컵_'
'카카오_'
'취업'
'최대주주_'
'천_'
'찬_'
'증권'
'주민'
'전용'
'자회사_'
'인하_'
'인상'
'이용_'
'이어'
'의장_'
'위험'
'올라_'
'예정이다_'
'여행_'
'수원_'
'북한이_'
'보호'
'받는다_'
'따른_'
'득점_'
'대학교_'
'대통령과_'
'공연'
'공시'
'고객'
'계속_'
'결국_'
'강남_'
'감사_'
'감독'
'감_'
'가상화폐_'
'日'
'\u_'
'AI'
'34'
'14_'
'%↓"_'
'훈'
'하나'
'프로젝트_'
'팬'
'통과_'
'키로_'
'큐'
'캠프_'
'축'
'최_'
'체험_'
'처리_'
'챔피언십_'
'차기_'
'주년_'
'정지_'
'정식_'
'적극_'
'잠정_'
'인공지능_'
'은행'
'위치한_'
'예산_'
'애플_'
'심_'
'식품'
'수입'
'솔루션_'
'서울대_'
'보험_'
'문제'
'목표_'
'마케팅_'
'림_'
'로봇_'
'돌'
'돈'
'대로_'
'네_'
'넘'
'나서_'
'기자'
'교육청_'
'광고'
'관광_'
'공원_'
'계획'
'경찰'
'각각_'
'英_'
'▲ _'
't'
'RPG_'
'70'
'..."_'
'후원_'
'회담_'
'홍_'
'혈'
'함_'
'피해'
'프로야구_'
'편_'
'클럽_'
'지분변동_'
'주거'
'제출_'
'전체_'
'인천공항_'
'이나_'
'율_'
'육성_'
'운동_'
'야구'
'아시아'
'신고_'
'시험'
'시간'
'선고_'
'사실상_'
'비상'
'봉_'
'만의_'
'마치고_'
'랑'
'디자인'
'뉴스'
'긴급'
'국제_'
'국가_'
'강원'
'강남'
'감염증_'
'm'
'MVP_'
'CJ_'
'1000'
'000'
'획득_'
'핵심_'
'핵'
'피_'
'투_'
'콜'
'캐'
'치료'
'총선_'
'처럼_'
'참'
'차세대_'
'지지_'
'주식'
'제작'
'전주'
'전시회_'
'자유'
'임명_'
'이재'
'유럽'
'연기_'
'암_'
'신한은행_'
'신고'
'시민_'
'스가_'
'소송_'
'세요_'
'서초구_'
'부진_'
'보호_'
'보안'
'머'
'등록_'
'들은_'
'노동'
'낙'
'꿈'
'규제_'
'구조_'
'교사_'
'게'
'거_'
'갖고_'
'갈'
'가을_'
'…‘_'
'’…_'
'a'
'N_'
'5명_'
'37'
'1차_'
'1주당_'
'1등_'
'헌'
'항_'
'합의'
'할'
'플레이'
'풀'
'통일'
'타자_'
'콘서트_'
'축하'
'첫날_'
'참여'
'차량'
'중이다_'
'주를_'
'조사'
'전기차_'
'장에서_'
'임직원_'
'일반'
'유상증자_'
'위기_'
'월드_'
'원이_'
'에서도_'
'없'
'씩_'
'싶다_'
'신청'
'시티_'
'시장에_'
'순_'
'수원'
'선두_'
'삼성전자가_'
'빌'
'비리_'
'블'
'방문'
'맹'
'대폭_'
'담은_'
'다이'
'경기도'
'개최했다고_'
'u'
'KBO_'
'J'
'42'
'36'
'26'
'16_'
'활동'
'혁_'
'헤'
'통합_'
'클'
'침'
'출마_'
'최순실_'
'최소_'
'체육'
'지원사업_'
'지고_'
'중기_'
'조치_'
'조직'
'제1회_'
'전문'
'자금'
'인사말을_'
'이틀_'
'이승'
'이를_'
'이는_'
'음악'
'우승'
'용품_'
'예방'
'영화'
'연결_'
'에어'
'아카데미_'
'아베_'
'신규'
'시험_'
'시즌'
'시상식_'
'시리즈_'
'술_'
'수입_'
'션'
'백_'
'방문한_'
'발행'
'맨'
'론칭_'
'령_'
'래_'
'란_'
'때문에_'
'대북_'
'달라_'
'기에_'
'기념해_'
'국민연금_'
'개최했다_'
'o'
'10시_'
' ㈜_'
'홍보'
'현지_'
'핵심'
'해제_'
'캐릭터_'
'친환경_'
'취소'
'첫'
'처음_'
'지하철_'
'지원을_'
'증가한_'
'조정'
'조원_'
'전시'
'적발_'
'이라는_'
'유_'
'운영하는_'
'요청_'
'열렸다_'
'연장'
'시작'
'시위_'
'승인_'
'스타트업_'
'쇼핑_'
'소득'
'보인다_'
'미국의_'
'무실점_'
'마이'
'마감했다_'
'릴_'
'렌'
'딸_'
'등판_'
'들어'
'도로'
'대상'
'나눔'
'급등_'
'궁'
'군사'
'구글_'
'교체_'
'공모'
'결제_'
'가치_'
'kt_'
'500'
'31'
'2위_'
'28'
'1호_'
'하겠다_'
'테크'
'태_'
'크게_'
'케'
'추미애_'
'처리'
'조기_'
'제작_'
'제약_'
'제도_'
'자신의_'
'있게_'
'유엔'
'유승민_'
'올랐다_'
'예방_'
'영업이익이_'
'영업'
'싱가포르_'
'실에서_'
'식을_'
'승리를_'
'쉬'
'수준_'
'세일_'
'선정됐다고_'
'선정'
'비가_'
'보수_'
'보는_'
'별세_'
'반기문_'
'면세점_'
'매장_'
'령'
'되면_'
'동기_'
'놓고_'
'내년부터_'
'남_'
'깨'
'김정'
'기획'
'구속'
'공격'
'건물_'
'개시_'
'갈_'
'T_'
'5개_'
'45'
'30분_'
'2020_'
'1일부터_'
'...""_'
'.. _'
'흥'
'홈_'
'협상_'
'한화'
'학_'
'프로축구_'
'포스코'
'패키지_'
'패션'
'특허_'
'터키_'
'클래식_'
'콘'
'출석_'
'초반_'
'청소년'
'청구_'
'조성'
'제이'
'재정'
'장학금_'
'장애인'
'있도록_'
'임시'
'인한_'
'이재명_'
'이유_'
'외교'
'예산'
'역사'
'엄'
'얼'
'앞_'
'앞'
'안보'
'쓰'
'시스템'
'슨_'
'스페셜_'
'수도권_'
'손학규_'
'션_'
'선물'
'서도_'
'상장주식수_'
'살해_'
'사진'
'부인_'
'부동산'
'벤'
'번'
'발언_'
'받을_'
'맥'
'망_'
'률_'
'대화_'
'대응'
'눈'
'냈다_'
'내린_'
'끝에_'
'꽃'
'기대'
'금지'
'계열사_'
'검거_'
'검'
'걸'
'감사'
'北'
'SK하이닉스_'
'80'
'2천'
'2배_'
'23_'
'21_'
'환경부_'
'행사'
'했지만_'
'함께하는_'
'할인'
'프로_'
'페이'
'파이'
'테크_'
'캠퍼스_'
'춘'
'집회_'
'줄'
'정상_'
'절_'
'올림픽'
'양성'
'아이_'
'스트'
'숙_'
'수도_'
'소환_'
'센터에서_'
'성과_'
'선수'
'서울시'
'새롭게_'
'산업혁명_'
'사전'
'사이'
'블랙'
'분석'
'배치_'
'박원순_'
'박물관_'
'민간'
'몸'
'모바일게임_'
'멕시코_'
'먼'
'료_'
'록_'
'례'
'디스플레이_'
'들에게_'
'대를_'
'군은_'
'구매'
'골프_'
'경북'
'거래량_'
'개혁'
'개설_'
'개관_'
'강경화_'
'가동_'
'e스포츠_'
'MMORPG_'
'LH_'
'6년_'
'27'
'22_'
'100_'
'"'
' …"" _'
'환경_'
'홈'
'협'
'핵_'
'해상'
'한국거래소_'
'학습'
'플러스_'
'패_'
'통일부_'
'통신_'
'토트넘_'
'토론회_'
'컴'
'캐나다_'
'측_'
'총재_'
'촌'
'중국의_'
'제재_'
'제안_'
'전에_'
'재판_'
'잔'
'자사주_'
'인터넷_'
'윤_'
'육군_'
'유니'
'완화_'
'연맹_'
'신설_'
'수수료_'
'성금_'
'상대_'
'상담'
'사회_'
'부정'
'보험'
'보상'
'벤츠_'
'밤_'
'발언하고_'
'모바일'
'링'
'디지털_'
'디지털'
'드림'
'대통령'
'농업'
'네이버'
'너_'
'내부'
'내가_'
'김태'
'기념촬영을_'
'국회'
'경쟁_'
'것이라고_'
'검사'
'거리_'
'강조했다_'
'LG유플러스_'
'KBO리그_'
'?…_'
'60'
'5월'
'53'
'40_'
'0원_'
'훈련'
'회의에서_'
'호텔에서_'
'헝그리앱_'
'한국은행_'
'하라_'
'하_'
'플'
'팅_'
'특히_'
'특별_'
'탈출_'
'컨'
'출시'
'최우수_'
'최고의_'
'체결했다_'
'차지했다_'
'차관_'
'징계_'
'진행'
'진출'
'주장_'
'주목_'
'주말_'
'조기'
'제공'
'전통'
'전날_'
'장기'
'잇'
'의사'
'응'
'윤석열_'
'유지_'
'위안부_'
'울산시_'
'운행_'
'우승을_'
'와이'
'오브_'
'언론_'
'어린이집_'
'실적이_'
'솔'
'셀'
'상황_'
'상을_'
'상가_'
'사가_'
'빙'
'비트코인_'
'북한'
'북구_'
'범죄'
'발사_'
'목_'
'모집한다고_'
'모집한다_'
'메이'
'맞춤형_'
'마리_'
'땅'
'두산'
'동시_'
'돌아'
'데스'
'대신_'
'다가_'
'뇌'
'논'
'기회_'
'급증_'
'구역_'
'관광객_'
'경쟁'
'개장_'
'갑'
'가는_'
'證_'
'SK텔레콤_'
'73'
'65'
'3차_'
'38'
'33'
'300'
'1억원_'
'%, _'
'회복_'
'활용한_'
'활용_'
'활'
'한일_'
'하락세_'
'피해자_'
'팀'
'퇴'
'코치_'
'치료제_'
'책임_'
'책임'
'착'
'지분율이_'
'중소기업'
'조사를_'
'정상'
'정부서울청사에서_'
'자동'
'자가_'
'입장을_'
'임대_'
'익_'
'이전'
'이사장_'
'의혹을_'
'의장'
'위원_'
'웨이'
'움_'
'예약_'
'연구소_'
'앱'
'실시한다_'
'시도_'
'승리'
'사회적_'
'비전_'
'부담'
'보건'
'방지_'
'방지'
'발표'
'매체_'
'름'
'루_'
'대체로_'
'낮_'
'께_'
'권한대행_'
'구단_'
'교실_'
'게임즈_'
'건립_'
'가졌다_'
'가입_'
'Q'
'I_'
'92'
'4개_'
'힘_'
'힘'
'회사'
'활동을_'
'홈런을_'
'홀에서_'
'홀딩스_'
'호날두_'
'했다는_'
'하면서_'
'프리'
'품질'
'트리'
'통한_'
'텔'
'턴'
'택'
'탄핵_'
'타이'
'쿠폰_'
'코스'
'츠_'
'추신수_'
'최대'
'체계_'
'철도'
'집계됐다_'
'죽'
'주도_'
'죄'
'제3회_'
'재난'
'재건축_'
'임명'
'인프라_'
'이라며_'
'의원'
'의사_'
'을'
'유출_'
'영업손실_'
'연합'
'않'
'아이디어_'
'아들_'
'스페인_'
'숨져_'
'소비'
'소방'
'새누리당_'
'변동했다고_'
'벽'
'받'
'명품_'
'매_'
'립_'
'른_'
'롱'
'랩'
'라인_'
'뜨'
'데이'
'데뷔_'
'대표는_'
'대책'
'뉴욕_'
'농협_'
'널'
'나이'
'김현수_'
'김용'
'기술을_'
'기금_'
'교육부_'
'관한_'
'관련'
'과제_'
'공유'
'공격_'
'공_'
'겨울_'
'갤럭시_'
'개편_'
'개정_'
'감독의_'
'감독과_'
'가스'
'가능한_'
'檢_'
'中'
'BMW_'
'8년_'
'66'
'30일까지_'
'2년'
'27_'
'흑자_'
'후보'
'회를_'
'홀_'
'혜택_'
'헌법'
'해지'
'플_'
'폰_'
'폭_'
'특수'
'특검_'
'투입_'
'통화'
'킹_'
'코스피는_'
'코리아는_'
'출_'
'촌_'
'처_'
'지지'
'지구'
'정부는_'
'전력'
'저_'
'자를_'
'입장'
'임금'
'인해_'
'인증'
'인사를_'
'인근_'
'이자_'
'으면_'
'유명_'
'위험_'
'위기'
'웃'
'운동'
'요금_'
'올해의_'
'오승환_'
'오스'
'연구원_'
'연간_'
'여전히_'
'언_'
'아프리카_'
'신형_'
'신한'
'시범경기_'
'스는_'
'수소'
'선에서_'
'선발'
'상장'
'사는_'
'비롯한_'
'부담_'
'박지원_'
'미래에셋대우_'
'목표가_'
'맨유_'
'능'
'는'
'놀'
'녹'
'노동자_'
'녀_'
'나와_'
'나누고_'
'김재'
'김성'
'금감원_'
'근로자_'
'그룹'
'그랜드_'
'권을_'
'구성'
'광화문_'
'관세_'
'관계_'
'공급계약을_'
'공격수_'
'경쟁력_'
'경우_'
'겠다고_'
'개혁_'
'가지_'
'가구'
'SKT_'
'8명_'
'5년간_'
'57'
'51'
'46'
'44'
'43'
'28_'
'1위를_'
'10대_'
'- _'
' = _'
'휘'
'호주_'
'협회는_'
'합동'
'한국의_'
'하던_'
'하나_'
'폐쇄_'
'파워'
'킹'
'콘_'
'치는_'
'치고_'
'출전'
'출발했다_'
'축소_'
'최저_'
'총장_'
'청구'
'천안'
'창출_'
'참석하고_'
'참가자_'
'차례_'
'증권_'
'증가'
'주재_'
'주가가_'
'제외_'
'제4'
'전세'
'적용'
'자치'
'있었다_'
'일을_'
'인력_'
'이르면_'
'음_'
'위원장이_'
'웹'
'원장_'
'원은_'
'원에서_'
'우려'
'오피스텔_'
'연내_'
'양_'
'알려졌다_'
'씨가_'
'쓴_'
'심상정_'
'실적'
'식품_'
'시작했다_'
'시는_'
'수주'
'수익률_'
'쇼핑몰_'
'소폭_'
'소비자'
'세트_'
'성공했다_'
'설비_'
'선보인다_'
'선물세트_'
'사과'
'빠른_'
'빗'
'블루'
'브리'
'뷰티_'
'붙'
'분기_'
'부품_'
'보장'
'법안_'
'범죄_'
'방역_'
'뮤지컬_'
'문을_'
'링_'
'료'
'라인'
'들과_'
'도쿄'
'당일_'
'뉴욕증시_'
'농협'
'넥슨_'
'났다_'
'긴_'
'기준'
'기록했다고_'
'기각_'
'국정원_'
'국방'
'구매_'
'구는_'
'교체'
'관심이_'
'공항_'
'공정'
'계약'
'건축'
'거래가_'
'개방_'
'n'
'9시_'
'76'
'74'
'6명_'
'52'
'49'
'43_'
'3개월_'
'2000'
'1천'
'1년'
'1군_'
'11시_'
'효성_'
'회가_'
'활용'
'확인'
'향후_'
'학생'
'프랜차이즈_'
'포함_'
'포스코_'
'평창동계올림픽_'
'평양_'
'페이스북_'
'키움증권_'
'치료_'
'채용'
'찾아가는_'
'집중'
'직업'
'직무'
'주주'
'주고_'
'제한'
'제2회_'
'전문기업_'
'전망'
'전달했다_'
'재개'
'자원'
'입장_'
'임대'
'인재'
'인기'
'이주열_'
'이었다_'
'의원은_'
'원인_'
'왔다_'
'언론'
'않는_'
'아프리카돼지열병_'
'십'
'신세계'
'시신_'
'숲_'
'수산'
'성과'
'선보여_'
'서울시는_'
'새해_'
'상품'
'산업통상자원부_'
'산불_'
'사퇴_'
'사의_'
'빛'
'비용_'
'부총리_'
'본격화_'
'보였다_'
'변_'
'벨'
'버스'
'배당'
'밤'
'미디어'
'맨_'
'맛'
'리콜_'
'레알_'
'런_'
'런'
'등장_'
'등록'
'득'
'듀'
'동반_'
'단속_'
'다운_'
'넘는_'
'내고_'
'끝_'
'김주'
'기업의_'
'기구_'
'근로'
'규제'
'국세청_'
'국무총리가_'
'교수'
'결승_'
'격_'
'거부_'
'개통_'
'개성공단_'
'O_'
'KB'
'GS'
'90'
'7명_'
'6개_'
'61'
'5거래일_'
'48'
'3년'
'1회_'
'1조원_'
'1억_'
'후원'
'회의를_'
'회복'
'한국과_'
'하자_'
'하우스_'
'하락'
'하나금융투자_'
'필요한_'
'프라'
'폐지_'
'평창올림픽_'
'파크_'
'텐'
'테러_'
'쾌'
'코스닥'
'켐'
'케어_'
'최고치를_'
'체제로_'
'처분_'
'채널_'
'찾아'
'짜'
'진행된_'
'증정_'
'주한미군_'
'주장했다_'
'제한_'
'전환'
'전통시장_'
'전쟁_'
'재판에_'
'장관은_'
'장과_'
'잠'
'임_'
'인터넷'
'인재_'
'인도네시아_'
'이탈리아_'
'이유는_'
'이마트_'
'윈'
'워_'
'연다고_'
'역전_'
'여부_'
'없었다_'
'어린이'
'않아_'
'안심'
'싸'
'심사_'
'신설'
'신라'
'시티'
'시장에서_'
'슨'
'수는_'
'손잡고_'
'속도_'
'소비자_'
'세종'
'성폭행_'
'성이_'
'설립'
'선수들이_'
'선고'
'삼성물산_'
'사장이_'
'비행'
'브랜드'
'봄_'
'복합'
'보수'
'벤처'
'발표하는_'
'발생했다_'
'바로_'
'미중_'
'멀티'
'말까지_'
'막_'
'르_'
'롯데백화점_'
'레볼루션_'
'들고_'
'동영상_'
'돌파했다고_'
'돌파했다_'
'도입'
'데이터_'
'대금_'
'담_'
'넘게_'
'낮'
'남부'
'나선_'
'나는_'
'끝'
'김민'
'김동'
'기획재정부_'
'기록'
'기관'
'근무'
'균_'
'균'
'굴'
'국정'
'괴'
'골을_'
'고려'
'경기에서_'
'경기를_'
'검출_'
'건립'
'거리'
'거래량은_'
'값_'
'MBC_'
'LG전자가_'
'KT는_'
'KT'
'KB증권_'
'FTA_'
'FA_'
'EU_'
'CJ제일제당_'
'8억원_'
'7억원_'
'5만'
'59'
'58'
'4만'
'400'
'3만'
'1억'
'힘입어_'
'훈련을_'
'후보가_'
'활성화를_'
'화학_'
'혐의를_'
'해지_'
'해도_'
'해결'
'평양'
'편의점_'
'팬_'
'팩_'
'택시_'
'타운_'
'타고_'
'컨설팅_'
'치킨_'
'축구대표팀_'
'추천'
'초등학교_'
'쳐_'
'챌린지_'
'집단_'
'종목_'
'조직_'
'젠_'
'제출'
'전환사채_'
'전남'
'입국'
'인정_'
'이틀간_'
'이정'
'이사_'
'이른바_'
'이래_'
'이노'
'읍_'
'으며_'
'으로부터_'
'움'
'울_'
'요구했다_'
'오늘부터_'
'연방'
'연대_'
'여사_'
'어떻게_'
'않고_'
'아파트'
'아니'
'심판'
'신용'
'시행'
'숨'
'수사를_'
'쇼_'
'센'
'설치'
'선출_'
'선을_'
'선발투수_'
'생태'
'색_'
'산림'
'사람_'
'빅데이터_'
'북미_'
'변화_'
'발생해_'
'받았다고_'
'반등_'
'박스_'
'미니'
'무_'
'못한_'
'못_'
'몰_'
'명의_'
'랜'
'람'
'떠'
'되지_'
'더욱_'
'당시_'
'답하는_'
'니다_'
'느'
'노인'
'냉'
'남성이_'
'남성'
'나눔_'
'나누는_'
'깜짝_'
'기온_'
'기념식_'
'금호'
'그는_'
'규탄_'
'군산'
'구성_'
'공유_'
'곧_'
'경선_'
'결과가_'
'겠습니다_'
'銀_'
'外_'
'k'
'b'
'NH투자증권_'
'IoT_'
'75'
'6월'
'63'
'37_'
'202'
'1심_'
'150'
'120'
'%↑_'
'힌_'
'횡령_'
'확장_'
'화재'
'홍보_'
'현대모비스_'
'헌_'
'한은_'
'학술'
'하향_'
'플러스'
'페어_'
'팀이_'
'특별관계자인_'
'클래스_'
'컬렉션_'
'취업_'
'추진한다_'
'추정_'
'총력_'
'철회_'
'처분'
'참석자들이_'
'찰'
'질주_'
'진행했다_'
'중요한_'
'주식형_'
'조정_'
'조선_'
'제조_'
'제안'
'제공하는_'
'제5'
'정권_'
'점에서_'
'절반_'
'전격_'
'장에_'
'작가_'
'자산운용'
'자산'
'자는_'
'입주'
'임원_'
'일정_'
'일자리'
'이제_'
'이유로_'
'이대'
'음성_'
'융합'
'육성'
'유통_'
'유치'
'운영한다고_'
'올라'
'옥_'
'영웅_'
'열리고_'
'연금'
'암호화폐_'
'알_'
'아니라_'
'실무'
'신인_'
'신동'
'시진핑_'
'스포'
'스키'
'스카이'
'수준'
'수익'
'수원시_'
'속에_'
'소상공인'
'성을_'
'사이트_'
'브리핑_'
'부사장_'
'벌금_'
'밥'
'발굴_'
'발간_'
'반도체'
'바다'
'물질_'
'모두발언을_'
'모델'
'매수'
'맛_'
'만나'
'리는_'
'등급'
'득점'
'뒷'
'동부'
'더블'
'대회'
'대사_'
'단장_'
'다음은_'
'닉스_'
'높'
'꾸'
'김태형_'
'김진'
'김정숙_'
'급락_'
'귀국_'
'국회의원_'
'광주시_'
'관에서_'
'관내_'
'공무원'
'공간'
'골든'
'경제부총리_'
'가을'
't_'
'KEB하나은행_'
'7년_'
'62'
'60대_'
'55'
'54'
'4천'
'3억원_'
'31일까지_'
'2015년_'
'10개_'
'!_'
'회장에_'
'화성_'
'협약을_'
'현황_'
'행진_'
'했고_'
'한국투자증권_'
'하늘'
'필_'
'표준'
'폴리'
'폴'
'폭행_'
'폐쇄'
'평화_'
'펀드'
'퍼_'
'패배_'
'팀의_'
'통장_'
'탑_'
'코엑스에서_'
'컨퍼런스_'
'칼'
'충전'
'쳐'
'체제_'
'청사_'
'창작'
'창원'
'참가'
'진단'
'지역에_'
'증가했다고_'
'주변_'
'주도'
'조치'
'조작_'
'제주도'
'제조업_'
'정신'
'정규직_'
'절차_'
'전주_'
'전략적_'
'전년대비_'
'재산_'
'장치_'
'잘'
'자율'
'자리_'
'자리'
'자로_'
'자격'
'입은_'
'일이_'
'인터'
'인사하는_'
'이적_'
'이영'
'의약품_'
'의미'
'의견_'
'응원'
'웰'
'원전_'
'워크숍_'
'웅'
'외국인'
'영상_'
'염_'
'연기'
'역사_'
'에코'
'업데이트를_'
'앙'
'않았다_'
'아냐_'
'심사'
'실적을_'
'신입사원_'
'수상했다_'
'송_'
'소통'
'소재'
'셀_'
'섬'
'선택'
'선수가_'
'선보인다고_'
'석유'
'서구_'
'상향_'
'삼성증권_'
'사에_'
'사법'
'비즈니스_'
'부과'
'보고'
'배당_'
'발언을_'
'박차_'
'미디어_'
'명으로_'
'메이저리그_'
'매우_'
'마다_'
'룡'
'랜드_'
'되면서_'
'동해'
'동구_'
'독립'
'대회의실에서_'
'대형'
'대체'
'대선'
'달걀_'
'노동당_'
'남은_'
'날씨_'
'나무_'
'나라_'
'김성태_'
'기소_'
'기능_'
'기가_'
'금을_'
'금리'
'그린_'
'광주시'
'광장에서_'
'관계'
'공장'
'공간_'
'고속'
'고교_'
'경찰서_'
'경남도'
'경기에_'
'결정했다_'
'개발한_'
'갖춘_'
'간의_'
'간다_'
'가수_'
'㈜_'
'h'
'e_'
'AP'
'82'
'81'
'800'
'7만'
'72'
'6개월_'
'69'
'48_'
'3위_'
'35_'
'후반_'
'효성'
'회장'
'회는_'
'환자'
'확장'
'확인됐다_'
'협력사_'
'했'
'플레이_'
'폰'
'포항'
'팅'
'틱_'
'틀'
'통과'
'톤_'
'터미널_'
'탑'
'코레일_'
'출입'
'총선'
'체포_'
'척'
'지켜'
'지연_'
'지도_'
'지도'
'정치_'
'정지'
'정유라_'
'점검'
'전자_'
'전액_'
'적정수준_'
'입국_'
'임금_'
'인하'
'인가_'
'이유'
'이런_'
'이닝_'
'이기'
'의무'
'유가_'
'웅_'
'운용'
'우주'
'오리온_'
'예선_'
'영국'
'열었다_'
'역투하고_'
'여름'
'엔진_'
'에이치'
'억원을_'
'양성_'
'액션_'
'쏟아'
'신약_'
'신세계_'
'승인'
'순천'
'선임했다고_'
'선언'
'선수단_'
'선도'
'생명_'
'생명'
'샘'
'상하이_'
'상장사_'
'상승했다_'
'상승세를_'
'상생'
'산하_'
'산림청_'
'사업장_'
'사랑의_'
'사람'
'비핵화_'
'봉사활동_'
'봉사'
'봄'
'보고서_'
'벤투_'
'베이'
'법정'
'배출'
'방역'
'방사'
'모두발언하는_'
'먼저_'
'만큼_'
'만난_'
'막을_'
'마음'
'마감'
'리조트_'
'롭'
'랑_'
'드론_'
'드러'
'뒤'
'동양'
'동물'
'도전'
'대화'
'대한민국'
'대피_'
'대우'
'대에_'
'대부분_'
'대량_'
'대기업_'
'답'
'노인_'
'년을_'
'나온다_'
'나노'
'끊'
'꽃_'
'김현'
'김종'
'기기_'
'구형_'
'구축'
'교류_'
'관심_'
'과학기술'
'공식'
'공사는_'
'계속'
'객'
'개소_'
'개발에_'
'강원도'
'강릉_'
'감소한_'
'감소'
'가능성이_'
's_'
'TV'
'FC_'
'8천'
'88'
'80_'
'79'
'4월'
'4강_'
'1인_'
'11월'
'10만'
'0억원_'
'흘'
'회동_'
'화를_'
'호주'
'현지'
'현금_'
'행위_'
'해군_'
'한정판_'
'한일'
'학원_'
'피의자_'
'프로농구_'
'퓨'
'푸드'
'폭발'
'패션_'
'파크'
'파악'
'특허'
'특위_'
'트레이'
'텍'
'택_'
'클럽'
'크리스마스_'
'콩'
'콤'
'층'
'충돌_'
'출연'
'출석'
'촉구했다_'
'체포'
'청약_'
'차단'
'찌'
'지하'
'지원한다_'
'지원하는_'
'지원센터_'
'지사_'
'지방_'
'지나'
'중심'
'조합'
'조사됐다_'
'조리'
'졌습니다_'
'제일'
'정기_'
'전세계_'
'전력_'
'재판'
'재무'
'장의_'
'이주'
'이사'
'이미_'
'이달의_'
'은퇴_'
'으로는_'
'우선_'
'용산'
'예고_'
'연계_'
'역할_'
'역량_'
'여수'
'에디션_'
'어떤_'
'앞세워_'
'안정'
'아름다운_'
'아동_'
'실패_'
'시장이_'
'시민단체_'
'시리아_'
'스의_'
'숲'
'수준으로_'
'수익_'
'수원시'
'수석_'
'수리'
'셔'
'세대_'
'선봬_'
'생각'
'상담_'
'살충제_'
'사례_'
'브라'
'부상'
'부는_'
'본다_'
'보장_'
'보니_'
'밥_'
'발표하고_'
'발탁_'
'발생'
'발사'
'발굴'
'박항서_'
'박정'
'박병호_'
'민주평화당_'
'민주노총_'
'민주'
'문학'
'못'
'목표주가_'
'모비_'
'매매'
'매년_'
'매각'
'맡'
'만들기_'
'만드는_'
'마음_'
'리니지2_'
'드라마_'
'됩니다_'
'동시에_'
'독도'
'덕_'
'대회에서_'
'대상을_'
'대구시_'
'당한_'
'달러'
'논의'
'노선_'
'넥슨'
'너무_'
'남자'
'기준으로_'
'기본'
'기록을_'
'구조조정_'
'구속영장_'
'교수가_'
'공약_'
'공모가_'
'공동으로_'
'공단_'
'고발'
'검찰에_'
'개막전_'
'같이_'
'강경'
'갈등_'
'각종_'
'가정'
'가전_'
'與_'
'”… _'
'PC_'
'NH농협은행_'
'KBS_'
'IT_'
'CJ'
'9회_'
'78'
'68'
'64'
'60_'
'5대_'
'47'
'3회_'
'3종_'
'3대_'
'34_'
'1만'
'10월'
'000원_'
'희망_'
'회에서_'
'활용해_'
'화학'
'혹'
'현장을_'
'현금배당을_'
'향해_'
'한반도'
'한경'
'한강'
'핀테크_'
'풀_'
'푸드_'
'폼페이오_'
'틴_'
'테스트_'
'탐'
'콘텐츠'
'코리아가_'
'코로나19로_'
'커뮤니티_'
'캠'
'칸_'
'칸'
'카메라_'
'카드'
'칠'
'취_'
'출시한다_'
'추천_'
'추_'
'청주'
'챔피언_'
'찍'
'집단'
'진흥원_'
'진입'
'직장'
'지진'
'지적'
'지수가_'
'지명_'
'중심으로_'
'주의'
'주년을_'
'조회공시_'
'제휴_'
'제주도_'
'제조장비_'
'제조'
'제시하였다_'
'제5회_'
'접수'
'전시_'
'장중_'
'장은_'
'잡고_'
'작업_'
'인도'
'이행'
'이평선_'
'이지'
'이뤄'
'이루어지고_'
'이고_'
'웨이_'
'운전'
'용의자_'
'욕'
'완화'
'옹'
'오바마_'
'오르'
'영웅'
'영등포구_'
'열차_'
'여성이_'
'업종은_'
'어려운_'
'압박_'
'압'
'쏘'
'싱'
'심리_'
'신동빈_'
'신고리_'
'시상식에서_'
'시도'
'승진_'
'습'
'쇼핑'
'소득_'
'선수권대회_'
'서를_'
'생활_'
'새벽_'
'산업혁명'
'사퇴'
'사업이_'
'사실'
'사망'
'사를_'
'뿌리'
'비상_'
'본사_'
'보유'
'보안_'
'보도_'
'변화'
'변경'
'법인'
'법률'
'백운규_'
'백신_'
'배터리_'
'밝힌_'
'반발_'
'미국과_'
'묻'
'무역_'
'무선'
'못해_'
'목표'
'모두발언_'
'매수우위_'
'만원'
'마리'
'마라톤_'
'리그'
'록'
'로드'
'레_'
'라이프_'
'라도_'
'동계올림픽_'
'동계'
'델'
'대표와_'
'대우건설_'
'대만'
'대리'
'대거_'
'대가_'
'달성'
'단지'
'단속'
'높아_'
'노사_'
'노사'
'년만에_'
'녀'
'넷마블_'
'넷_'
'넷'
'내정_'
'나타났습니다_'
'까'
'기초'
'기준금리_'
'기록한_'
'기계'
'기간'
'급등'
'그룹이_'
'그러나_'
'굿'
'국무총리_'
'광_'
'과태료_'
'공약'
'공시_'
'공방_'
'고위'
'경주'
'경신했다_'
'경보_'
'경기도는_'
'결정'
'검찰'
'걸_'
'개편'
'개최'
'갖'
'강화를_'
'간담회에서_'
'W_'
'CEO_'
'CC'
'AS'
'>_'
'77'
'75_'
'71'
'70_'
'6만'
'5년'
'3일간_'
'3월'
'3년간_'
'2주_'
'2명이_'
'2만'
'200만'
'1조'
'12시_'
', '
''..._'
'%"_'
'%'
'""..._'
'흔들'
'흑'
'흐'
'회장의_'
'회의실에서_'
'협업_'
'현이_'
'현대건설_'
'허가_'
'해경_'
'할까_'
'한편_'
'한진'
'한강_'
'학과_'
'폭력_'
'평창'
'펜'
'퍼스트'
'패스_'
'파업_'
'투표'
'통제'
'터키'
'택시'
'태풍'
'태국_'
'탄핵'
'타이어_'
'타이거_'
'타워_'
'코오롱'
'캔'
'친화'
'취재진_'
'충남'
'춤'
'추첨'
'추락_'
'최고치_'
'총리'
'총괄'
'쳤다_'
'체결'
'처벌_'
'찾는_'
'참사_'
'차단_'
'징'
'집계됐다고_'
'진입_'
'직장인_'
'지수는_'
'지속가능'
'지명'
'지를_'
'증시가_'
'즐'
'주장이_'
'주장'
'주의보_'
'졸업'
'젤'
'제기'
'제1차_'
'정당_'
'점유율_'
'전원_'
'적자_'
'적금_'
'장비'
'자연'
'자산_'
'자본'
'자녀_'
'임상_'
'일제히_'
'일본의_'
'인사하고_'
'인사청문회_'
'인구'
'이틀째_'
'이익_'
'이사회_'
'이번에_'
'의심_'
'의견'
'을까_'
'유치원_'
'유저_'
'위로_'
'웠다_'
'원정'
'울산시'
'우스_'
'올렸다_'
'온라인'
'영향으로_'
'영장_'
'연패_'
'엘_'
'엑스'
'었'
'약속'
'애플'
'압박'
'안에_'
'아직_'
'쌀_'
'싱_'
'신한금융투자_'
'신탁'
'시킨_'
'시작한다_'
'시민들이_'
'시가_'
'스위스_'
'수영'
'수사에_'
'수립_'
'수당_'
'송파구_'
'손흥민이_'
'소환'
'소통_'
'셀트리온_'
'센터는_'
'센터'
'서는_'
'새로_'
'상임'
'상대'
'상당_'
'상가'
'삼성동_'
'산업단지_'
'사태_'
'사장'
'사이버_'
'사망자_'
'사랑_'
'사기_'
'사기'
'비중_'
'불펜_'
'부품'
'부지_'
'부지'
'부문'
'부당'
'본격적인_'
'보이'
'보복'
'보도'
'베트남'
'배송_'
'방어'
'발표한_'
'발전소_'
'반드시_'
'박사_'
'바이러스_'
'바람_'
'민족'
'민원'
'미술'
'미션_'
'미군_'
'무장'
'무인'
'못했다_'
'모니터_'
'명품'
'명절_'
'멕시코'
'메디'
'맞춰_'
'말했습니다_'
'마포구_'
'률이_'
'려면_'
'렉'
'랩_'
'등으로_'
'듣고_'
'될까_'
'동의_'
'동결_'
'돌_'
'대신증권_'
'대선후보_'
'당국이_'
'달하는_'
'다저스_'
'눈길을_'
'누적'
'누리'
'논란이_'
'논란에_'
'논란'
'노력_'
'네오'
'낼_'
'내놓'
'나라'
'김포'
'기업인_'
'기소된_'
'기사'
'기는_'
'기금'
'금호타이어_'
'그리고_'
'과정'
'공정위_'
'공사'
'곳'
'고용노동부_'
'고민'
'고개_'
'계획을_'
'경기장_'
'겼다_'
'결과를_'
'결과'
'겨'
'것에_'
'검찰총장_'
'개정'
'감염_'
'가입'
'가량_'
'↑_'
'Y'
'SK증권_'
'K리그1_'
'KG'
'<_'
'97'
'87'
'7천'
'70대_'
'4대_'
'3주'
'38_'
'29_'
'2019년'
'1주년_'
'1조_'
'1위는_'
'''
' ""'_'
'흑자전환_'
'후원금_'
'후보자가_'
'황_'
'활약'
'호우'
'형사'
'협의회'
'협력을_'
'헬스케어_'
'해수부_'
'해군'
'합동_'
'한화투자증권_'
'한글'
'하다는_'
'피해자'
'품은_'
'평균'
'페리'
'테라'
'털'
'큐_'
'코스닥은_'
'켄'
'커피'
'칭'
'측'
'출장'
'추가로_'
'최다'
'초청해_'
'초대_'
'채택_'
'창출'
'창원_'
'진화'
'지역의_'
'지에_'
'지배'
'증상'
'증가했다_'
'중학교_'
'중요_'
'중단'
'중개'
'주재하는_'
'주간_'
'좋아'
'좋'
'족_'
'제네시스_'
'정의'
'점포_'
'전화'
'장애_'
'자율주행_'
'입_'
'일에_'
'인사말_'
'이익'
'이강인_'
'의회'
'응원_'
'응시'
'음주운전_'
'음악회_'
'으'
'유력_'
'위안화_'
'웨어_'
'원주'
'원자력'
'원과_'
'우병우_'
'우리가_'
'우가_'
'요청'
'외교_'
'오른다_'
'영상'
'연봉_'
'연결기준_'
'역투하는_'
'여야'
'에르'
'업체'
'어제_'
'어선_'
'얘기'
'안내'
'아침_'
'아웃'
'심판_'
'실시했다_'
'실시'
'신흥'
'승을_'
'습_'
'수석'
'수상했다고_'
'수능'
'쇼트트랙_'
'소형_'
'소개_'
'설명'
'선택_'
'선수들_'
'서울시장_'
'상생_'
'사단_'
'사과_'
'사고가_'
'빅_'
'비정규직_'
'비전'
'분야'
'부과_'
'본부는_'
'복귀'
'보이는_'
'변호사_'
'변동_'
'백악관_'
'배치'
'방향_'
'방한_'
'발대식_'
'반영_'
'반등'
'민주당'
'무역전쟁_'
'무기'
'모습을_'
'명예'
'명에_'
'면제_'
'만명_'
'마켓_'
'롤'
'력을_'
'러시아'
'라이브_'
'땅_'
'등급_'
'드림_'
'됐던_'
'돼야_'
'동의'
'돕는_'
'대전시'
'대기'
'당선_'
'닷컴_'
'달아'
'단이_'
'단기'
'닥'
'다리_'
'늦'
'늘어난_'
'뉴욕'
'노조'
'노래'
'넘어섰다_'
'넘어'
'냐_'
'내에_'
'내려'
'남부_'
'나온_'
'끌고_'
'꺼'
'김해'
'김선'
'기존'
'기억'
'기사_'
'기부'
'기능'
'그림'
'그리'
'구글'
'구가_'
'교회_'
'관계자들이_'
'공채_'
'공중'
'공인'
'공공기관'
'골드'
'고양시_'
'경험_'
'경찰청_'
'경고_'
'결산'
'것과_'
'검_'
'걷'
'개국_'
'갑_'
'… ""_'
'g'
'`"_'
'] _'
'LA_'
'IS'
'ICT_'
'DB'
'91'
'5억원_'
'5배_'
'41'
'3천'
'3배_'
'36_'
'300원_'
'2시_'
'2018년도_'
'180'
'160'
'15일까지_'
'10억원_'
'100원_'
'100만'
' <_'
'힐스테이트_'
'확정'
'화장품'
'호가_'
'협회와_'
'협의'
'현대캐피탈_'
'현금'
'혁명_'
'험'
'허위'
'허용'
'향_'
'행진을_'
'행복한_'
'해소_'
'해서_'
'해결_'
'한미'
'한국타이어_'
'한국이_'
'하루'
'핑'
'핀'
'피부'
'프로그램'
'폭행'
'포함'
'포기'
'폐기물_'
'폐기'
'투수'
'톱'
'태양'
'타격'
'코스피가_'
'친구_'
'취약'
'축제'
'축소'
'추석'
'총장'
'청장_'
'청와대에서_'
'청와대는_'
'철도_'
'채널'
'창조'
'징_'
'집행'
'지휘'
'지점'
'지역에서_'
'지시_'
'지방선거_'
'지로_'
'지금_'
'중부'
'중대'
'중국에서_'
'주기_'
'좋다_'
'조명'
'져'
'제재'
'제시'
'제기됐다_'
'정상화_'
'정비_'
'정비'
'정보를_'
'정말_'
'전문가_'
'전년비_'
'적정'
'재벌'
'재계약_'
'장기_'
'잠실_'
'잠실'
'자체_'
'자의_'
'자리를_'
'자들'
'있을_'
'입점_'
'임시_'
'인정'
'인의_'
'인스'
'인간'
'이현'
'이해'
'이야기_'
'이야기'
'유튜브_'
'유성'
'유네스코_'
'위생'
'운행'
'운전_'
'운용_'
'올린_'
'오토'
'예상'
'연대'
'여기'
'알리'
'알려진_'
'않을_'
'안보_'
'아산_'
'써'
'신입_'
'신용등급_'
'신문'
'식이_'
'시즌을_'
'시동_'
'시공'
'스티'
'스키_'
'스케'
'쉽게_'
'수익성_'
'수송'
'수비수_'
'수비'
'수능_'
'송영무_'
'손을_'
'셋'
'선원_'
'선박_'
'선두'
'상한가_'
'사회복지'
'사와_'
'사무'
'사건의_'
'뿐_'
'비아'
'붙잡혔다_'
'분할'
'북한에_'
'북부'
'부산시'
'보면_'
'발전을_'
'발의_'
'발령_'
'반면_'
'바이오시밀러_'
'바둑'
'밍'
'문화재단_'
'문제를_'
'몽골_'
'모습_'
'면담_'
'멧돼지_'
'메가'
'먹는_'
'맥주_'
'린다_'
'리가_'
'로이'
'로봇'
'로또_'
'럴'
'뜨거운_'
'또한_'
'등극_'
'들어서'
'드리'
'드를_'
'도시재생_'
'도내_'
'덴'
'대체_'
'대장'
'당의_'
'달성했다_'
'달리는_'
'다가'
'늘었다_'
'늘'
'농가_'
'네트워크'
'넓'
'내용_'
'나서고_'
'나가'
'꼬'
'김지'
'김승'
'김상조_'
'기지_'
'기업을_'
'극_'
'그랜드'
'규모'
'국장_'
'국내외_'
'구름_'
'교통사고_'
'교육을_'
'과정에서_'
'공항'
'고발_'
'고민_'
'고객을_'
'경험'
'경품_'
'경진대회_'
'경남도_'
'경기가_'
'결혼'
'결합'
'결승'
'겨_'
'겠다는_'
'건물'
'건강_'
'개방'
'개를_'
'강한_'
'강릉'
'갑질_'
'가정_'
'가입자_'
'가시'
'가능'
'가고_'
'前_'
'↓'
'…"_'
'’'
'p'
'l'
'NC'
'ES'
'CI'
'> _'
'9개_'
'8월'
'8명'
'67'
'600'
'5회_'
'5억_'
'5G'
'56'
'4억원_'
'41_'
'3당_'
'3개_'
'2타점_'
'28일까지_'
'2017'
'200_'
'1인당_'
'1위에_'
'1만_'
'12월'
'119'
'10시'
'100주년_'
'...'_'
' … _'
'흐리고_'
'흉기로_'
'회원_'
'회원'
'회계'
'확산'
'확'
'홈런'
'혜택을_'
'형이_'
'협의체_'
'협업'
'협상'
'허용_'
'향한_'
'행위'
'해당_'
'합병_'
'한전_'
'학회_'
'학교는_'
'프로그램을_'
'표창_'
'폭탄_'
'평화의_'
'평가했다_'
'팜_'
'판매를_'
'트럭_'
'통화_'
'톡_'
'텍은_'
'택배'
'태백'
'탈_'
'탁'
'킨'
'클로'
'클_'
'컴퍼니_'
'커머스_'
'캠퍼스'
'카페_'
'카이'
'취약계층_'
'출산_'
'출격_'
'춘천_'
'추진하고_'
'청와대'
'채용비리_'
'창_'
'차이'
'쯤_'
'쪽_'
'집행_'
'짐'
'질환_'
'질환'
'지가_'
'증권사_'
'쥐'
'중심_'
'중기'
'중국이_'
'줌'
'주한_'
'주한'
'주재하고_'
'주요'
'주문'
'주가'
'조명균_'
'제를_'
'제로_'
'제3자배정_'
'제2차_'
'전해'
'전쟁'
'전월'
'전북도'
'전달'
'전국에_'
'적용한_'
'재산'
'장학'
'장관과_'
'잡았다_'
'작전'
'자이_'
'자이'
'자원봉사'
'자문'
'자기'
'있'
'입고_'
'잃'
'일까_'
'인증을_'
'인력'
'이적'
'이명박_'
'이름'
'이끄는_'
'의지_'
'의원회관에서_'
'의원들이_'
'육아'
'원대_'
'운영한다_'
'욱'
'우리는_'
'우리나라_'
'우려가_'
'왔'
'완전히_'
'완료'
'오찬_'
'오전'
'예_'
'영등포'
'연수원'
'연결'
'역시_'
'여파로_'
'엑스포_'
'억달러_'
'어디'
'양산'
'약속_'
'앤_'
'안산'
'악화_'
'아트'
'아이파크_'
'씨를_'
'씨는_'
'심포지엄_'
'심의_'
'실업'
'신용카드_'
'신사'
'신뢰'
'신도시_'
'시청_'
'시작된_'
'시아'
'시설을_'
'시설에_'
'시그니처_'
'스튜디오_'
'스토어_'
'수주공시_'
'수요'
'수시'
'송도_'
'소프트_'
'소개'
'세상_'
'세대'
'성장률_'
'섬_'
'설명_'
'서울에서_'
'서울대'
'서버_'
'생태계_'
'상당의_'
'살해한_'
'사원'
'사무실_'
'사람들'
'사고로_'
'사고'
'사건'
'빨리_'
'빠'
'빌딩_'
'비아_'
'비를_'
'불이_'
'불리는_'
'북핵_'
'부진'
'본회의_'
'복구_'
'보증'
'보도했습니다_'
'변호사'
'변신_'
'베스트_'
'벌어'
'방식'
'밝혀'
'반발'
'미국이_'
'물류'
'물량_'
'무산_'
'무료'
'무대_'
'면세점'
'메시_'
'맥주'
'매매_'
'르노삼성_'
'로는_'
'례_'
'렸'
'런던_'
'라운드_'
'떡'
'떠나는_'
'두번째_'
'돌아온_'
'독도_'
'도심'
'도서관_'
'데이터'
'덤'
'더위_'
'대성'
'대북'
'대구시'
'대결'
'달러를_'
'단장'
'다면_'
'늘린다_'
'눈길_'
'누구_'
'농구'
'노트'
'냉장고_'
'낸다_'
'내용의_'
'내기_'
'나무'
'끼'
'김포_'
'김경문_'
'기탁_'
'기지'
'기자간담회_'
'기대감에_'
'긍정적_'
'극복'
'국회의장_'
'국토'
'국무위원장'
'국가대표_'
'교류'
'광장_'
'광복'
'관심을_'
'관련한_'
'공학'
'공원'
'고용_'
'경매'
'게시'
'검찰개혁_'
'거뒀다_'
'갤러리'
'개설'
'개막'
'강제'
'강정호_'
'갔'
'간부_'
'간담회를_'
'가치'
'가격'
'V_'
'US'
'KIA'
'KCC_'
'IT'
'IC'
'H_'
'9억원_'
'93'
'8만'
'86'
'85_'
'700'
'6호기_'
'6천'
'6억원_'
'5천'
'4억'
'45_'
'3연패_'
'3억'
'33_'
'2종을_'
'2월'
'2억_'
'24시간_'
'1차전_'
'1주'
'1만원_'
'198'
'16일부터_'
'15일부터_'
'1500'
'100만원_'
'100만_'
','_'
' ·_'
'회관_'
'황금연휴_'
'환영_'
'화성'
'홍영표_'
'홍남기_'
'협회가_'
'협약'
'현직_'
'헬기_'
'행정_'
'행사에_'
'행동'
'해임_'
'해임'
'한방'
'한미약품_'
'한달간_'
'하이브리드_'
'하나로_'
'필리핀'
'품질_'
'포수_'
'포럼'
'팬들_'
'팟'
'판정'
'파크에서_'
'팀은_'
'특화'
'투표_'
'투자의견_'
'통보_'
'테러'
'탁_'
'타율_'
'클리'
'퀴즈_'
'코인_'
'켜'
'케이_'
'캐피탈'
'취하고_'
'출장_'
'출자_'
'출시한_'
'출산'
'출범'
'출발'
'최초의_'
'촬영_'
'촬영'
'총리가_'
'초청'
'청약'
'채권'
'찾기_'
'창단_'
'진행했다고_'
'진출했다_'
'진에어_'
'줬다_'
'종로'
'족'
'조사에_'
'조건'
'제약'
'제대로_'
'제기_'
'정화'
'정경두_'
'전파'
'전설_'
'전공'
'적립'
'재생'
'장관'
'잡아'
'작가'
'자택_'
'자료_'
'자격_'
'일부'
'인생'
'이종'
'이용자_'
'이석'
'이상의_'
'이미지_'
'이미'
'이대호_'
'의료_'
'은퇴'
'융_'
'융'
'윤성'
'육박_'
'위크_'
'위촉_'
'위성_'
'원주_'
'워싱턴'
'용인_'
'용산구_'
'요청했다_'
'요구'
'외부_'
'완성'
'옵'
'올해도_'
'올리'
'오버워치_'
'예정'
'예비후보_'
'영입'
'영광'
'였던_'
'열어'
'연금_'
'연구소'
'연계'
'역할을_'
'여부를_'
'여러_'
'에프'
'에스티'
'었던_'
'없다고_'
'약세_'
'않는다_'
'안타'
'아파트값_'
'아웃_'
'쌀'
'심리'
'실장_'
'실수'
'신태용_'
'신영'
'신문_'
'신경'
'시장의_'
'시스'
'시민들_'
'승부'
'승리로_'
'스피'
'스트_'
'스마트폰'
'스마일게이트_'
'수혜_'
'수행'
'수정'
'송도'
'솔루션'
'소프트웨어_'
'소년'
'센터를_'
'세를_'
'성폭력_'
'섭'
'설계'
'선수로_'
'선보이는_'
'서울서_'
'서비스하는_'
'상황을_'
'상하이'
'상상'
'삼성SDI_'
'살인_'
'사실_'
'비판_'
'비공개_'
'브이'
'분할_'
'분석이_'
'부활_'
'부활'
'부패'
'부인'
'부산시는_'
'부부_'
'부대_'
'부대'
'복지_'
'보행'
'보내'
'보기_'
'베이징_'
'법원이_'
'법원'
'버_'
'배출_'
'배상'
'밝'
'박기'
'바닥'
'민간_'
'문희상_'
'무대'
'묘'
'몽'
'몸_'
'목표로_'
'모멘텀_'
'모드_'
'모델들이_'
'명동_'
'메뉴'
'멀'
'먼_'
'맺었다고_'
'매일'
'만든다_'
'막판_'
'마르'
'리더_'
'리뉴얼_'
'름_'
'류중일_'
'렴'
'럭'
'램'
'라이프'
'라스'
'뛰어'
'뚝_'
'때문이다_'
'딥'
'듣는_'
'둘러보고_'
'동서'
'동남아_'
'동구'
'동결'
'독일'
'독서'
'도를_'
'도록_'
'던'
'대표에_'
'대통령에_'
'대사'
'대교_'
'대결_'
'단독'
'닝'
'농산물_'
'노후'
'넣'
'내부_'
'내는_'
'나타'
'나오고_'
'나쁨_'
'꺾'
'김준'
'김정남_'
'김장'
'김병준_'
'김병'
'기원_'
'기업에_'
'기도_'
'굳'
'국정농단_'
'교환'
'광역'
'관계자'
'과정을_'
'공익'
'공관'
'곳곳_'
'계획이다_'
'결의안_'
'게이트_'
'게이밍_'
'것이라는_'
'건의_'
'건설은_'
'거래일_'
'개의_'
'개월_'
'강의_'
'강원랜드_'
'감염'
'가진_'
'가리'
'韓'
'車_'
'… '_'
'”'
'km_'
'`, _'
'PC방_'
'LG디스플레이_'
'LGU_'
'KB국민은행_'
'KBL_'
'IBK'
'GS건설_'
'FC서울_'
'ELS_'
'9천'
'95'
'94'
'900'
'83'
'7월'
'7개_'
'6차_'
'6명'
'5원_'
'4년'
'46_'
'3연승_'
'3억_'
'3사_'
'3명이_'
'3명'
'3대'
'3D_'
'2회_'
'2차전지_'
'2차'
'2개_'
'26_'
'22일부터_'
'2020년까지_'
'201'
'1위로_'
'15년_'
'04'
'', '_'
'""-_'
'힘을_'
'후속'
'획득'
'회장은_'
'회담'
'환영'
'확진'
'화웨이_'
'홍콩'
'홍성'
'호투_'
'협회'
'협_'
'현장에서_'
'현실'
'현대자동차_'
'혁'
'혀_'
'헤어'
'향하는_'
'했을_'
'해제'
'해온_'
'해소'
'해보'
'항공_'
'한국투자'
'하이투자증권_'
'하겠다고_'
'플랫폼'
'풍_'
'표시_'
'폭염_'
'패배'
'팡'
'판단'
'특검'
'트윈스_'
'트루'
'투입'
'투어'
'퇴직'
'톤'
'토크'
'텀'
'턴_'
'탓_'
'탈퇴_'
'탈당'
'킬'
'클라우드_'
'크레'
'쿼'
'쿠폰을_'
'코치'
'커피_'
'침_'
'취득'
'충북'
'출국'
'추진하는_'
'추위_'
'최정'
'총회_'
'총회'
'총격'
'체크카드_'
'청에서_'
'청산_'
'청렴'
'챔피언'
'참여를_'
'진화_'
'진로'
'지표'
'지원한다고_'
'지속'
'지분'
'쥬'
'중에_'
'준공_'
'주최로_'
'주말'
'주관하는_'
'주관'
'종료_'
'조금_'
'제품을_'
'제주항공_'
'제조업체_'
'제약은_'
'제6'
'정유'
'정원'
'정부에_'
'정배열_'
'정당'
'젊은_'
'전해졌다_'
'전을_'
'전달했다고_'
'적이'
'적시타_'
'저축은행_'
'저소득층_'
'장으로_'
'장외'
'장성'
'작품_'
'작품'
'자산운용_'
'자리에_'
'자녀'
'입건_'
'임대료_'
'일정'
'인권_'
'이인'
'이승우_'
'이스라엘_'
'이성'
'이름을_'
'이랜드'
'이길_'
'의견을_'
'음식'
'유일호_'
'유소년'
'위장'
'위안_'
'위성'
'우즈'
'용인'
'외신'
'완_'
'올해'
'온다_'
'오피스텔'
'오리'
'옛_'
'영향을_'
'엽_'
'연합_'
'연준_'
'연습'
'연수_'
'여성의_'
'엔진'
'엔씨소프트'
'업데이트'
'어려워_'
'액이_'
'알려'
'않다_'
'안이_'
'안보리_'
'악수하는_'
'아프'
'아스'
'아버지_'
'아들'
'썸'
'쌍용차_'
'쌍용'
'실종_'
'신성'
'식약처_'
'시행한다고_'
'시장을_'
'시작됐다_'
'시상'
'시가총액_'
'스토리_'
'스토'
'스타트_'
'스스로_'
'수장'
'수술_'
'쇄'
'속에서_'
'소유'
'센_'
'세종_'
'세무'
'세계랭킹_'
'성적'
'성남_'
'섰다_'
'선호'
'선정했다고_'
'석탄'
'서포터즈_'
'생존'
'샌'
'상황'
'상태로_'
'상원_'
'살인사건_'
'사회공헌_'
'사임'
'사무소_'
'사례'
'뽑'
'빛_'
'비치'
'비용'
'비대면_'
'비교'
'블레이드_'
'블랙리스트_'
'블_'
'붕괴_'
'불안_'
'불교'
'분위기_'
'북미'
'부천'
'부사'
'본회의에서_'
'본사에서_'
'본격화'
'보험료_'
'보험금_'
'병원'
'별세했다_'
'벽_'
'뱅'
'백화점_'
'배우'
'발표됐다_'
'발견'
'반응_'
'박상'
'바란다_'
'바라'
'믿'
'미사'
'뮤'
'물량'
'물가_'
'문화체육관광부_'
'문화예술'
'문제가_'
'무용'
'모임_'
'모여_'
'모델로_'
'명문'
'메시지_'
'머스'
'맥스_'
'맥도날드_'
'매치_'
'매입'
'맞손_'
'맞는_'
'만들_'
'막아'
'마크_'
'마쳤다_'
'리에_'
'리스크_'
'롯데면세점_'
'롯데마트_'
'련_'
'려는_'
'렛'
'랜드'
'땐_'
'때려'
'드론'
'드러났다_'
'둘러싼_'
'동이_'
'동생_'
'돕기_'
'돈을_'
'도착'
'도약'
'도심_'
'댄스_'
'대행_'
'대피'
'대표를_'
'대변인_'
'당첨번호_'
'당신'
'당기순이익_'
'답하고_'
'달라'
'단일'
'니스_'
'높아'
'노동조합'
'넥센'
'네트워크_'
'네이'
'넘었다_'
'넘겨'
'내리'
'내렸다_'
'납'
'나왔습니다_'
'김천'
'김상'
'김대'
'기소'
'기상'
'기내'
'금융위_'
'금속'
'근무_'
'그의_'
'그러'
'권력'
'국회의원'
'국민들'
'국무회의_'
'국내에_'
'관이_'
'관심'
'관세'
'과잉'
'공동대표'
'공격을_'
'골목'
'고창'
'고양_'
'고령'
'계열사'
'계란_'
'경주_'
'경쟁률_'
'결제'
'견_'
'검토'
'검증'
'검사를_'
'건강한_'
'거부'
'거래량이_'
'거나_'
'객_'
'개정안_'
'개원_'
'같다_'
'감을_'
'가스_'
'故_'
'… “_'
'x'
'r'
'PC'
'OECD_'
'NBA_'
'LG유플러스는_'
'LED_'
'LA'
'HDC'
'FC'
'ETF_'
'9월'
'99'
'98'
'90_'
'8일부터_'
'8강_'
'6조'
'5억'
'56_'
'52_'
'4차'
'4억_'
'4명'
'4개'
'3시_'
'3경기_'
'39_'
'31_'
'2조'
'2기_'
'20년_'
'2018년'
'1순위_'
'1명'
'1만4'
'1만2'
'11일까지_'
'112'
'110'
'10주년_'
'1000만원'
'0선_'
'08'
'07_'
'01'
'.'
'% ""_'
'% '
'"`_'
'""'
'흡연'
'훈이_'
'활약_'
'활성화'
'확정됐다_'
'확산을_'
'확대한다고_'
'호수'
'호소'
'협의_'
'현안_'
'현대중공업_'
'혁신도시_'
'헬스'
'험_'
'행동_'
'햄'
'해주'
'해양수산부'
'해안'
'해법'
'항공기_'
'한솔'
'한마당_'
'한국인'
'학생들이_'
'학생들'
'필요하다_'
'피해를_'
'피아'
'플레이오프_'
'프로모션을_'
'푸틴_'
'표시'
'평점_'
'평가에서_'
'펜스_'
'페이_'
'팽'
'패스'
'팝'
'판매량_'
'파산'
'파견_'
'팀에_'
'틴'
'티켓_'
'트로'
'트럼프'
'통제_'
'템'
'텔_'
'테이블'
'태양광_'
'탕_'
'탄생_'
'타점_'
'타임_'
'타이어'
'킬_'
'큰'
'크로스'
'크라'
'큐브_'
'퀴'
'캠프'
'캠페인'
'치킨'
'취득했다고_'
'출연_'
'출간_'
'축하_'
'최태원_'
'최악의_'
'총재'
'초미세먼지_'
'천연'
'채택'
'찾'
'차원에서_'
'차에_'
'차를_'
'차관'
'짓'
'집회'
'집행유예_'
'진학'
'진주_'
'지자체_'
'지원금_'
'지도부'
'지급'
'즉'
'중소_'
'줄이기_'
'준다_'
'죽음'
'주얼리_'
'주문_'
'주력_'
'종합_'
'조달'
'제임스_'
'제의_'
'제외'
'제압_'
'제도'
'제9'
'제7'
'제4회_'
'정수'
'정리'
'점검을_'
'전서_'
'전동'
'전달식_'
'적자'
'적발'
'장터_'
'자전거_'
'자기주식_'
'있었'
'있던_'
'임원'
'일은_'
'인터뷰_'
'익스'
'이하_'
'이정미_'
'이와_'
'이스'
'이수'
'이사장이_'
'이로써_'
'이란'
'이경'
'의원과_'
'의심'
'율'
'유해'
'유지하'
'유안타증권_'
'유상증자를_'
'유산'
'유로'
'윙'
'위탁'
'위치'
'위촉'
'위대한_'
'워크'
'운전자'
'우리나라'
'용의자'
'외국'
'완전_'
'올해부터_'
'오프라인_'
'오프'
'오타니_'
'오신환_'
'예정인_'
'예상된다_'
'연임_'
'연말까지_'
'역전승_'
'여신'
'여사가_'
'여명'
'엠_'
'엘리'
'엔씨소프트_'
'에선_'
'없을_'
'업체인_'
'언론이_'
'억원으로_'
'양구'
'애_'
'앞에_'
'았'
'압수수색'
'압_'
'않았'
'악화'
'아울렛_'
'아시안게임_'
'아쉬운_'
'아산'
'아모레퍼시픽_'
'아르'
'아내'
'씨의_'
'쓰레기_'
'쎄'
'실패'
'실망'
'식량'
'식당_'
'시작한다고_'
'시작으로_'
'시위'
'시스템을_'
'시선'
'시범'
'시대'
'스타벅스_'
'스리'
'슈퍼_'
'수준이다_'
'수상'
'수비_'
'수료'
'소프트'
'소셜'
'소규모_'
'셀트리온'
'성황리에_'
'성동'
'성남'
'선보이고_'
'생을_'
'생애_'
'상품을_'
'상주_'
'상업'
'상공'
'삼아'
'삼성전자는_'
'사태'
'사진을_'
'사인_'
'사유'
'사업의_'
'사무총장_'
'사립'
'사로_'
'사람이_'
'사내'
'사건이_'
'빨라'
'비판'
'브리핑을_'
'브레'
'뷰티'
'북상'
'북부_'
'부족_'
'부가_'
'봉사_'
'본인'
'본사'
'본부'
'본드_'
'보훈'
'보조'
'보완'
'보상_'
'보건복지부_'
'변동'
'베테랑_'
'벚꽃_'
'벗'
'벌이고_'
'배달'
'배경'
'방법'
'발병'
'발견된_'
'반환'
'반대'
'박영선_'
'박사'
'박람회'
'박경'
'밋'
'미스'
'미세먼지'
'물을_'
'물가'
'문화재_'
'무역협상_'
'무너'
'몰아'
'목표주가를_'
'목적'
'모아_'
'모스'
'면적_'
'메르세데스_'
'메르'
'메달_'
'멈춰'
'머_'
'매출'
'매체'
'매도'
'말하는_'
'만족'
'만들어_'
'만들'
'마무리'
'리버풀_'
'륙'
'롯데홈쇼핑_'
'련'
'려고_'
'레드_'
'랭'
'뚫'
'뚜'
'떼'
'되찾'
'되나_'
'동해_'
'동원'
'동대문'
'돌입했다_'
'독점_'
'도움_'
'도발_'
'도는_'
'대한항공'
'대학교는_'
'대표로_'
'대책회의_'
'대비'
'대법원_'
'대국민_'
'당선'
'당국'
'닭'
'달러당_'
'단행_'
'단을_'
'단순'
'단계'
'다리'
'님'
'닉_'
'능력'
'늘면서_'
'늘고_'
'눈앞_'
'뇌물_'
'놓'
'농구_'
'녹십자'
'녹색'
'념'
'넘겨진_'
'내정'
'내수_'
'남해'
'남편'
'남동'
'남녀_'
'남구'
'나서'
'김치'
'기성용_'
'기부금_'
'기록하며_'
'기능을_'
'기계_'
'급여_'
'금융감독원'
'금메달_'
'글로'
'글_'
'극복_'
'그림_'
'그래'
'규모로_'
'군에_'
'국토부_'
'국채'
'국제유가_'
'구호'
'구원'
'구속영장을_'
'구본'
'교육감_'
'교사'
'관악구_'
'공판'
'공조_'
'공기'
'공군'
'곤'
'고영'
'고객만족도_'
'계층'
'계좌_'
'계기'
'경제인'
'경상'
'경고'
'겨울'
'거점'
'거래를_'
'개최를_'
'개척'
'개소'
'강연_'
'강력한_'
'가축'
'가짜_'
'가동'
'가계부채_'
'…'
'· _'
'y_'
'y'
'ic'
'VR_'
'SNS_'
'NH_'
'MS'
'MLB_'
'KO'
'CN'
'9명_'
'96_'
'95_'
'94_'
'8억_'
'85'
'76_'
'6시_'
'6시'
'6년'
'50억원_'
'500원_'
'4위_'
'450'
'32_'
'30만'
'2호선_'
'2일부터_'
'2승_'
'2루'
'29일까지_'
'20일부터_'
'1이닝_'
'1명이_'
'100일_'
'100억원_'
'00_'
'. '
'히어로즈_'
'휴양'
'휴가_'
'회관에서_'
'황재균_'
'확진자가_'
'화제_'
'화이트'
'호소_'
'호남_'
'형태'
'혈액'
'혁신성장_'
'혁명'
'헌혈'
'행사가_'
'해피'
'항의_'
'항공사_'
'핫'
'합격'
'한진해운_'
'한정_'
'한국에_'
'한국도'
'한국거래소는_'
'학교에_'
'하이_'
'하세요_'
'하락했다_'
'핑_'
'피해가_'
'플래'
'프로젝트'
'프레'
'프랑스'
'포함한_'
'포트'
'평_'
'편성_'
'팔_'
'판매한다고_'
'판교'
'파업에_'
'팀을_'
'티브'
'특혜_'
'특허권_'
'특강_'
'특가_'
'트래'
'투자자들의_'
'투자자'
'투기_'
'통신이_'
'통상'
'탄력_'
'타구'
'킴'
'키트_'
'클라우드'
'코드_'
'케이블'
'컵'
'컬'
'커지고_'
'캠핑'
'캐릭터'
'카카오뱅크_'
'칩'
'출자'
'출마를_'
'출근길_'
'출국_'
'최종구_'
'최저임금'
'최성'
'최상'
'최경환_'
'최강희_'
'총수_'
'촛불'
'촉'
'초고'
'체육관에서_'
'청춘'
'청와대가_'
'첨단_'
'철강'
'채권_'
'참여할_'
'차장_'
'짜리_'
'징수'
'직접'
'직권'
'지점_'
'지적했다_'
'지적이_'
'지시'
'지상'
'중소'
'중부_'
'중국인_'
'중구'
'줄어_'
'주행'
'주민들이_'
'주류'
'주관_'
'죄_'
'종을_'
'졸'
'조사에서_'
'조만간_'
'제치고_'
'제6회_'
'정현_'
'정해'
'정책을_'
'정성'
'정부와_'
'정보통신'
'정보보호_'
'정배열로_'
'정론관에서_'
'정도'
'정권'
'점에_'
'전화_'
'전투'
'전주시_'
'전역_'
'전망했다_'
'전망에_'
'전년보다_'
'전남도_'
'전남도'
'전경련_'
'저축은행'
'쟁'
'재정_'
'재일'
'작년보다_'
'자신이_'
'자사고_'
'자사_'
'자들_'
'있을까_'
'입찰_'
'입장하는_'
'임박_'
'일원'
'일본에서_'
'일대_'
'인천공항'
'인지'
'인식_'
'인식'
'인기를_'
'이진'
'이원'
'이웃'
'이용해_'
'이어져_'
'이송'
'이사장'
'이벤트'
'이번엔_'
'이마트'
'의원들_'
'으려'
'윤리'
'유형'
'유한'
'유진'
'유명'
'유리'
'유공자_'
'위반'
'웨'
'원회_'
'원정_'
'원내대표와_'
'우진'
'외국인이_'
'오버'
'영장'
'영양'
'영남'
'열릴_'
'연말_'
'여제_'
'여명_'
'여름철_'
'업체에_'
'업무보고_'
'업계'
'얼굴'
'어스'
'어린이들'
'어깨_'
'양자'
'야생'
'야당'
'앙_'
'안희정_'
'안을_'
'안돼_'
'안경'
'아이폰_'
'아시아나항공_'
'아동학대_'
'쌓'
'싸움_'
'심장'
'실천_'
'실제_'
'실을_'
'실에_'
'실시했다고_'
'신한카드_'
'신청을_'
'신원'
'신속'
'시스_'
'시민들'
'시기'
'시각_'
'스프'
'스튜디오'
'스테이'
'스웨덴_'
'쉽'
'순환'
'수행_'
'수학'
'수집'
'수습'
'수술'
'솔로'
'손흥민은_'
'손해'
'속속_'
'소화'
'소형'
'소리'
'셋_'
'센터장'
'세븐'
'세계적인_'
'세계적_'
'설비'
'선전'
'선수권_'
'선고받았다_'
'서해'
'서울의_'
'샷_'
'생중계_'
'상호_'
'상하'
'상무_'
'상무'
'삼성생명_'
'살해'
'산불'
'삭제'
'사회공헌'
'사조'
'사이트'
'사이버'
'사무총장'
'사격'
'뿌'
'빠진_'
'빠졌다_'
'비해_'
'붉은'
'불출마_'
'분쟁_'
'분명'
'부처_'
'부사장'
'부모'
'봤다_'
'볼넷_'
'본부장_'
'본부가_'
'복구'
'벼'
'벨_'
'벤처_'
'베스트'
'법적_'
'법안'
'법무'
'번호_'
'버리'
'배출가스_'
'밭_'
'방제'
'방식_'
'방문하'
'발급'
'받아'
'받게_'
'박주'
'박용'
'박영수_'
'박물관'
'바른정당'
'미용'
'미얀마_'
'미래통합당_'
'미국에서_'
'미국산_'
'뭉'
'물품_'
'문화재'
'무안'
'무산'
'무사'
'무리뉴_'
'몬스터_'
'목소리_'
'모아'
'모비'
'몇_'
'명지'
'메이_'
'머리'
'매도_'
'맞대결_'
'맞고_'
'말이_'
'말라'
'많아_'
'만남'
'마켓'
'마지막'
'릿'
'리스트_'
'리드_'
'롬'
'렌탈_'
'레이_'
'레드'
'럼'
'량이_'
'랍'
'라인업_'
'라면_'
'뜻'
'딸'
'딜'
'둘러보는_'
'둔_'
'되자_'
'돼지'
'동에_'
'동기'
'독_'
'도입을_'
'도시철도_'
'대항'
'대책을_'
'대전시_'
'대장_'
'대유'
'대안'
'대선후보'
'대상에_'
'대는_'
'대강당에서_'
'답변하는_'
'담당_'
'달빛'
'달러로_'
'달간_'
'단계_'
'다우_'
'다르'
'다니'
'닝_'
'닛케이_'
'농민'
'노후_'
'노력'
'노동자'
'네덜란드_'
'냐'
'내년도_'
'남편_'
'날씨'
'나선다고_'
'꼽'
'김형'
'긴장_'
'기증'
'기재부_'
'기업과_'
'금융위원장_'
'금액'
'그룹의_'
'궁_'
'국에_'
'구제'
'구입'
'구역'
'구단'
'교섭단체_'
'관중_'
'과천'
'공인중개사_'
'공사가_'
'공로'
'공략'
'공동체_'
'공공부문_'
'곳을_'
'곤_'
'고통'
'고양'
'경찰서는_'
'경산'
'경북도'
'경보'
'겸'
'결혼_'
'견본주택_'
'것'
'검은사막_'
'걸이_'
'건축_'
'건조'
'걱정'
'거듭_'
'개최되는_'
'개입_'
'개인정보_'
'갖는_'
'강풍'
'강사_'
'강력'
'갔다_'
'감시'
'갈등'
'간편'
'가격이_'
'野_'
'株_'
'文'
'中企_'
'㎡ _'
'㎞ _'
'↑'
'·'
'w'
'd_'
'Z'
'TF_'
'SM'
'NHN'
'MVP'
'MBC'
'MB'
'LNG'
'LG전자는_'
'IS_'
'IP'
'ET'
'EPL_'
'A씨'
'AC'
'9000'
'8개_'
'86_'
'800원_'
'64_'
'5000'
'4일까지_'
'4대'
'4곳_'
'4거래일_'
'4개월'
'47_'
'430'
'4000'
'3개월'
'2층_'
'2일까지_'
'2번'
'2대_'
'28일부터_'
'25일부터_'
'250'
'1타점_'
'18년'
'170'
'16일까지_'
'15억'
'13시_'
'130'
'111'
'109'
'0으로_'
'000만원_'
'..""_'
',"_'
' & _'
'女_'
'힐_'
'힐'
'흉기_'
'후보로_'
'회수'
'회사채_'
'회동'
'활발'
'활동왕_'
'환자가_'
'환율은_'
'확실'
'확대한다_'
'화재가_'
'화상'
'화로_'
'화려한_'
'홈페이지_'
'홈쇼핑'
'호투'
'협박'
'현상'
'현대백화점_'
'헬스케어'
'헝가리_'
'행정안전부_'
'핵실험_'
'핵실험'
'해운대_'
'한인'
'한민구_'
'학부모_'
'학기'
'하태경_'
'하우스'
'하락에_'
'하락세'
'하기'
'필드'
'픽'
'플로'
'프리_'
'프라이'
'품목'
'폭력'
'포즈를_'
'포인트'
'폐지'
'편입_'
'편입'
'페스타_'
'페_'
'펄'
'펀'
'패드_'
'팔아'
'판정_'
'판매한다_'
'튼'
'특별한_'
'트렌드'
'트가_'
'투자증권_'
'투자자_'
'투자를_'
'통증_'
'토리'
'테이'
'테스트'
'태평양'
'탑승'
'탈출'
'탈당_'
'타이_'
'타운'
'타격_'
'키즈_'
'키움'
'키스'
'콰'
'콜_'
'코칭'
'코스_'
'컨트리'
'캄보디아_'
'침해_'
'치유'
'치매_'
'치매'
'치를_'
'치러'
'취재진의_'
'취업자_'
'충남도'
'충격_'
'출전한_'
'출시를_'
'춘천'
'추가했다_'
'최종'
'최재'
'초과_'
'체납'
'청송'
'청문회_'
'처리하'
'챙긴_'
'채무'
'창원시'
'참석'
'참가한_'
'차차_'
'차질_'
'차관이_'
'쭉'
'째'
'짝'
'질의에_'
'질문'
'진해'
'진주'
'진료'
'직원'
'지원에_'
'지식'
'지도자_'
'지니'
'지난주_'
'증가율'
'즐기는_'
'즉각_'
'중형_'
'중장'
'중심의_'
'중등'
'중동'
'중단하'
'줄었다_'
'주최_'
'주주_'
'주인'
'주식회사'
'주식시장_'
'주부'
'주로_'
'주니어_'
'조희연_'
'조합_'
'조례_'
'조국'
'제자'
'제도를_'
'제가_'
'제4차_'
'정부서울청사_'
'정문'
'정동'
'접촉'
'전체'
'전주시'
'전담'
'전기_'
'적극적으로_'
'재판부'
'재단은_'
'장관상_'
'잡은_'
'잔류'
'자진_'
'자유한국당'
'자신'
'자살'
'자료'
'자금을_'
'입주_'
'입법'
'일산_'
'일반_'
'일로_'
'인프라'
'인터뷰를_'
'인천시_'
'인적'
'인이_'
'인삼_'
'인사말하는_'
'인민'
'인물'
'인디'
'인구_'
'인간_'
'익산시_'
'이행_'
'이용한_'
'이어갔다_'
'이어가고_'
'이상이_'
'이번에는_'
'이며_'
'읍'
'율을_'
'육군'
'유지'
'유족_'
'유소년_'
'위즈'
'위원장'
'위에_'
'웨딩_'
'월세'
'원희룡_'
'원장'
'운수'
'우즈_'
'우수한_'
'우리은행'
'요리'
'요금'
'외야수_'
'완성_'
'완벽한_'
'옵션_'
'오염'
'오산'
'오디션_'
'오늘의_'
'예정이라고_'
'예정대로_'
'예산안_'
'예고'
'옆'
'영화제_'
'영이_'
'열차'
'연휴'
'연차'
'연봉'
'연맹'
'연극_'
'연구원은_'
'연구개발_'
'여수_'
'여사'
'여론'
'엔터테인먼트_'
'에이스_'
'에듀'
'업종'
'엄마'
'얼마나_'
'어워드_'
'어린이집'
'야당_'
'앰'
'알아'
'알리는_'
'않겠다_'
'안타를_'
'아침'
'아이폰'
'아세안_'
'아빠'
'아마'
'아라'
'아내_'
'아기'
'쓰는_'
'실현_'
'신호'
'신한은행은_'
'신중'
'신장'
'신년_'
'신고가를_'
'시범_'
'시기_'
'승객_'
'스파'
'스코'
'스럽'
'숭'
'순위_'
'순위'
'숙소'
'수질'
'수업_'
'수성'
'수리_'
'수급_'
'수급'
'송치_'
'손해배상_'
'속도'
'소음_'
'소속'
'소방관_'
'소독'
'소감을_'
'센터가_'
'세이프'
'성추행한_'
'성지'
'성범죄_'
'성료_'
'성남시_'
'성공했다고_'
'설명했다_'
'선호_'
'선포_'
'선착순_'
'선언했다_'
'선보였다_'
'서울지'
'서부'
'생각한다_'
'상태_'
'상에_'
'상승하여_'
'삼양'
'삼성바이오로직스_'
'삼_'
'삶_'
'살인'
'산업의_'
'산업은행'
'산업부_'
'사자_'
'사우디_'
'사실이_'
'사라'
'사들'
'빨'
'빚'
'빈곤'
'비율_'
'비리'
'비난_'
'브렉시트_'
'붕괴'
'불펜'
'불참_'
'불안'
'북미정상회담_'
'부회장이_'
'부장'
'부실'
'부부'
'부를_'
'봤'
'봐'
'봇'
'본선_'
'본격적으로_'
'보증_'
'보인_'
'보유한_'
'보여'
'보도에_'
'보강_'
'병역'
'별로_'
'변수_'
'벨기에_'
'베이징'
'베어스_'
'베네수엘라_'
'뱅크_'
'백화점'
'방위'
'방법_'
'발효'
'발견돼_'
'반영'
'반려동물_'
'박양우_'
'박스'
'박성'
'바탕으로_'
'바이오텍_'
'바뀌'
'미혼'
'문화재청'
'문제로_'
'무엇'
'무시'
'무상'
'못하'
'모의'
'모색_'
'모르'
'모닝'
'명단'
'멤버십_'
'멜'
'메시'
'메모리'
'메리츠_'
'머리_'
'맨체스터_'
'매주_'
'매일_'
'매수에_'
'매수강세_'
'만성'
'만료'
'만들어'
'마이크로'
'마약'
'마련을_'
'마련된_'
'마련'
'리틀'
'리우'
'리오'
'리스_'
'리스'
'릉'
'률은_'
'룸_'
'료를_'
'롯데그룹_'
'로얄'
'로를_'
'럽'
'런칭_'
'러브'
'뜬다_'
'떡_'
'때문_'
'따뜻한_'
'딩'
'들도_'
'드는_'
'둘'
'된다고_'
'되어_'
'동화'
'동참_'
'동점_'
'동작'
'도착_'
'도약_'
'도시재생'
'도가_'
'던지'
'덕분에_'
'댄'
'대회가_'
'대행'
'대신'
'대박_'
'대림'
'대덕'
'당이_'
'달라고_'
'다소_'
'닛'
'님_'
'능_'
'뉴질랜드_'
'뉴시스_'
'농촌'
'농성_'
'농구대회_'
'넥슨은_'
'넥'
'내역이다_'
'내역과_'
'내륙_'
'내다봤다_'
'낮아'
'남구_'
'난민_'
'나주'
'나이트_'
'나서는_'
'끝내기_'
'끝나'
'끄'
'꽁'
'깜'
'김창'
'김정은'
'김미'
'김광'
'김건'
'기업이_'
'기반으로_'
'기록해_'
'기록하고_'
'기대감'
'긍'
'급식'
'금리인상_'
'근로자'
'극적_'
'그대로_'
'굴_'
'군이_'
'군수_'
'군수'
'국장'
'국민의당'
'국민대'
'국내에서_'
'구현'
'구청'
'구성된_'
'구간_'
'교통안전_'
'광양'
'과기정통부_'
'공직'
'공지'
'공원에서_'
'공연을_'
'공동주택_'
'공단'
'공급한다고_'
'공감'
'곳은_'
'골키퍼_'
'고양이_'
'고소'
'고도_'
'경영권_'
'경북도_'
'결정을_'
'격려'
'게이'
'검찰은_'
'검증_'
'걸음_'
'거쳐_'
'거의_'
'개통'
'개최된_'
'개시'
'개사_'
'강좌_'
'강력_'
'감축_'
'감염병_'
'가지'
'가족들'
'가졌다고_'
'가전'
'가뭄_'
'가맹점_'
'가까이_'
'가공'
'前'
'↑"_'
'…"""_'
'···'
'for_'
'e스포츠'
'c'
'VS_'
'SBS_'
'LG화학_'
'KP'
'KC'
'IP_'
'GM'
'GA'
'FI'
'FDA_'
'FA'
'CJ대한통운_'
'CCTV_'
'CB'
'A매치_'
'?"""_'
'9조'
'9일까지_'
'9단'
'96'
'8회_'
'84'
'8000'
'7시_'
'7시'
'750'
'7000'
'6억원'
'63_'
'6000'
'50주년_'
'4연승_'
'3번째_'
'30주년_'
'2루타_'
'2경기_'
'240'
'220'
'20일까지_'
'20여'
'2014년_'
'200원_'
'1회'
'1대_'
'16강_'
'15년'
'140'
'128'
'11억'
'116'
'1100'
'10년'
'0회_'
'0억_'
'0분_'
'09'
'00'
'.."_'
','
'%…_'
'!'_'
'!' _'
'히트'
'희귀'
'흑자'
'휴대전화_'
'훔친_'
'후보자'
'후보는_'
'후반기_'
'획득했다고_'
'회의'
'환경부'
'확진자'
'화보_'
'화물'
'화가_'
'형을_'
'협정_'
'현재'
'현대건설'
'헌재_'
'향하고_'
'향상'
'행복_'
'해킹_'
'해상_'
'해고'
'해결하'
'한의'
'한남'
'한국전력'
'한국전'
'한국을_'
'한국시리즈_'
'한국경제'
'한국GM_'
'학자_'
'하이트진로_'
'하원_'
'하여_'
'하마'
'표명'
'폭염'
'포항시'
'포트_'
'포를_'
'포니'
'포기_'
'폐기_'
'펼치고_'
'펑'
'펀딩_'
'펀드를_'
'퍼팅_'
'판교_'
'판결'
'파트너_'
'파워_'
'파리_'
'튼_'
'특별위원회_'
'트윈스'
'트에서_'
'트리_'
'트레'
'트랙_'
'투자설명회_'
'투구'
'퇴장_'
'통일_'
'톱_'
'토지'
'토론_'
'토너먼트_'
'테크놀로지_'
'테일'
'테라스_'
'택지'
'택배_'
'태국'
'탑재한_'
'탑재_'
'탈환_'
'탈락_'
'탄핵심판_'
'타임'
'타이완_'
'타워'
'크스'
'크리'
'크루즈_'
'크로'
'코웨이_'
'코리아에'
'코딩'
'코넥스_'
'케이스_'
'케미칼'
'컴퓨터_'
'컬러'
'캡'
'캠페인을_'
'캐리'
'카카오게임즈_'
'카스'
'카드는_'
'침입'
'침대_'
'충북도_'
'충돌'
'출판'
'추징'
'추진한다고_'
'최소'
'최고위원'
'최강_'
'총통'
'촛불집회_'
'촉구하는_'
'체계'
'청소년들'
'청소'
'첨단소재_'
'철거_'
'철강_'
'챔피언스리그_'
'챔'
'채용박람회_'
'착수했다_'
'착공_'
'차지한_'
'차별_'
'징계'
'질서'
'진행하고_'
'진행된다_'
'진출한다_'
'진출을_'
'진술'
'진단_'
'직전_'
'직원들이_'
'직원들에게_'
'지침_'
'지주_'
'증가세'
'줘_'
'중증'
'중이라고_'
'중소벤처기업부_'
'중소기업중앙회'
'중독'
'중기중앙회_'
'중공업'
'준공'
'주호영_'
'주총_'
'주차'
'주유소_'
'주목'
'주권'
'죠_'
'종료'
'제철'
'제정'
'제안했다_'
'제로'
'제공한다_'
'제8'
'정현'
'정착'
'정의용_'
'정산'
'접촉_'
'전장'
'전역'
'전에서_'
'전시회'
'전설'
'전무'
'전면'
'전두환_'
'쟁점'
'재해'
'재미'
'재단이_'
'장애'
'장례'
'작은_'
'자율주행차_'
'자에_'
'자매'
'자리에서_'
'잊지_'
'있나_'
'입학'
'입찰'
'잃은_'
'읽'
'일환으로_'
'일원에서_'
'일본은_'
'일대'
'일가족_'
'인천시'
'인은_'
'이형'
'이크'
'이중'
'이정후_'
'이인영_'
'이어가'
'이슈'
'이동_'
'의한_'
'의학'
'의원총회_'
'의원의_'
'의무_'
'율은_'
'유세'
'유사'
'유망'
'유니폼_'
'유기'
'윌'
'위협'
'위험이_'
'위원회가_'
'위원장에_'
'위를_'
'웨스트'
'원주시'
'원인'
'원이'
'원더'
'원내대표'
'원내대책회의_'
'원내'
'움을_'
'운전자_'
'운명'
'우천_'
'우수사례_'
'우수기관_'
'우려에_'
'우대'
'욕설'
'요구하'
'외치고_'
'올려_'
'오지'
'오라'
'오늘은_'
'오늘'
'예비_'
'예금_'
'예금'
'영천'
'영동'
'였'
'연승_'
'연설_'
'연관'
'역할'
'역량'
'여주'
'여수시'
'여객기_'
'여가'
'엑'
'에어컨_'
'업체와_'
'업종_'
'업자_'
'언급'
'양수'
'양궁'
'알바'
'알뜰'
'아프리카TV_'
'아트_'
'아가_'
'싶어'
'싶'
'실형_'
'실질적'
'실질'
'신화'
'신혼'
'신한은행'
'신임'
'시카고_'
'시청'
'시즌2_'
'시작된다_'
'시인_'
'시아_'
'시민이_'
'시리아'
'시도하고_'
'시내'
'시계_'
'스피커_'
'스틱_'
'스웨덴'
'슛을_'
'숨지고_'
'숨지게_'
'순창'
'순유출_'
'수입차_'
'수의_'
'수여_'
'수여'
'수수료'
'수성_'
'수상자_'
'수면'
'소장_'
'소장'
'소방서_'
'소리_'
'셜'
'션이_'
'세종시_'
'세부'
'세기'
'세계인'
'성에_'
'설명회를_'
'선포식_'
'선임'
'선박'
'선동'
'서명'
'서로_'
'샵_'
'생각_'
'상호금융'
'상태'
'상수도'
'상금_'
'삼척시'
'삼성전자와_'
'삼국지'
'사표_'
'사직'
'사외이사_'
'사옥_'
'사무실'
'사무소'
'사로잡'
'사고를_'
'빼'
'빵_'
'빌_'
'비핵화'
'비롯해_'
'블루_'
'블록체인'
'블로'
'불발_'
'분석했다_'
'분기'
'부천_'
'부진에_'
'부위원장_'
'부산지'
'부산에서_'
'부산국제'
'부르'
'봄철_'
'봄맞이_'
'보통_'
'보전'
'보입니다_'
'보석'
'변경됐다고_'
'베이_'
'베르'
'법을_'
'법원에_'
'밴드_'
'백지'
'배제_'
'배우자_'
'배구'
'방향을_'
'방해_'
'방송사'
'밝히는_'
'발전소'
'발언에_'
'발생하'
'발급_'
'반포'
'박차를_'
'바람'
'바라보고_'
'바뀐다_'
'밀어'
'민생'
'민관_'
'미만_'
'미국에_'
'문무일_'
'문경'
'묶'
'무제한_'
'무더기_'
'무궁화'
'무관'
'못하고_'
'몰려_'
'모씨'
'모두'
'명장'
'멘'
'맺고_'
'매치'
'매출이_'
'매출액은_'
'매도강세_'
'맘'
'말을_'
'말레이시아_'
'많다_'
'많'
'마크'
'리고_'
'류현진이_'
'롯데제과_'
'롯데건설_'
'로스_'
'로스'
'레전드_'
'레인'
'레이스_'
'레스'
'럭셔리_'
'랭킹_'
'라이트'
'라오스_'
'띠'
'뜻을_'
'뛰'
'떨어진_'
'딜_'
'딘'
'디아'
'등재_'
'둘러'
'둔화_'
'됐다는_'
'동포'
'동일'
'동원_'
'동원F_'
'동산'
'동문'
'동국대_'
'돕'
'돌파'
'돌아왔다_'
'도쿄_'
'도시락_'
'도르_'
'도로공사_'
'더스_'
'대형마트_'
'대표하는_'
'대표이사'
'대중'
'대우조선해양_'
'대외'
'당진'
'당분간_'
'당국_'
'닷컴'
'답변_'
'담보'
'담긴_'
'단축_'
'다저스'
'다음'
'다운로드_'
'다수_'
'닌_'
'니아_'
'늘었'
'늘리'
'눈이_'
'농업_'
'농가'
'놀이'
'노무현_'
'노린다_'
'내일'
'내용을_'
'내에서_'
'납품'
'남아'
'남긴_'
'날인_'
'난민'
'낚시'
'나오는_'
'나오'
'끝내'
'끔'
'끌'
'김진욱_'
'김종인_'
'김재환_'
'김인'
'김연'
'김부겸_'
'김대중_'
'김기'
'김경'
'길이_'
'기회를_'
'기회'
'기에'
'기업으로_'
'급식_'
'금융투자'
'금융지원_'
'글라'
'그룹은_'
'그래도_'
'그동안_'
'귀성'
'국토교통부는_'
'국악'
'국무장관'
'구호_'
'구에_'
'구미'
'구간'
'교회'
'교섭_'
'교섭'
'교도소'
'관에_'
'관련된_'
'관계자들과_'
'관계자는_'
'과징금_'
'공제_'
'공정거래위원회'
'공장에서_'
'공기청정기_'
'공급하는_'
'공개됐다_'
'공감_'
'곳에_'
'곡_'
'고조'
'고양이'
'고려대_'
'고려_'
'고교'
'경찰청장_'
'경찰관'
'경제성장률_'
'경영대'
'결론_'
'결_'
'겪고_'
'게임빌_'
'겁'
'검토하고_'
'걸려_'
'거제'
'거래소'
'거래량의_'
'거듭'
'개헌_'
'개최된다_'
'개장'
'개관'
'강화한다_'
'강행'
'강조_'
'강세를_'
'강세다_'
'강도_'
'값'
'가져'
'가의_'
'가와'
'가속화_'
'가상'
'가맹점'
'가능성을_'
'車'
'美국'
'男_'
'獨_'
'’, ‘_'
's'
'h_'
'an'
'Y_'
'UHD_'
'SUV_'
'SE'
'P2P금융'
'P2P'
'NH투자증권은_'
'MC'
'LTE_'
'LS'
'LG디스플레이'
'KT가_'
'KTB투자증권_'
'J_'
'ICT'
'IBK투자증권_'
'FA컵_'
'DB_'
'CM'
'BB'
'AR_'
'9명'
'9년_'
'99_'
'960'
'92_'
'7조'
'7일부터_'
'7이닝_'
'7월부터_'
'7억'
'700원_'
'6회_'
'5일부터_'
'4경기_'
'3차'
'3승_'
'31일부터_'
'30일부터_'
'300만'
'2종_'
'2억원'
'2대'
'29일부터_'
'26일까지_'
'2500'
'21대_'
'2019'
'1월부터_'
'1심에서_'
'1실점_'
'1만원'
'1대'
'1기_'
'1개월_'
'14일부터_'
'13일부터_'
'1300'
'122'
'11일부터_'
'101'
'100억_'
'0명_'
'07'
'02_'
'+, _'
''…""_'
''… _'
'!'
' ↑"_'
' ''
'희생자_'
'흥국'
'흥_'
'휴스턴_'
'휴가'
'회장으로_'
'황창규_'
'황제_'
'환율이_'
'확대에_'
'화해'
'화폐'
'화천'
'화이트데이_'
'화웨이'
'화면'
'홍보대사_'
'홈플러스_'
'홀딩스'
'혼자_'
'호반'
'호날두'
'형제'
'협약식_'
'협상을_'
'현대중공업'
'현대모비스'
'헨'
'헝앱_'
'헌법_'
'행안부_'
'행사에서_'
'행복주택_'
'핸드'
'해킹'
'해결을_'
'항암'
'항소심_'
'항공권_'
'합류'
'할머니_'
'한샘_'
'한상'
'한도'
'한다면_'
'한국전력_'
'한국은_'
'한국어판'
'한국마사회_'
'한국당'
'한국국'
'한국교'
'학회'
'하청'
'하천_'
'하드'
'하는'
'하겠다는_'
'필요성'
'필름_'
'핀_'
'피하'
'피어'
'피겨_'
'프로골프'
'퓨처스_'
'풋'
'푸르지오_'
'포스'
'폐사'
'폐렴_'
'편집'
'편성'
'펠'
'페인'
'팩토리_'
'패럴림픽_'
'판정을_'
'판매하는_'
'판매하'
'판결_'
'파키스탄_'
'파주시_'
'파일'
'파운드'
'티에'
'트에_'
'트랙터'
'투자자들'
'투명'
'톰'
'톡'
'테마_'
'테마'
'터치_'
'터미널'
'터를_'
'터널_'
'태평양_'
'태극'
'태권도'
'태광'
'탓'
'탐방_'
'탈환'
'탈북'
'타선_'
'킨텍스에서_'
'콜라'
'콘퍼런스_'
'컴투스'
'컨테이너'
'컨설팅'
'커스'
'캐피탈_'
'카타르_'
'칩_'
'침체'
'칠_'
'치과'
'측은_'
'취재'
'출하'
'출전해_'
'최첨단_'
'최지만_'
'최신'
'최선_'
'최고위원회의에서_'
'최고위원_'
'총액_'
'초등생_'
'초대형_'
'초대'
'초과'
'철거'
'천안_'
'척_'
'창원시_'
'창고'
'참여하'
'착용'
'차이나'
'차이_'
'짧'
'집에서_'
'집계'
'진흥'
'직후_'
'지하_'
'지켜보는_'
'지원하'
'지상파_'
'지사가_'
'지배구조_'
'지문'
'지능형_'
'지난해보다_'
'지급하'
'지금까지_'
'증인'
'증언'
'증시는_'
'증세'
'증설_'
'증거'
'증가하며_'
'즐길_'
'중앙대'
'중립'
'중기청_'
'중고'
'중간'
'준비하는_'
'주택담보대출_'
'주차_'
'주제'
'주일'
'주에_'
'주석'
'주변'
'주목된다_'
'주간'
'종목'
'조회_'
'조합원'
'조치를_'
'조세'
'조선중앙통신이_'
'조문'
'제휴를_'
'제지'
'제주특별자치도'
'제주시_'
'제시했다_'
'제거'
'제2의_'
'제18'
'제11회_'
'제10'
'정확'
'정치적_'
'정진'
'정정'
'정읍'
'정은'
'정신_'
'정상회의'
'정상회담을_'
'정무수석'
'정기예금_'
'정규리그_'
'점프_'
'점검하고_'
'절차를_'
'절차'
'전하'
'전투기'
'전자랜드_'
'전보다_'
'전문점_'
'전년동기_'
'저지_'
'저작권'
'저녁_'
'잭'
'재배'
'재단'
'재건축'
'장정석_'
'장점'
'장병_'
'작업'
'자와_'
'자영업자_'
'자산관리_'
'자동_'
'있지만_'
'있으며_'
'있다면_'
'있겠'
'입시'
'입법_'
'임차'
'임직원'
'임시정부_'
'임상'
'임대주택_'
'임기_'
'일시_'
'일단_'
'일괄'
'일간_'
'인치_'
'인에'
'인사청문회'
'인명진_'
'인과_'
'이희'
'이태원_'
'이철'
'이준'
'이자'
'이용할_'
'이완'
'이에'
'이번주_'
'이번'
'이바'
'이모'
'이면_'
'이름_'
'이라_'
'이글스'
'의혹에_'
'의전'
'의성'
'의결'
'음악_'
'은행권_'
'유해_'
'유치원'
'유족'
'유저들'
'유은혜_'
'유산_'
'윈_'
'위협_'
'위헌'
'위원회의_'
'위원장은_'
'위메프_'
'웨딩'
'월드시리즈_'
'원들'
'워터'
'워싱턴_'
'울주군_'
'운영하고_'
'운영을_'
'운영위원'
'우원식_'
'우수기'
'우리카드_'
'우리은행은_'
'우는_'
'용지_'
'용역_'
'요금제_'
'요구에_'
'외인_'
'외부'
'외교부는_'
'왕자_'
'왓'
'완료했다고_'
'와일드'
'와이파이_'
'오후부터_'
'오픈했다_'
'오리온'
'예탁'
'예정이'
'예약판매_'
'예선'
'영향'
'영입을_'
'영월'
'영업이익은_'
'영업이익'
'영업_'
'영상을_'
'영구'
'열사_'
'연습경기'
'연료'
'연락'
'연구개발'
'역투_'
'역전'
'여파_'
'여전'
'여자농구_'
'여의도'
'여부'
'엠씨'
'엔터테인먼트'
'에만_'
'없었'
'없어'
'업소_'
'업그레이드_'
'얼굴_'
'억원에_'
'어치_'
'어요_'
'어업'
'어머니'
'어린_'
'어려움을_'
'양산_'
'양보'
'양도'
'약품_'
'안팎'
'안정_'
'악수하고_'
'아이에스'
'아이스하키_'
'아쉽'
'아버지'
'아모레퍼시픽'
'아나운서'
'쏜'
'심화'
'심의'
'심각한_'
'실현'
'실종'
'실장'
'실시한_'
'실사'
'신축'
'신천지_'
'신재'
'신입생_'
'신입'
'신의_'
'신공항_'
'시흥'
'시작하는_'
'시신'
'시승'
'시세'
'시상식을_'
'시사'
'시나'
'시급_'
'시간을_'
'승용차_'
'슬로'
'스피드'
'스킨'
'스크린'
'스퀘어_'
'스위'
'스스'
'슈_'
'쉬_'
'순유입_'
'순매도_'
'수혜'
'수출규제_'
'수지_'
'수제'
'수요_'
'수색_'
'수를_'
'소울_'
'소녀상_'
'센트럴'
'세컨'
'세종시'
'세종로_'
'세이'
'세무사'
'성윤모_'
'성분_'
'성북구_'
'성명_'
'성대'
'설계_'
'선택한_'
'선진'
'선정한_'
'선정돼_'
'선수단'
'선수는_'
'선거법_'
'서희'
'서울시교육청'
'서울시가_'
'서브'
'서대문구_'
'서남'
'생이_'
'생들'
'새로'
'상호'
'상향'
'상정'
'산은_'
'산단_'
'삭스'
'사항을_'
'사하'
'사전예약'
'사전등록_'
'사임_'
'사우스'
'사용하'
'사용자'
'사업자_'
'사업본부'
'사령부'
'사구_'
'뿔'
'빠르'
'빔'
'빈이_'
'비행_'
'비하_'
'비즈니스'
'비슷'
'비서실장_'
'블랙_'
'브라질'
'뷰_'
'붙은_'
'불황'
'불확실성_'
'불가_'
'분리'
'분께_'
'북한은_'
'부터는_'
'부족'
'부장_'
'부상으로_'
'부산항_'
'부산지역_'
'보존'
'보육'
'보우'
'보며_'
'보류_'
'보너스_'
'보급_'
'보급'
'병원에서_'
'병사'
'변신'
'변동성_'
'베스'
'베리_'
'법관'
'벌이'
'벌_'
'번호'
'번째로_'
'배틀'
'밭'
'방향'
'방한'
'방침_'
'방북_'
'발표회_'
'발언'
'발부'
'발매_'
'발리'
'발견됐다_'
'받지_'
'반전_'
'박진'
'박수를_'
'바이_'
'바라보는_'
'바꿔'
'바꾸'
'밍_'
'민주화'
'민이_'
'민원_'
'믹'
'미스터'
'미사일'
'미리_'
'미래에셋'
'미군'
'물놀이'
'문화관광'
'문서'
'문구'
'무효_'
'무릎_'
'몬스'
'모터스'
'모리'
'모니터'
'명절'
'명단_'
'멸'
'면담'
'메_'
'매출을_'
'매직'
'매입_'
'맞대결'
'맑고_'
'만찬_'
'만달러_'
'마이크_'
'마스터_'
'마스'
'마비'
'마드리드_'
'마드리드'
'릭스_'
'리콜'
'리얼'
'리버'
'리드'
'리더'
'를'
'루이'
'로밍_'
'로마'
'렌터카_'
'렌_'
'레저'
'러지'
'러스_'
'러스'
'량을_'
'랭킹'
'램_'
'뜻_'
'뛰어난_'
'똑'
'또는_'
'떠나'
'딩_'
'디자이너_'
'디에스'
'등판'
'등장'
'들어선다_'
'들어갔다_'
'들어간다_'
'드레'
'뒤늦게_'
'둥'
'됨에_'
'되었다_'
'돼지_'
'동을_'
'동시'
'동반성장_'
'동맹'
'동력_'
'동거'
'돌파를_'
'독립_'
'독감_'
'도움이_'
'도에_'
'도서관'
'도서'
'덴마크_'
'덮'
'덜'
'더민주_'
'더니_'
'대회에_'
'대표팀이_'
'대표이사가_'
'대표들'
'대통령에게_'
'대원'
'당하'
'당초_'
'답변'
'닫'
'단일팀_'
'단의_'
'단은_'
'다문화가정_'
'능력_'
'뇌_'
'놓치'
'농심_'
'논문_'
'노바'
'년간_'
'넘은_'
'냈'
'내외_'
'내리고_'
'남북정상회담_'
'나이_'
'나쁜_'
'나란히_'
'나눠'
'꿀'
'꼴'
'김현종_'
'김수'
'김명수_'
'길을_'
'긴장'
'기자회견에서_'
'기의_'
'기용'
'기업은_'
'기업들이_'
'기성용'
'기구'
'기관의_'
'기관은_'
'기각'
'급제'
'금융그룹_'
'금리를_'
'금고'
'금강'
'극적인_'
'그만'
'그런데_'
'균형발전'
'규탄'
'귀경'
'궐'
'군인'
'국회에_'
'국회서_'
'국제선_'
'국제사회'
'국세청'
'국산_'
'국방_'
'국경'
'국가지'
'구상'
'구리_'
'구로구_'
'구도_'
'교정'
'교육생_'
'교원_'
'교민_'
'괜찮'
'관은_'
'관광객'
'과학기술정보통신부_'
'과학기술_'
'과제'
'과일_'
'곶'
'공직선거법_'
'공조'
'공매도_'
'공개하'
'공간으로_'
'곳에서_'
'곳곳에_'
'곰'
'골밑'
'고성'
'고르'
'고급_'
'고객들'
'계획이라고_'
'경찰의_'
'경찰관_'
'경정'
'경우'
'경상수지_'
'경북지'
'경륜'
'경기도가_'
'결정하'
'견인_'
'겪'
'격리_'
'겨냥_'
'게임즈는_'
'게임즈'
'게임의_'
'게임을_'
'검사장비_'
'걸렸다_'
'걸그룹_'
'건의'
'건강보험_'
'건강보험'
'거짓'
'거제_'
'거부하'
'거래량을_'
'갯'
'갤럭시'
'개점_'
'개소식'
'개선방안_'
'같'
'강행_'
'강제_'
'강정호'
'감시_'
'간판_'
'간담회'
'가습기_'
'가격은_'
'▲_'
'… ‘_'
'd'
'TS'
'SK텔레콤이_'
'SK이노베이션_'
'SG'
'OS_'
'ON'
'OK_'
'NH농협'
'NH'
'NA'
'ML_'
'LPGA_'
'LI'
'LG생활건강_'
'LC'
'K리그2_'
'KTB'
'KB손해보험_'
'KA'
'IB'
'G마켓_'
'GM_'
'EP'
'EM'
'CS'
'CJ푸드빌'
'CGV'
'CEO'
'AR'
'?'
'9월부터_'
'9억'
'8조'
'8개'
'7명'
'6억_'
'6개'
'67_'
'5명'
'5경기_'
'5개'
'560'
'550'
'51_'
'500원'
'4회_'
'4층_'
'4시_'
'4번_'
'4배_'
'4명이_'
'4당_'
'49_'
'44_'
'40만'
'4000억'
'3층_'
'3점'
'3일'
'3연'
'3억원'
'2위로_'
'2연승_'
'2억'
'2만_'
'2라운드_'
'2개월_'
'290'
'27일까지_'
'260'
'21일부터_'
'20주년_'
'2020년도_'
'2013년_'
'1층_'
'1년간_'
'1Q_'
'19일까지_'
'19대_'
'158'
'150원_'
'13일까지_'
'12년_'
'123'
'114'
'10일'
'10억_'
'100명_'
'1000억원_'
'0만원_'
'0만원'
'05'
'00만원_'
'...'
'-'
'%↓_'
'% ↑"_'
'"" '
' / _'
'％'
'힌'
'흐름을_'
'휴직_'
'휴일'
'휠'
'훼손'
'후보자는_'
'효과가_'
'회장과_'
'회의에_'
'황금'
'활용하'
'활동에_'
'환율'
'환경영향평가'
'혼조'
'호텔신라_'
'협동'
'현황'
'현진'
'현대제철_'
'현대로템_'
'헬'
'헤드'
'향상_'
'행위를_'
'햇'
'핸'
'해진_'
'해운'
'해요_'
'해양경찰청'
'해설_'
'해변'
'해남'
'항소'
'항공편'
'합의했다_'
'합류_'
'합_'
'함께'
'한화생명_'
'한중_'
'한전'
'한우'
'한복'
'한미일_'
'한마음'
'한때_'
'한국프로축구연맹'
'한국타이어'
'한국철도'
'한국장'
'한국자'
'한국은행이_'
'한국대'
'한국관광'
'한국거래소'
'한계'
'학원'
'학습_'
'학사'
'하고'
'필요'
'필로'
'필라델피아_'
'피앤'
'피스'
'피고'
'플레이스'
'플라자'
'프리미어_'
'프레스'
'푸르'
'표정'
'폭으로_'
'폭스바겐_'
'폭스'
'포착'
'평화적_'
'펼쳐'
'펼'
'편지_'
'편의점'
'펫_'
'펜싱'
'펙트_'
'페이스북'
'페라'
'퍼트'
'팬들'
'패널_'
'팜'
'판을_'
'판에_'
'파이터_'
'파울루_'
'파우치_'
'파손'
'파리'
'틸'
'특성'
'특별전_'
'특별법_'
'트랙'
'트라'
'툰'
'투자하'
'통신사_'
'통신비_'
'토지_'
'토익_'
'텔레'
'테니스_'
'터가_'
'태양광발전'
'태권도_'
'탕'
'탈퇴'
'탄력'
'탁구'
'타인'
'타이틀'
'타는_'
'킨텍스'
'키움증권은_'
'크루'
'크라운'
'크다_'
'쿨_'
'쿠르'
'쾌적한_'
'콘셉트'
'코트'
'코칭스태프_'
'코인'
'코스피'
'코스닥시장_'
'코미'
'코로나'
'코레일'
'케이블_'
'컴투스_'
'컨퍼런스'
'컨소시엄'
'컨벤션센터에서_'
'컨벤션'
'캐나다'
'캄'
'카라'
'칭찬'
'칭_'
'침묵_'
'친선'
'칙'
'치기_'
'측정_'
'측근_'
'츄'
'취지'
'충청_'
'충격'
'출원'
'출석하고_'
'출근하'
'춘_'
'추진설_'
'추진된다_'
'추정'
'추신수가_'
'추락'
'최지'
'최저'
'최장_'
'최승'
'최대주주가_'
'총재가_'
'촉진'
'초읽기_'
'초고속_'
'첼시_'
'체제'
'청주시_'
'천재'
'천막'
'처벌'
'처방'
'창사_'
'참여해_'
'참사'
'참관'
'찬성_'
'찬성'
'차우찬_'
'짝_'
'징역형_'
'징역형'
'집행위원'
'질주'
'질병_'
'질병'
'진주시'
'진정한_'
'진정'
'진에어'
'진료_'
'직원들_'
'지표_'
'지출'
'지주회사_'
'지주사_'
'지정된_'
'지적장애'
'지원하기_'
'지역사회_'
'지수'
'지속적'
'지리'
'지금'
'증시'
'증명'
'증권에서_'
'즉시_'
'즈가_'
'중장기_'
'중순'
'중소형_'
'중동_'
'중남미_'
'중국은_'
'죽_'
'주행_'
'주한미군'
'주최한_'
'주최하는_'
'주주총회를_'
'주전_'
'주인공'
'주식형펀드_'
'주시'
'주관한_'
'주공'
'종의_'
'종가_'
'졸음'
'존중'
'조회공시를_'
'조현'
'조지'
'조정했다_'
'조양호_'
'조명_'
'조류인플루엔자_'
'조건_'
'졌'
'제의'
'제과'
'제고'
'제8회_'
'제7회_'
'제13회_'
'정통'
'정체_'
'정원_'
'정용'
'정식'
'정상회의_'
'정보기'
'정면'
'정규직'
'접수를_'
'점포'
'전직_'
'전적'
'전이_'
'전수'
'전성'
'전선'
'전사'
'전반'
'전략회의_'
'전개_'
'전개'
'저스'
'재선'
'재단과_'
'재개발_'
'장시'
'장수_'
'장관의_'
'장관을_'
'잡는다_'
'잠정'
'잘못_'
'잔치_'
'작전_'
'작업을_'
'자회사인_'
'자카르타_'
'자체'
'자진'
'자제_'
'자재_'
'자인_'
'자이언츠_'
'자연_'
'자신감_'
'자수'
'자사가_'
'자립'
'자금이_'
'자격증_'
'잉글랜드_'
'잇는_'
'입지_'
'입성_'
'임을_'
'임실'
'임명장_'
'일하는_'
'일정을_'
'일별_'
'일렉트로'
'인터내셔널'
'인천국제공항을_'
'인천국제공항_'
'인제_'
'인을_'
'인삼'
'인문'
'인근'
'인공지능'
'이화'
'이평선이_'
'이지만_'
'이재갑_'
'이용자'
'이오'
'이스라엘'
'이송_'
'이사장에_'
'이브'
'이병'
'이목'
'이라크'
'이동통신'
'이끌었다_'
'의해_'
'의사를_'
'의무화_'
'의류_'
'의결_'
'음주_'
'은행의_'
'융합_'
'율이_'
'육상'
'유효_'
'유튜브'
'유출'
'유진투자증권_'
'유입_'
'유아'
'유성엽_'
'유상'
'유보'
'유벤투스_'
'유방암_'
'유물'
'유망주_'
'유럽증시_'
'유동'
'유니폼을_'
'유니클로_'
'유나이티드_'
'위원회는_'
'위원'
'위에서_'
'위안'
'월성'
'원회'
'원장이_'
'웅진'
'웃었다_'
'웃돌'
'울릉'
'우한_'
'우정'
'우리카드'
'용기_'
'요구하는_'
'요건_'
'외화'
'외국인투자'
'외국어'
'외국계_'
'올인'
'옥천군'
'옥션_'
'오페라'
'오승환이_'
'오를_'
'오르는_'
'오거돈_'
'오가'
'옐로'
'예정된_'
'예외'
'예약'
'예방을_'
'영종'
'영입했다_'
'영유아'
'영원'
'영업이익률_'
'영수'
'엽'
'열기_'
'연합회_'
'연일_'
'연설'
'연구기관'
'여자프로농구_'
'여자배구_'
'여성가족부_'
'여론조사_'
'여고생_'
'엔트리_'
'엔지니어링_'
'에이스'
'에게'
'업계에_'
'얼_'
'얻'
'언제까지_'
'언스'
'억원'
'어촌'
'어르신_'
'어렵다_'
'어느_'
'양양_'
'양산시'
'양대_'
'야외'
'애니'
'애경'
'압류'
'알고리즘_'
'않기로_'
'안전한_'
'안전관리'
'안영'
'안내_'
'아이파크'
'아이돌'
'아우디_'
'아레나'
'씨티'
'씨엔'
'쓴다_'
'쏠'
'쌍둥이_'
'십_'
'심사위원'
'심각'
'실리콘'
'신흥국_'
'신한_'
'신정'
'신용정보'
'신상'
'식에서_'
'식에_'
'시킬_'
'시키고_'
'시절_'
'시작했다고_'
'시작한_'
'시작되'
'시외버스'
'시사_'
'시리즈'
'시니어'
'승진'
'승소_'
'승마'
'스틸'
'스트리'
'스토어'
'스테'
'스터_'
'스타트업'
'스킨_'
'스카'
'스윙'
'스와_'
'스와'
'스에_'
'스마트공장_'
'슈팅_'
'숨졌습니다_'
'순조'
'숙박'
'수험생_'
'수해'
'수지'
'수중'
'수유'
'수위_'
'수용'
'수여식_'
'수산시장_'
'수산물_'
'수련'
'수도'
'수강'
'송금'
'솔로포_'
'손으로_'
'손님'
'소화_'
'소집_'
'소주_'
'소외'
'소식_'
'소설_'
'소비_'
'소감_'
'소각'
'셔_'
'셈'
'센트_'
'세일'
'세이브_'
'세우'
'세로_'
'세계최'
'성폭행'
'성주'
'성인'
'성분'
'성매매_'
'설명회'
'설명하고_'
'선임했다_'
'선수들의_'
'선발대회_'
'선고됐다_'
'석에'
'석사'
'서한'
'서울시장이_'
'서스'
'서버'
'서문시장'
'서명_'
'샷'
'생기'
'생각하'
'상황실에서_'
'상황실_'
'상품권_'
'상조'
'상의_'
'상용차_'
'상권'
'살펴'
'살아'
'살균제_'
'산학협력_'
'산하'
'산사태_'
'사회적기업_'
'사회복지공동모금회'
'사회가_'
'사이에_'
'사이_'
'사업장'
'사업자'
'사업비_'
'사실을_'
'사범'
'사모펀드_'
'사령관_'
'사람을_'
'사드'
'사건을_'
'사건과_'
'빈소_'
'비에'
'비스'
'비밀_'
'비밀'
'비례'
'비교해보니_'
'비교_'
'블라'
'브리핑룸에서_'
'불편'
'불리'
'불구속_'
'분수'
'분석한_'
'부평'
'부총리'
'부채'
'부적'
'부산서_'
'부리'
'봉투_'
'본회의장에서_'
'본점에서_'
'복무'
'복권_'
'보험료'
'보좌관_'
'보조금_'
'보여_'
'보성'
'보람'
'보낸_'
'보고회_'
'보건소_'
'보건복지'
'벤처기업'
'베트남에_'
'베어스'
'베어'
'베니'
'법정_'
'법무부'
'벌금형_'
'번이'
'뱅킹_'
'밴'
'백악관'
'배틀그라운드_'
'배틀_'
'배정_'
'배당을_'
'배구_'
'방침'
'방위비_'
'방산'
'발표하'
'발의'
'발을_'
'발목_'
'발명'
'발매'
'발레'
'받았습니다_'
'반전'
'반응'
'반려'
'밖에_'
'박인'
'박병호'
'바쁜_'
'바닷'
'바다_'
'밀_'
'민중'
'민주_'
'민속'
'미소'
'미만'
'미래에셋_'
'미니_'
'미국서_'
'물론_'
'물로_'
'물러'
'묻는_'
'문제에_'
'문이_'
'무소속_'
'무부_'
'무료로_'
'무더위_'
'몽골'
'몽_'
'몸에_'
'목표는_'
'목포_'
'목포'
'목소리를_'
'모자'
'명절을_'
'명예훼손_'
'명예의_'
'면허'
'메이저_'
'메모리_'
'메달'
'멈'
'멀티_'
'먹거리_'
'맨시티_'
'매수우위를_'
'매매회전율이_'
'만지'
'만루_'
'만대_'
'만남_'
'막는_'
'막기_'
'마트_'
'마트'
'마이너'
'마리를_'
'링크'
'릭'
'리치'
'리버풀'
'리니지M_'
'류현진은_'
'류장'
'룬_'
'루스'
'롱_'
'롯데호텔에서_'
'롯데캐슬_'
'롬_'
'롤드컵_'
'로서_'
'레이싱_'
'레이스'
'라이프스타일_'
'라이트_'
'뚱'
'뚫고_'
'떨어'
'떡국_'
'딸기_'
'딕'
'등락'
'들여'
'들에_'
'드가_'
'뒤집'
'둔'
'되어'
'되기'
'됐지만_'
'동해안_'
'동아리_'
'동상'
'동북아_'
'동부_'
'돔_'
'돌풍_'
'돌려'
'돋보이는_'
'도착한_'
'도와_'
'도미'
'델_'
'데일리'
'덧붙였다_'
'대회를_'
'대해서는_'
'대표이사를_'
'대표이사로_'
'대표의_'
'대타로_'
'대장정_'
'대입_'
'대우조선_'
'대양'
'대상자'
'대사관_'
'대비해_'
'대부분'
'대법원장_'
'대기업'
'대관'
'당했다_'
'당해_'
'당첨금_'
'당당'
'달만에_'
'달리_'
'달러에_'
'단에서_'
'단에_'
'다우'
'다문화'
'닛산_'
'니티'
'느껴'
'눌'
'눈치'
'눈물_'
'높이'
'농식품_'
'농림축산식품부'
'농가에_'
'노출'
'노선'
'노벨'
'노리'
'넥센타이어_'
'네이처'
'넣은_'
'넘어서'
'널_'
'넌'
'냄'
'내용'
'내셔널'
'내리는_'
'낮부터_'
'낭'
'났습니다_'
'났'
'남해군'
'남양주시'
'날을_'
'날리고_'
'나타나'
'나아'
'나섰습니다_'
'나들'
'끌어'
'끈다_'
'꿈_'
'꼭_'
'깃'
'김해_'
'김철'
'김우'
'김영주_'
'김보'
'김무성_'
'김도'
'김기태_'
'기준치_'
'기조'
'기장'
'기자회견'
'기자들의_'
'기여'
'기업은행_'
'기아자동차'
'기대된다_'
'기대감_'
'기다리'
'기관에_'
'기관과_'
'기간을_'
'기간에_'
'급락'
'금융위원회'
'금융위기_'
'금융사_'
'금융기관_'
'금속_'
'근거'
'극찬_'
'극단'
'그룹과_'
'그런_'
'국회의장이_'
'국회의장과_'
'국회가_'
'국제교류'
'국정감사_'
'국적'
'국민이_'
'국민연금'
'국무총리'
'국무부_'
'국기'
'구직'
'구제역_'
'구장'
'구의_'
'구를_'
'구로'
'교통_'
'교수를_'
'교과서_'
'교과'
'괴물'
'광장'
'광명시'
'관제'
'관리하'
'관계자_'
'곽'
'과학자'
'과기'
'과거_'
'과거'
'공청회_'
'공주'
'공정_'
'공영'
'공백_'
'공기업_'
'공군_'
'공개하고_'
'공개채용_'
'골프장_'
'고지_'
'고자_'
'고위급_'
'고용노동부'
'고용노동'
'고영태_'
'고성_'
'고등학교_'
'계단_'
'경향'
'경질_'
'경례'
'경기도지사'
'경기도교육청_'
'경계'
'결의_'
'격려_'
'게임산업'
'것도_'
'검찰청'
'검색'
'검거'
'걸쳐_'
'걸린_'
'걷기_'
'건을_'
'건설현장_'
'건설이_'
'건설업'
'건설기'
'건설공사_'
'거액'
'갤럭시노트'
'갤럭시S'
'개최한_'
'개최하고_'
'개원'
'개선을_'
'개발사업_'
'개발사_'
'개로_'
'강화해'
'강화에_'
'강진_'
'강조'
'강의'
'강연'
'강북'
'강민'
'강등'
'강도'
'강대'
'갓'
'감자_'
'감소했다_'
'감독에_'
'간식_'
'간담회에_'
'가처분_'
'가짜뉴스_'
'가야'
'가속'
'가뭄'
'가맹'
'가를_'
'가르'
'가능성은_'
'가나_'
'가까운_'
'㎡_'
'‥_'
'“'
'‘ _'
'~'
'ra'
'pa'
'f'
'e편한세상_'
'al'
']_'
'SW_'
'ST'
'SO'
'SNS에_'
'SL'
'SK텔레콤과_'
'SK네트웍스_'
'SD'
'SA'
'RO'
'PSG_'
'OLED_'
'MG'
'MA'
'LG전자'
'LG의_'
'Kakao_'
'KI'
'KB금융_'
'KB국민카드_'
'IR'
'IOC_'
'IN'
'IB_'
'GS칼텍스'
'GP'
'G20_'
'FIFA_'
'EC'
'DMZ_'
'DM'
'DJ'
'CL'
'CGV_'
'BBC'
'BA'
'AD'
'?""'
'90억'
'8일까지_'
'8시_'
'8시'
'8년'
'88_'
'83_'
'7회_'
'7회'
'7억_'
'7만원'
'7대_'
'7년'
'5억원'
'5시_'
'59_'
'54_'
'50억_'
'5000만원_'
'4차산업_'
'4원_'
'4번째_'
'4단계_'
'4Q_'
'42_'
'41억'
'3회'
'3차전'
'3점슛_'
'3일부터_'
'3위'
'3시간'
'3루타'
'360'
'340'
'330'
'2호'
'2연패_'
'2시부터_'
'2시간'
'2배'
'2명'
'2Q_'
'26일부터_'
'23일까지_'
'23개_'
'2300'
'20년'
'2020년'
'2017년도_'
'2016년'
'200억원_'
'200억_'
'1차'
'1점'
'1월'
'1시_'
'1세'
'1분_'
'19일부터_'
'190'
'184'
'15만'
'14억'
'12개_'
'11시'
'11번가_'
'11개_'
'10일까지_'
'10억원'
'105'
'103'
'100만원'
'0원에_'
'0원'
'0시'
'01_'
'."" _'
'""..'
' ▲_'
' “‘_'
' ’_'
'女'
'힐만_'
'힌다_'
'히는_'
'흥국생명_'
'흘러'
'흐려'
'휴식_'
'휴식'
'휴무'
'휴대'
'휘발유_'
'훼'
'훔'
'후보에_'
'효과적'
'효과'
'회원사_'
'회에_'
'회생'
'환급'
'환경교육'
'확충_'
'확산으로_'
'확보하'
'확률은_'
'확대되며_'
'화제다_'
'화시'
'홍준'
'홍삼_'
'홈페이지를_'
'홀딩스는_'
'호흡'
'호의_'
'호스'
'호를_'
'혔다_'
'협조'
'협동조'
'혐의'
'현충원_'
'현안'
'현대홈쇼핑_'
'현대카드_'
'현대차그룹_'
'현대산업'
'혁신기'
'허가'
'행보_'
'했다며_'
'해커'
'해운대구_'
'해운_'
'해역'
'해설'
'해석'
'해리_'
'항공기'
'합병'
'함에_'
'한해_'
'한컴'
'한정'
'한전K'
'한양대_'
'한류'
'한라'
'한눈에_'
'한국프로'
'한국토지주택공사는_'
'한국지'
'한국여성'
'한국야쿠르트_'
'한국시'
'한국산업의_'
'한국산업단지공단'
'한가'
'학부모'
'하이파이브_'
'하반기에'
'하늘_'
'하는데_'
'하노이'
'핑크_'
'필립'
'필드_'
'피칭'
'피자'
'피안타_'
'피부_'
'플렉스'
'플레이어'
'플러'
'플랜'
'플라이'
'플라'
'픈_'
'프리미엄'
'프레스센터에서_'
'풍력'
'품을_'
'푸조_'
'표현'
'표가_'
'폭이_'
'폭언_'
'폭스바겐코리아'
'폭로_'
'포함해_'
'포트나이트_'
'포털_'
'포털'
'포천'
'포장_'
'포스트_'
'포르투'
'포르쉐'
'평화를_'
'평택_'
'평택'
'평생교육'
'펼치는_'
'펼쳐_'
'펙'
'펀딩'
'패스트트랙_'
'판사_'
'판문점_'
'판매가_'
'파트너십_'
'파트너'
'파주_'
'파인'
'파이널_'
'파업'
'팅크웨어_'
'티지_'
'티비'
'티는_'
'특허청_'
'특보'
'특별공'
'트와_'
'트론_'
'트렌드_'
'트럼프의_'
'트러스'
'투자한'
'투자주체별_'
'투자자문'
'투자유치_'
'투자에_'
'투입해_'
'투신'
'투런'
'투기'
'투구_'
'통상교섭본부장'
'통보'
'톡스'
'토론'
'텍사스_'
'테마파크_'
'테르'
'터리'
'터널'
'탱'
'탈바꿈_'
'탄생'
'탄도미사일_'
'클릭_'
'크리스탈'
'크라우드펀딩_'
'콜센터_'
'콘테스트_'
'콘서트'
'콕'
'코카'
'코리안'
'켓_'
'켓'
'케이피'
'케이크_'
'케어'
'컬러_'
'커리어'
'캠코_'
'캐주얼_'
'캐시'
'카오'
'카메라'
'카르'
'침수'
'친환경'
'친구'
'치에'
'측정'
'측이_'
'측면_'
'충북지'
'충북도'
'충남지'
'충남도_'
'출시된'
'출범식_'
'출동'
'축산'
'추적'
'추억'
'최하위_'
'최악_'
'최선'
'총동창회'
'총괄_'
'초록'
'초기_'
'초교'
'체크_'
'체육대회_'
'청이_'
'청은_'
'청원'
'철수_'
'처장_'
'처우'
'책임을_'
'책을_'
'채무_'
'찾았다_'
'창구_'
'참여연대_'
'참가자를_'
'참가자'
'착한_'
'차트'
'차지_'
'차이잉원_'
'차례'
'째를_'
'짜릿한_'
'징계를_'
'짓기'
'집행유예를_'
'질문_'
'진흥원은_'
'진행하'
'진실'
'직장_'
'지키'
'지지자들'
'지지율_'
'지원했다'
'지원센터'
'지와_'
'지오'
'지역을_'
'지역사회'
'지에서_'
'지시하는_'
'지사'
'지부_'
'지부'
'지방자치단체'
'지면서_'
'지난해'
'지급하는_'
'증자'
'증원'
'증여'
'증액_'
'즌_'
'줬'
'중징계'
'중진공_'
'중진'
'중점_'
'중점'
'중요성'
'중앙지'
'중앙은행_'
'중독_'
'중금'
'중국서_'
'중공업_'
'중계'
'중견기업'
'줄이'
'주춤_'
'주재로_'
'주자'
'주와_'
'주석_'
'주민참여'
'주먹'
'주력'
'주기'
'종이'
'종목의_'
'종가'
'좁'
'조항'
'조작'
'조원을_'
'조원'
'조용'
'조업_'
'조심'
'조속히_'
'조달청_'
'조달_'
'조계'
'제휴'
'제주도의회_'
'제주국제'
'제재를_'
'제재금_'
'제작한_'
'제보'
'제9회_'
'제26'
'제1호'
'제19대_'
'정우'
'정상회담'
'정비사업_'
'정비사업'
'정부세종청사_'
'정무'
'정례'
'정동영_'
'정국_'
'정경심_'
'접전_'
'점차_'
'점은_'
'젊'
'전형_'
'전체회의에서_'
'전체회의_'
'전체회의'
'전선_'
'전북대'
'전반_'
'전문가'
'전망이_'
'전도'
'전년동기'
'전기차'
'전국체전_'
'적합'
'적자전환_'
'저하'
'저출산_'
'저지'
'저감'
'쟁점_'
'쟁이_'
'잭_'
'재확'
'재현_'
'재학'
'재선임'
'재난안전'
'장현'
'장학재단'
'장하'
'장서_'
'장병완_'
'장려금_'
'장내'
'잘못'
'잔여'
'작성_'
'작성'
'작렬_'
'자전거'
'자원봉사자'
'자외선_'
'자세'
'자사의_'
'자본_'
'자들이_'
'자동화_'
'자고_'
'잊'
'있으면_'
'있어야_'
'있어'
'있고_'
'입당_'
'입당'
'입건'
'임종석_'
'임종룡_'
'임성재'
'임기'
'일주일_'
'일제_'
'일제'
'일으'
'일어나'
'일손'
'일보'
'일만에_'
'일과_'
'인피니티_'
'인트'
'인으로_'
'인들'
'인다_'
'인근에서_'
'인권위_'
'이혜훈_'
'이태'
'이탈리아'
'이치'
'이천_'
'이젠_'
'이제'
'이용자들'
'이어진_'
'이색_'
'이사회'
'이민'
'이라도_'
'이동통신_'
'이달부터_'
'이냐_'
'이끈_'
'이광'
'이강인'
'의회가_'
'의혹과_'
'의정부_'
'의정'
'의원을_'
'의왕'
'의식'
'의미_'
'의료기기_'
'응원하는_'
'응답'
'음주'
'음식_'
'은평구_'
'으로서_'
'으나_'
'육아_'
'유통업체'
'유전자_'
'유병'
'유망_'
'유가'
'윌리엄스_'
'위스'
'위기에_'
'위권_'
'웹젠_'
'웨어'
'원화'
'원하는_'
'원칙_'
'원칙'
'원익'
'원유_'
'원리'
'원료_'
'운영자금_'
'운동장'
'우한'
'우편'
'우수상'
'우수기업_'
'우산'
'우리에게_'
'우려를_'
'우량'
'용인시'
'욕_'
'요소'
'요가'
'외무장관'
'왜'
'완공_'
'올레드_'
'올레'
'오토바이_'
'오재원'
'오염_'
'예측'
'예산을_'
'영화관_'
'영주'
'열린'
'연합회'
'연탄'
'연주회'
'연이_'
'연안'
'연세대'
'연설하는_'
'연령'
'연도'
'역사적'
'역사상_'
'여진_'
'엔지니어링'
'엔지'
'에어부산_'
'에스엔'
'에스에'
'었습니다_'
'없애'
'얼음'
'얻은_'
'억원의_'
'어선'
'어린이날_'
'어리'
'어드'
'어도_'
'양주'
'양상'
'양국_'
'야스'
'야간_'
'앵'
'앨범_'
'앨'
'액은_'
'애플이_'
'애플리케이션_'
'았던_'
'암호'
'알고'
'안지'
'안정적_'
'안양_'
'안성'
'안산_'
'안동_'
'안동'
'악몽_'
'악_'
'아트센터'
'아이템_'
'아이스'
'아이비'
'아우'
'아쉬워'
'아무'
'아마추어_'
'아마존_'
'아기_'
'씨와_'
'쓰리'
'쓰러'
'썼다_'
'싹'
'싸움'
'실행'
'실태_'
'실태'
'실제'
'실점'
'실시하'
'실명'
'신호_'
'신학기_'
'신탁계약_'
'신지'
'신인'
'신이_'
'신용평가'
'신영증권'
'신약개발_'
'신성장'
'신생아_'
'신생'
'신부'
'신보'
'신메뉴_'
'신년인사회_'
'신기'
'식사'
'시키는_'
'시키'
'시켜_'
'시청자'
'시점_'
'시점'
'시작하'
'시위를_'
'시오'
'시연'
'시에_'
'시네마_'
'시내_'
'승점_'
'승리했다_'
'슬_'
'스톤_'
'스타일'
'스위치'
'슛_'
'쉼터_'
'쉬운_'
'쉐'
'숨은_'
'숨겨'
'순이익_'
'순방_'
'순매수했'
'수천'
'수익금_'
'수용_'
'수여하'
'수십'
'수술을_'
'수상한_'
'수상작'
'수상자로_'
'수상자'
'수사하'
'수료식_'
'수령'
'수기'
'수급과_'
'수강생_'
'송환_'
'송년'
'솜'
'손흥민의_'
'손실_'
'손보'
'속출_'
'속초'
'속도를_'
'소식'
'소스'
'소사'
'소방청'
'소멸'
'소개했다_'
'센텀'
'세트를_'
'세종문화회관_'
'세정'
'세번째_'
'세기_'
'세금'
'성황'
'성화_'
'성적_'
'성장을_'
'성의_'
'성산'
'성능_'
'성금'
'설이_'
'선이_'
'선수들을_'
'선보인_'
'선배'
'선발로_'
'선발대'
'선관위'
'선고받은_'
'석방_'
'서울중앙지검_'
'서울은_'
'서울에_'
'서울국제'
'서울과'
'서영'
'서산'
'서민_'
'서귀포시_'
'생체'
'샘표_'
'샘_'
'샌프란시스코'
'새만금'
'새마을금고_'
'상황에서_'
'상장을_'
'상원의'
'상시'
'상설'
'상반'
'삿포로_'
'삼성화재_'
'삼성증권은_'
'삼성물산'
'살피는_'
'살림'
'살렸다_'
'산학'
'산체스'
'산청군'
'산업진흥'
'산업용_'
'산업기술'
'산성'
'산물'
'산림청장'
'산다_'
'삭'
'사흘째_'
'사흘_'
'사회부총리_'
'사진전_'
'사전투표_'
'사장에_'
'사이에서_'
'사운드'
'사용자_'
'사용료'
'사업부'
'사살_'
'사무총장이_'
'사단법인_'
'사관'
'삐'
'빵'
'빠르게_'
'빙상'
'비행기_'
'비서실장'
'비비안'
'비보'
'비난'
'비건_'
'블리자드_'
'블라디'
'붐_'
'불만'
'불러_'
'불닭볶음면_'
'불공정_'
'불가능'
'분을_'
'분위기'
'분야에서_'
'북한과'
'북측'
'북구'
'부위원장'
'부여'
'부산대'
'부분_'
'부분'
'부결_'
'볼턴_'
'본관_'
'복수'
'복귀하'
'보호를_'
'보합'
'보복_'
'보물_'
'보다는_'
'보강'
'별도'
'벳'
'벤투'
'베어스가_'
'법제'
'범행_'
'번영'
'버전'
'버스정'
'버려'
'밸리_'
'밸리'
'밸류'
'백신'
'방통위_'
'방침이다_'
'방침을_'
'방지를_'
'방영'
'방식으로_'
'밤부터_'
'밝혀_'
'발주'
'발걸음'
'받았'
'반응을_'
'반복'
'반납_'
'박현'
'박종'
'박정희_'
'박용만_'
'박영'
'박세'
'박성현_'
'바지'
'바른미래_'
'바로'
'바다에_'
'민에'
'민관'
'민간임대'
'미탁_'
'미안'
'미술관_'
'미션'
'미사_'
'뮤직_'
'뮤직'
'뭐'
'물티슈_'
'물어'
'문화축제_'
'문화상_'
'문재인'
'문의'
'무협_'
'무원_'
'무면허_'
'무단'
'몸을_'
'몰이_'
'몬_'
'몬'
'모집'
'모은_'
'모빌리티_'
'모범'
'모래'
'모드'
'명의'
'명소_'
'면에서_'
'면에_'
'멜라'
'메트로'
'메이커_'
'멋'
'맵'
'맨유'
'맥_'
'매티스_'
'매월_'
'매력_'
'맞춤_'
'맞이해_'
'맞았다_'
'망명'
'맛집_'
'맑다가_'
'많아'
'만화_'
'만족_'
'만들고_'
'만나다_'
'만기'
'만개_'
'막말_'
'막는다_'
'마크롱_'
'마케팅'
'마운드_'
'릭_'
'리치_'
'리아_'
'리서치_'
'리더스_'
'리니지2'
'리나_'
'르는_'
'률'
'륜'
'루비'
'뢰'
'롯데홈쇼핑'
'롯데푸드_'
'롯데월드타워_'
'롯데월드_'
'롯데마트'
'롯'
'롭게_'
'로지'
'로우'
'로사'
'로보어드바이저_'
'로보'
'로버트_'
'로버'
'로그'
'렬_'
'렛츠런파크_'
'레이션_'
'레스터'
'레스_'
'렁'
'람_'
'라인업'
'라이온즈_'
'라이온즈'
'라이언'
'때문'
'디스크'
'등은_'
'등록을_'
'듯'
'든'
'드로_'
'드려'
'두산은_'
'두리'
'되었다고_'
'됐'
'돼지열병_'
'동탄'
'동참'
'동물복지'
'동남'
'동계올림픽'
'돌파하'
'도쿄올림픽_'
'도박_'
'도박'
'도매'
'도달_'
'덜_'
'던전_'
'대화하는_'
'대화를_'
'대한체육회_'
'대한상의_'
'대학원_'
'대표팀'
'대표단_'
'대통령을_'
'대타_'
'대치동_'
'대책위'
'대주주'
'대우_'
'대와_'
'대여'
'대에서_'
'대사에_'
'대법_'
'대면조사'
'대동'
'대대적'
'대기오염'
'대기_'
'대국'
'당했'
'당장_'
'당선인'
'당사'
'당부했다_'
'닷새간_'
'담당'
'달에_'
'달성했다고_'
'달린다_'
'단축'
'단체들'
'단지에_'
'단식_'
'다행'
'다짐'
'다운'
'다며_'
'다녀'
'다각화'
'다가오는_'
'닐_'
'닉'
'니스'
'늘_'
'뉴트리'
'눈에_'
'누적순매수_'
'누가_'
'높이_'
'높아진_'
'높다_'
'농장'
'농심'
'농식품부_'
'농산물'
'농림축산식품부_'
'농도'
'논란을_'
'노총_'
'노스'
'노보'
'넷마블'
'네트웍스_'
'네오위즈_'
'네스'
'넘기'
'내정자_'
'내일은_'
'내세'
'내륙'
'내달'
'납치_'
'남아_'
'남서'
'남북단일팀_'
'남미'
'난다'
'나타냈다_'
'나올'
'나설_'
'나머지_'
'나고'
'끈_'
'꾸준한_'
'꼴찌_'
'김학'
'김연아_'
'김어준'
'김기현_'
'김광현_'
'김광수_'
'김경수_'
'기획전_'
'기획재정부'
'기획_'
'기준금리'
'기재'
'기자간담회를_'
'기술연구'
'기술개발'
'기생충_'
'기상청은_'
'기뻐하고_'
'기보'
'기반'
'기록했'
'기관이_'
'급증하'
'급속'
'급성'
'금으로_'
'금융센터'
'금융당국_'
'근절_'
'근린'
'극동'
'그레이'
'규정_'
'규모다_'
'귀국하'
'권오준_'
'권역'
'권에_'
'권고_'
'권고'
'국토교통부_'
'국제금융'
'국제공항'
'국왕'
'국방장관_'
'국민안전처'
'국무총리는_'
'구하'
'구장_'
'구자'
'구인_'
'구속영장이_'
'구속됐다_'
'구미시'
'구로_'
'구도'
'교환_'
'교직원'
'교육청은_'
'교육부'
'교원'
'교수는_'
'교보생명'
'관으로_'
'관람'
'관계장관'
'과장'
'공항에'
'공제'
'공정한_'
'공을_'
'공유하'
'공업'
'공론화_'
'공론화'
'곳으로_'
'골프존'
'고통_'
'고종'
'고정'
'고의'
'고위_'
'고성능_'
'고사'
'고려해_'
'고대'
'계좌개설_'
'계정'
'계약에_'
'계기로_'
'경희대'
'경협'
'경찰청'
'경제정책'
'경영자'
'경신'
'경비'
'경북대'
'경기장'
'결정적'
'결정에_'
'결장_'
'견제'
'격차_'
'격돌_'
'검찰총장이_'
'걱정_'
'거주_'
'거리두기_'
'거래대금_'
'거두며_'
'갤럭시S8_'
'객실'
'개회'
'개혁을_'
'개포'
'개발했다_'
'개발해_'
'개막전'
'강화한'
'강영'
'강서구_'
'강서'
'강사'
'강동'
'감찰'
'감정'
'감염증'
'감성'
'감사패'
'감사의_'
'감독을_'
'갈라'
'간호사'
'각자_'
'각오'
'가입하'
'가에_'
'가슴'
'가속화'
'가량'
'가가_'
'發_'
'比_'
'文정부_'
'北에_'
'◇'
'↓_'
'↑ _'
'’ ‘_'
'ol'
'l_'
'in'
'er'
'aT'
'WBC_'
'V리그_'
'VI'
'UN_'
'TIGER'
'STX'
'SS'
'SK하이닉스가_'
'SK케미칼_'
'SK바이오'
'ROAD_'
'PO_'
'PB'
'OT'
'NY'
'NG'
'MO'
'KT와_'
'KTX_'
'KCC'
'KB증권'
'KB금융'
'KB국민은행은_'
'KB_'
'DL'
'CES_'
'BNK'
'= _'
'9시'
'9만'
'8억원'
'7일'
'6주'
'6500'
'650'
'60억_'
'5천억'
'5천만원_'
'5주'
'5위_'
'5곳'
'5개월_'
'58_'
'56억'
'55_'
'520'
'50대'
'500명'
'4주_'
'4시'
'4K_'
'400억'
'3주년_'
'3조_'
'3점_'
'3인'
'3사'
'3분'
'3곳_'
'320'
'30억원_'
'30년_'
'300_'
'3000'
'2회'
'2학'
'2점'
'2심'
'2시간_'
'2세대_'
'2사_'
'2로_'
'2곳_'
'2개'
'27일'
'25만'
'250원_'
'24일까지_'
'247'
'217'
'20억_'
'20분_'
'20명_'
'20만'
'2030_'
'2019년도_'
'2017년'
'2012년_'
'1호기_'
'1호'
'1천만원'
'1조원을_'
'1일'
'1운동_'
'1억원을_'
'1승_'
'1순위'
'1분기'
'1만3'
'1단계_'
'1곳'
'19억'
'195'
'18일부터_'
'18일까지_'
'148'
'143'
'13만'
'12일까지_'
'12개'
'125'
'1200'
'11만'
'10조'
'10인'
'10여'
'10만원_'
'10만_'
'10곳_'
'1000만원_'
'0만'
'09_'
'04_'
'03'
',  _'
'' '_'
'' '
'"㈜_'
'""… _'
'!"""_'
' ~ _'
'  '
'힘차게_'
'힐링'
'히트_'
'희생'
'흥행_'
'흥행'
'흔'
'흐름은_'
'흉터'
'휠라'
'훈장_'
'훈련하는_'
'훈련장_'
'후회'
'후지'
'후임'
'후보자에_'
'회사인_'
'회비_'
'회담을_'
'회계_'
'황의조_'
'환호_'
'환으로_'
'환원'
'환불'
'확산에_'
'확보에_'
'확대된다_'
'화합'
'화장'
'화에_'
'화성시_'
'화산_'
'화물차'
'홍상'
'홍삼'
'홍보관_'
'홈경기'
'혼란_'
'혼다_'
'호황'
'호점_'
'호에_'
'호실적_'
'호소하는_'
'호르'
'호남'
'호날두가_'
'혜택'
'협회장_'
'협조_'
'협력사'
'현행_'
'현충원'
'현주'
'현재까지_'
'현역_'
'현대해상_'
'현대차는_'
'현대차'
'현대엘리베이'
'현대산업개발_'
'현대백화점'
'헤이'
'헤리'
'헝그리앱은_'
'헌법재판소_'
'헌법재판관_'
'허위_'
'허브_'
'행정명령'
'행운의_'
'했다가_'
'했는데_'
'해제됐다_'
'해의'
'해외진출_'
'해외주식_'
'해외송금_'
'해상에서_'
'해당'
'해달라_'
'항쟁'
'항의'
'항만_'
'항로'
'함을_'
'한화투자증권은_'
'한화생명'
'한자'
'한용덕_'
'한양'
'한신'
'한수원_'
'한성'
'한불'
'한번_'
'한미약품'
'한류_'
'한라산'
'한동'
'한국형_'
'한국항공우주'
'한국지엠'
'한국조'
'한국여자'
'한국어_'
'한국야'
'한국선'
'한국서비스'
'한국산_'
'한국농'
'한국기'
'한국관광공사'
'학대'
'하트'
'하수처리'
'하려면_'
'하려는_'
'하락하'
'하도급_'
'하늘이_'
'하나금융_'
'핏'
'픽_'
'피칭_'
'피츠버그_'
'픔'
'플랫폼을_'
'플랜트'
'플라스틱_'
'프린팅_'
'프로야구'
'프렌즈_'
'프가'
'풍성'
'풍부한_'
'표준_'
'표정으로_'
'표를_'
'폭증'
'폭염에_'
'포스코건설_'
'포르'
'포레'
'폐차_'
'폐막'
'평생'
'평가를_'
'펼쳐진다_'
'펜타'
'페스티벌'
'팬들의_'
'패밀리_'
'팝업스토어_'
'팔렘방_'
'팍'
'파행'
'파티_'
'파티'
'파열'
'파면'
'파르'
'파나마'
'파괴'
'틱'
'티웨이항공_'
'티스'
'티브_'
'티모'
'특허를_'
'특징'
'특성화고_'
'특사'
'특보_'
'특별단속_'
'특별교'
'특례'
'특구_'
'트릭'
'트를_'
'트로피_'
'트로피'
'트는_'
'튀'
'투혼'
'퇴진_'
'통증'
'통일부'
'통일교육'
'통영'
'통상_'
'통계청'
'톨'
'토스_'
'토마스_'
'토론회'
'토론토_'
'텔레콤'
'텍사스'
'테크노'
'테_'
'터넷'
'택시기사'
'태안'
'태극기_'
'타자'
'타임스'
'킥'
'키워'
'키우'
'클롭_'
'클레'
'클라'
'크리에이터_'
'크루즈'
'쿠바_'
'콜롬비아_'
'코트_'
'코아'
'코스모'
'코르'
'코디'
'케이스'
'케_'
'컴백_'
'컨셉'
'커버'
'캡슐'
'칼_'
'칵'
'칠레'
'치의_'
'치아'
'츠카'
'취임식에서_'
'췄다_'
'충분히_'
'충격적'
'출석하는_'
'출마'
'출루_'
'춘천시'
'축제를_'
'축사하는_'
'축_'
'추진하기'
'추진위원'
'추월_'
'추세_'
'추돌_'
'추구'
'추경_'
'최적'
'최장'
'최일'
'최우수'
'최용'
'최신_'
'최순실'
'최기영_'
'최고위원회의_'
'최경'
'총무'
'총기'
'촉구하고_'
'초이스_'
'초안'
'초등'
'첼시'
'체험관'
'체인_'
'체결한_'
'체결하고_'
'청소_'
'청산'
'첨단'
'척추'
'처음이다_'
'처음'
'찾아온_'
'창의'
'창업자_'
'창당_'
'참전용사_'
'참여하는_'
'참석자들과_'
'참배하'
'참배_'
'참모'
'참가해_'
'차트의_'
'차질'
'차전'
'차장'
'차세대'
'차량을_'
'차량에_'
'찍고_'
'찌_'
'징역'
'집회를_'
'집중력'
'집중되고_'
'진행하는_'
'진행되고_'
'진천'
'진이_'
'진을_'
'진영'
'진압_'
'직구_'
'지휘_'
'지켜보고_'
'지진으로_'
'지주'
'지적_'
'지인_'
'지역별_'
'지시했다_'
'지스'
'지속되'
'지붕'
'지방자치'
'지방세_'
'지방공'
'지능'
'증평'
'증진_'
'증을_'
'증권을_'
'증가로_'
'즙'
'줘'
'중이던_'
'중이'
'중앙회'
'중소벤처기업'
'중국어'
'중계_'
'줄인다_'
'준우승_'
'준비하'
'준비를_'
'준다'
'주의보가_'
'주식회사_'
'주식을_'
'주식매'
'주방'
'주민자치'
'주민들_'
'주민들'
'주민과_'
'주말에'
'주들'
'주도하'
'주관으로_'
'좌파'
'좌완_'
'좋지_'
'종속회사'
'종목알파고_'
'종근당'
'조회'
'조직개편_'
'조원우_'
'조업'
'조성에_'
'조례안_'
'조각'
'제품에_'
'제철_'
'제천_'
'제주시'
'제약사'
'제압'
'제시_'
'제동'
'제고_'
'제12회_'
'정황_'
'정한'
'정하'
'정을_'
'정시'
'정보통신기술_'
'정보공개'
'접근'
'접견실에서_'
'점이_'
'점으로_'
'절차에_'
'절을_'
'절감_'
'전형적인_'
'전혀_'
'전차'
'전자상거래_'
'전시장_'
'전세_'
'전부'
'전량_'
'전락'
'전라남도'
'전당대회'
'전당_'
'전남지역_'
'전기자동차'
'전기요금_'
'전국이_'
'전과_'
'적절'
'적극적인_'
'저우'
'저소득_'
'저가_'
'재현'
'재해_'
'재학생_'
'재외'
'재료'
'재난대응_'
'재구'
'재계약'
'장학금을_'
'장인'
'장이'
'장관에'
'잘하'
'잔_'
'작은'
'작용'
'작업에_'
'자존심'
'자유한국당은_'
'자원_'
'자선'
'자본시장'
'자구'
'입증'
'입주기업_'
'입점'
'입원_'
'임플란트_'
'임직원들'
'임명됐다_'
'임기영'
'일행'
'일하'
'일체'
'일신'
'일상'
'일산'
'일본이_'
'일대에서_'
'일당_'
'인회'
'인하대_'
'인플루엔자_'
'인테리어_'
'인터파크'
'인지_'
'인종차별_'
'인제군_'
'인정받'
'인적자원개발'
'인센티브'
'인사청문'
'인도에'
'인도네시아'
'인데_'
'인더'
'익산_'
'이천'
'이유가_'
'이웃돕기_'
'이웃_'
'이었'
'이어지'
'이양'
'이야기를_'
'이사회를_'
'이베스트투자증권_'
'이민_'
'이륜차'
'이뤄진_'
'이라'
'이데일리_'
'이대목동병원_'
'이니'
'이남'
'이그'
'이겨'
'이가_'
'의혹이_'
'의지'
'의정부'
'의원회관_'
'의원총회에서_'
'의를_'
'의료원'
'의뢰_'
'의도'
'의대'
'응급'
'음식점_'
'음료_'
'음란'
'은산분리_'
'은메달_'
'으면서_'
'으로'
'유화'
'유해물질'
'유학생_'
'유학'
'유포_'
'유통업계'
'유진투자증권'
'유지했다_'
'유죄_'
'유일_'
'유예_'
'유영'
'유발'
'유명한_'
'유력'
'유람선_'
'위협하'
'위해서'
'위치_'
'위원회를_'
'위기를_'
'위가_'
'웹젠'
'웠던_'
'월세_'
'월급_'
'원해_'
'원주시_'
'원생'
'원내수석부대표'
'워커힐_'
'워치_'
'운항_'
'운송'
'운구'
'우호'
'우체국_'
'우유'
'우수사'
'우선'
'우려로_'
'용인시_'
'용의'
'외식'
'외국인과_'
'외국_'
'외교장관'
'완판_'
'완치'
'완주'
'완벽'
'완도'
'와이번스'
'옷'
'올해는_'
'올림픽에'
'올리브'
'올려'
'올라섰다_'
'오후'
'오픈했다고_'
'오세요_'
'오세'
'오름세'
'오르고_'
'오랜'
'오디'
'오도'
'예우'
'예비역_'
'예보'
'영하_'
'영토'
'영천시'
'영은_'
'영예'
'영업점'
'영업손실이_'
'영어_'
'영암'
'영세'
'영상이_'
'영리'
'영동_'
'영덕'
'영남대'
'영국의_'
'였습니다_'
'였다고_'
'열립니다_'
'열렸'
'연초'
'연천군'
'연예인_'
'연예인'
'연쇄_'
'연동'
'연구원이_'
'역을_'
'역세권_'
'여행사'
'여학생'
'여정'
'여자친구'
'여자골프_'
'여유'
'여성인'
'여성들'
'여부에_'
'여만에_'
'여당_'
'여객선_'
'여객_'
'여개'
'엔에'
'엑스코'
'에픽세븐_'
'에어_'
'에서의_'
'에서'
'에디'
'에드'
'엉'
'었다고_'
'업체로'
'업체들'
'업무를_'
'업계가_'
'엄마_'
'얼리'
'언제_'
'언제'
'언론인'
'언더파_'
'억대_'
'어야_'
'어선에'
'어린이들이_'
'어려'
'양현_'
'양천구_'
'양지'
'양재'
'양상문_'
'양동'
'양국'
'약정'
'약속했다_'
'약보합'
'약관_'
'야마_'
'야마'
'앱에'
'앰배서더_'
'애틀'
'애완'
'애로'
'애니메이션_'
'앗'
'알파고'
'알리기_'
'알렉스'
'않는다'
'안착_'
'안전하'
'안의_'
'안양'
'안병'
'안데르'
'안건'
'악수를_'
'아프리카'
'아티스트_'
'아쿠아'
'아주_'
'아주'
'아이템'
'아이엠'
'아이들'
'아의_'
'아야_'
'아세'
'아바'
'아미'
'아리랑'
'아리_'
'아리'
'아래_'
'아가방앤컴퍼니'
'씨름'
'씀'
'쓸_'
'쏠리고_'
'썩'
'쌍'
'심하'
'심재철_'
'심의위원회_'
'심은_'
'심사를_'
'실험'
'실태조사_'
'실탄_'
'실점_'
'실업수당'
'실업급여_'
'실세_'
'실내_'
'신한금융_'
'신축공사_'
'신촌_'
'신체'
'신을_'
'신분'
'신문이_'
'신라면세점_'
'신라면세점'
'신규상장'
'식당에서_'
'식기'
'시험발사'
'시행하'
'시초가_'
'시청률_'
'시찰_'
'시정연설'
'시장은_'
'시안'
'시술'
'시범사업_'
'시민의_'
'시무식'
'시대에_'
'시대를_'
'시구'
'시공사'
'시간이_'
'시각'
'슬림_'
'슬리'
'스폰서_'
'스페이스'
'스퍼'
'스파크'
'스파이'
'스톡'
'스토리'
'스테이지_'
'스터'
'스타일_'
'스크린_'
'스쿨_'
'스쿨'
'스코_'
'스시'
'스무'
'스를_'
'스러운_'
'스님'
'숨졌다_'
'숨_'
'순천시_'
'순이'
'순매수를_'
'순국'
'순간_'
'수확_'
'수험생'
'수출입'
'수출액'
'수주했다고_'
'수원FC'
'수요자_'
'수영구_'
'수에_'
'수성구_'
'수사권_'
'수목원'
'수거'
'수감'
'솟'
'솔샤르_'
'솔루'
'솔라'
'손혜원_'
'손해배상'
'손자'
'손실'
'손상'
'속한_'
'속초_'
'속으로_'
'속여_'
'소아'
'소식이_'
'소수'
'소사_'
'소비자물가_'
'소비자들'
'소를_'
'소드'
'소는_'
'소나기_'
'소가_'
'셰'
'셀렉'
'세무조사_'
'세리머니_'
'세르비아_'
'세력'
'세계한'
'세계지'
'성향'
'성명을_'
'성공시키'
'설치하'
'설명을_'
'선행'
'선출됐다_'
'선출'
'선의_'
'선언하고_'
'선수들과_'
'선생'
'선사'
'선보'
'선발전_'
'선물세트'
'선거제'
'서포터'
'서울중앙지검장'
'서울역_'
'서비스에_'
'서민금융'
'서동'
'서대'
'서귀포'
'섀도'
'생활체육_'
'생중계'
'생일_'
'생산량_'
'생방송_'
'생리대_'
'생긴'
'상처'
'상장폐지_'
'상인_'
'상승세다_'
'상습_'
'상권_'
'삼화'
'삼척'
'삼지'
'삼정'
'삼성증권'
'삼성전자의_'
'삼성바이오'
'삶을_'
'살해하고_'
'살펴보고_'
'살아있는_'
'살아남'
'살아나'
'산학협력'
'산업통상자원부'
'삭감_'
'사흘'
'사항_'
'사표를_'
'사측'
'사이드'
'사우디아라비아'
'사업으로_'
'사상'
'사법농단_'
'사명_'
'사례를_'
'사령탑_'
'사령관'
'사과하'
'뽑은_'
'빠지'
'빙_'
'빗썸_'
'빌리'
'빈소'
'빅뱅_'
'비판했다_'
'비중이_'
'비의_'
'비엔'
'비서관'
'블리자드'
'브리핑하는_'
'브루'
'브랜드파워_'
'브랜드로_'
'불타'
'불씨'
'불구'
'분이'
'분간_'
'북핵'
'북한을_'
'북극성_'
'부회장은_'
'부친'
'부처'
'부족한_'
'부정_'
'부재'
'부임'
'부의_'
'부시장_'
'부스를_'
'부산항'
'부산진구_'
'부산은행_'
'부산시당'
'부산시가_'
'부부가_'
'부모_'
'부르크'
'부경대'
'봉사활동'
'봉사단_'
'본회의'
'본질'
'볶음'
'복원_'
'복싱'
'보호무역'
'보험사'
'보직'
'보좌관'
'보여주'
'보스턴_'
'보스턴'
'보르'
'보건의료'
'보건소'
'병원에_'
'병기_'
'벤치'
'베이비'
'벗어'
'법인세_'
'버전_'
'버스가_'
'버디_'
'버닝썬_'
'백년'
'배임'
'배부'
'배드민턴'
'배달_'
'방탄소년단_'
'방치_'
'방출_'
'방에'
'방송인_'
'방문했다_'
'방망이'
'밟'
'밝히'
'발효_'
'발탁'
'받으며_'
'받으'
'받아들'
'받기_'
'반군'
'반값_'
'밖으로_'
'박한'
'박주선_'
'박인비_'
'박민'
'박람회에'
'바스'
'바바'
'바른'
'바나나'
'밀리'
'민선'
'민방위'
'민경'
'미정'
'미성년자'
'미샤'
'미분양_'
'미래에셋대우'
'미래를_'
'미드'
'미국인_'
'미가_'
'뮤즈'
'뮤_'
'물질'
'물이_'
'물산_'
'물리'
'물류_'
'물건'
'문화체육관광부'
'문화체'
'문화제_'
'문화예술회관_'
'문학상_'
'문턱'
'문체부_'
'문제는_'
'문자_'
'무효'
'무한_'
'무학'
'무주'
'무조건_'
'무선_'
'무상_'
'무사_'
'무비'
'무력'
'무려_'
'무등'
'무대에_'
'무단_'
'무능'
'무관_'
'무게'
'묘역'
'못한다_'
'몰라'
'몫'
'목원'
'목숨을_'
'모임'
'모으고_'
'모시'
'모비스_'
'모로'
'모듈_'
'모나'
'명확'
'명진'
'명과_'
'면제'
'멤버_'
'멀티히트_'
'먼지_'
'머리를_'
'맹활약_'
'맥스'
'매트'
'매장'
'매스'
'매물'
'매달_'
'매니지먼트'
'매니저_'
'맑음_'
'맑'
'말한_'
'말하'
'말소_'
'말레이'
'만한_'
'만족도_'
'만장일치로_'
'만장'
'만이_'
'만을_'
'만원을_'
'만원으로_'
'만명'
'만났다_'
'만기_'
'마케팅을_'
'마찰'
'마저_'
'마자'
'마이리'
'마음을_'
'마운드'
'마블'
'마리나_'
'마루'
'마라'
'마늘_'
'마곡'
'링크_'
'릴레이_'
'린지'
'리테일'
'리턴'
'리츠'
'리즘'
'리에서_'
'리사'
'리더스'
'륙_'
'룡_'
'롯데하이마트_'
'롯데카드'
'롯데의_'
'로하스'
'로운_'
'로스앤젤레스'
'렉스턴_'
'렉스_'
'렇'
'렁_'
'러운_'
'랜드마크시티_'
'래프'
'랐다_'
'랐'
'라임'
'띄'
'뛰는_'
'뚜레쥬르_'
'떨어지'
'떨'
'때마다_'
'따져'
'딛'
'디지'
'디저트_'
'디자이너'
'디움'
'디에이'
'디아이'
'등기'
'들이받아_'
'들어가'
'드디어_'
'뒤에'
'뒀'
'된'
'되며_'
'동향_'
'동점골'
'동작구_'
'동아에스티'
'동성애'
'동부증권'
'동반성장'
'동메달'
'동맹_'
'동네_'
'동계패럴림픽'
'돔'
'돌파한_'
'돌입'
'돌보'
'독점'
'독자_'
'도주_'
'도전한다_'
'도의_'
'도움을_'
'도우미_'
'도시바_'
'도시로_'
'도르'
'덴_'
'데뷔전_'
'데드'
'덕수'
'댓글_'
'댓글'
'대한축구협회'
'대한적십자사'
'대한상공회의소'
'대표적'
'대테러'
'대입'
'대의_'
'대응하'
'대사관'
'대변인은_'
'대림산업_'
'대금'
'대구지'
'대구은행'
'대구에_'
'대구시장'
'대검찰청'
'당첨번호'
'당직'
'당정협의'
'당정_'
'당대표_'
'당기'
'답사'
'담화'
'달리던_'
'달리'
'달렸다_'
'달라진_'
'단체전_'
'단장이_'
'단말기_'
'단말'
'단골'
'다툼'
'다이어트_'
'다이어'
'다섯_'
'다나'
'닐'
'닉스'
'능력시험'
'늘어나'
'는지_'
'뉴욕증시에서_'
'뉴욕증시'
'누구'
'높이기_'
'농촌_'
'농어촌'
'농도_'
'농_'
'논의하'
'녹스'
'노하우'
'노크'
'노조가_'
'노비'
'노무'
'노리는_'
'노동자들'
'념_'
'년생_'
'넬'
'넥스트'
'너지_'
'너지'
'냈습니다_'
'내일부터_'
'내역_'
'내려진_'
'내려_'
'내각'
'낮은_'
'납부_'
'남용'
'남양주'
'남았다_'
'남산'
'남미_'
'남대'
'남경필_'
'난치'
'나흘째_'
'나이츠_'
'나와'
'나에'
'나눔재단_'
'나노_'
'나갈_'
'끝까지_'
'끌어올'
'꾼'
'꼼수_'
'꼼'
'꼴_'
'김희'
'김현수가_'
'김현미_'
'김학범'
'김재현_'
'김은경_'
'김승기_'
'김상곤_'
'김병수_'
'김민우'
'김명'
'김남'
'김관영_'
'긴밀'
'긴다_'
'기초연'
'기증_'
'기준을_'
'기조_'
'기자실에서_'
'기자가_'
'기와_'
'기업들_'
'기아차'
'기술이_'
'기술력'
'기술개발_'
'기상청'
'기뻐'
'기본계획_'
'기반의_'
'기록이'
'기다'
'기념관_'
'기공식'
'기고_'
'급증'
'급물살'
'금융투자협회'
'금융위원장이_'
'금융권_'
'금액_'
'근본적'
'극심한_'
'그리스_'
'규정'
'규모는_'
'규모가_'
'규명_'
'규명'
'귀국'
'궤도'
'권혁'
'권익위'
'권의_'
'권위'
'권영진_'
'권역_'
'군의_'
'군사훈련'
'국회의장'
'국회를_'
'국장이_'
'국의_'
'국으로'
'국세청장_'
'국빈_'
'국비_'
'국방부'
'국민의_'
'국무회의'
'국가정보원'
'국가안보실'
'국가안보'
'국가대표팀_'
'국가대표'
'국가기'
'국가가_'
'구청장_'
'구청_'
'구직_'
'구장에서_'
'구본무_'
'구매하'
'구리'
'구름이_'
'교장'
'교육청'
'교육지원'
'교육부가_'
'교육기관'
'교육과정_'
'교육감'
'교복'
'광역시_'
'관측_'
'관제_'
'관절'
'관을_'
'관리위원회'
'관련주_'
'관람객_'
'관계장관회의_'
'관계자들_'
'관객'
'과학관_'
'과열_'
'과감'
'공화당_'
'공판_'
'공천'
'공주_'
'공정거래위원장'
'공작'
'공업_'
'공모가'
'공론화위원회'
'공동연구'
'공군참모총장'
'공개된다_'
'곳이_'
'곳곳'
'골프웨어_'
'곤충'
'곡성군'
'고혈압'
'고지'
'고심'
'고신'
'고시'
'고성장'
'고령화_'
'고려대'
'고등'
'고기_'
'고가_'
'고가'
'계좌'
'계승'
'계속되는_'
'계란'
'계가_'
'경희'
'경호'
'경찰서'
'경제적_'
'경제사'
'경영진'
'경영비리_'
'경연대회_'
'경사'
'경비_'
'경마_'
'경마'
'경력'
'경기도교육청'
'경기대'
'경고했다_'
'결혼식_'
'결함'
'결정된'
'결승골_'
'결성'
'결과에_'
'겐_'
'겐'
'게임이'
'게임에_'
'검사가_'
'검도'
'걷어'
'건축물_'
'건조_'
'건으로_'
'건설사_'
'건물에'
'거스'
'거리에'
'거래일보다_'
'갱'
'개회식_'
'개헌안'
'개학_'
'개최됐다_'
'개별'
'개방형_'
'개발하'
'개발을_'
'개미'
'개막했다_'
'개교_'
'갚'
'같아_'
'갖춰'
'강진'
'강제징용_'
'강원FC_'
'강요'
'강세'
'강변'
'강민호_'
'강력히_'
'강당에서_'
'강국'
'값이_'
'갑자기_'
'감지'
'감이_'
'감안'
'감소했다고_'
'감면'
'감격'
'간호'
'간부'
'각오를_'
'각국'
'가이'
'가스파리니'
'가성비_'
'가면_'
'가능하다_'
'가능하'
'가구에_'
'가계'
'靑'
'英'
'硏_'
'朴'
'協_'
'亞_'
'Ⅱ_'
'‧_'
'…”'
'…' _'
'x_'
'st'
're'
'nd'
'mm_'
'le'
'com_'
'at'
'WKBL_'
'TA'
'SK가_'
'SH'
'SB'
'QS'
'PT'
'PO'
'PG'
'PER'
'PD'
'PBR_'
'NL'
'NH투자'
'NB'
'MS_'
'LS_'
'LH'
'LED'
'KE'
'KB국민'
'KAIST_'
'JTBC_'
'IM'
'HO'
'GT_'
'GS건설'
'FP'
'FC안양'
'FC가_'
'ENM_'
'DGB금융'
'DG'
'DD'
'C는_'
'CO'
'CJ헬'
'CJ프레시웨이'
'CD'
'BT'
'BMW'
'?’'
'9일부터_'
'9억_'
'900원_'
'8차_'
'8일'
'8만원'
'8개월_'
'8K_'
'89'
'84_'
'80여'
'7억원'
'7기_'
'77_'
'73_'
'6일부터_'
'6월부터_'
'6번째_'
'6대'
'65세_'
'62_'
'61_'
'60억원'
'6000억'
'5조'
'5일까지_'
'5원'
'5만원_'
'5만원'
'5대'
'5단'
'52시간_'
'4차산업혁명_'
'4일부터_'
'4이닝_'
'4위'
'4세'
'4분기'
'4대강_'
'4곳'
'480'
'420'
'40억원'
'40대'
'400만'
'3호_'
'3종을_'
'3조원_'
'3루'
'3거래일_'
'3D프린팅_'
'380'
'35만'
'350'
'30억_'
'300억'
'300만원'
'2차전_'
'2차전'
'2주년_'
'2위'
'2만5'
'2루타를_'
'2단계_'
'2곳'
'280'
'25분_'
'25개_'
'24일부터_'
'246'
'22일까지_'
'226'
'212'
'210'
'20만원'
'20만_'
'20대'
'205'
'2022년까지_'
'2021년까지_'
'2018'
'2015'
'200만원_'
'1부'
'1명은_'
'1만6'
'19명'
'18세_'
'18명_'
'183'
'17일부터_'
'17일까지_'
'17명_'
'16개_'
'162'
'14일까지_'
'14시_'
'14년'
'14개_'
'144'
'13명'
'13년_'
'134'
'12일부터_'
'113'
'10호'
'10주'
'10일부터_'
'10배_'
'10명'
'10만원'
'10년만에_'
'10년간_'
'107'
'106'
'102'
'100여명'
'100세시대'
'0여'
'08_'
'06'
'00만'
'..'
'%…'
'!’'
' : _'
' +_'
'ｍ_'
'힘들다_'
'힘들'
'힐러리_'
'히든'
'희귀_'
'흡수_'
'흔적'
'흔들리'
'흑자전환했다'
'휴가철'
'휩쓸'
'휩싸인_'
'훌'
'훈련에_'
'후원하는_'
'후에'
'후손'
'후배'
'후반'
'효율_'
'효력'
'회전'
'회의소'
'회의가_'
'회사가_'
'회계사'
'회계법인_'
'황희찬_'
'황재균'
'황금연휴'
'활짝_'
'환수'
'환상'
'환담하'
'환경개선'
'확정했다_'
'확정된_'
'확산하'
'확보했다고_'
'확보할_'
'확보'
'확률_'
'확대하고_'
'확대를_'
'화재로_'
'화승'
'홍천군'
'홍보대사로_'
'홍대_'
'홈페이지'
'호재'
'호응_'
'호세'
'형제_'
'형성_'
'형성'
'협회장'
'협치'
'협약식을_'
'협력업체'
'협력사에_'
'현저한_'
'현장점검'
'현장에'
'현의_'
'현실_'
'현수막_'
'현대엔지니어링_'
'현대상선_'
'혁신상_'
'헝그리앱'
'헌화'
'헌재소장_'
'헌법재판소장'
'허용한'
'향기'
'행태'
'행장'
'행에_'
'행사장'
'해트트릭_'
'해커스'
'해체_'
'해줘'
'해외서_'
'해외봉사'
'해양경'
'해소하'
'해달라고_'
'해경'
'항목'
'합의안'
'함박'
'함대'
'할지_'
'할로'
'한화그룹'
'한화건설_'
'한층_'
'한진칼'
'한지'
'한중일_'
'한자리에_'
'한승'
'한산'
'한부모'
'한밤'
'한미연'
'한라_'
'한도_'
'한남대_'
'한국투자증권은_'
'한국토지'
'한국인터넷진흥원'
'한국예탁결제원'
'한국에서_'
'한국생'
'한국산업'
'한국사'
'한국과학'
'한국가'
'학자'
'학위'
'학부_'
'학년_'
'학과'
'하임'
'하이트진로'
'하위'
'하루만'
'하러_'
'하라고_'
'하다'
'하남시'
'하남_'
'하나카드_'
'하나금융그룹'
'하겠'
'하거나_'
'필터_'
'필요하'
'필요가_'
'피파'
'피아니스트_'
'피스_'
'피살_'
'플레이위드'
'플레이어_'
'플라워'
'프스'
'프리미어리그_'
'프리미어'
'프로축구'
'프로스'
'프렌즈'
'프렌'
'프라임'
'풍경'
'품목_'
'풀이'
'풀어_'
'풀어'
'풀려_'
'폼_'
'폭설'
'폭락'
'포항시_'
'포츠_'
'포장'
'포스_'
'포상_'
'포르노_'
'포로'
'폐암'
'평화정'
'평소_'
'평등'
'평가하'
'평가전'
'펼친다'
'편의_'
'펫'
'펩'
'펜션_'
'페어'
'페레'
'펄어비스_'
'퍼플'
'퍼포먼스'
'퍼즐'
'팬오션'
'팬들이_'
'팩'
'패소_'
'패를_'
'패널'
'팔린_'
'판로_'
'판단이_'
'판결이_'
'파이낸스'
'파생'
'파베'
'파리바게뜨'
'파라'
'팀장_'
'티셔츠_'
'티몬_'
'틀_'
'특혜'
'특산품'
'특별시'
'특별대'
'특별관계자의_'
'특별감찰관'
'특급_'
'특권'
'트리플A'
'트레일'
'트래블_'
'트라이'
'튜'
'투표를_'
'투쟁_'
'투자하는_'
'투아'
'투썸플레이스'
'투스_'
'투데이_'
'통합당_'
'통신원_'
'통과한_'
'통계'
'토트넘'
'토토'
'토니모리'
'테크노밸리'
'테슬라_'
'테리'
'테러지원국'
'테니스'
'텃'
'털어'
'털_'
'턱'
'터트'
'탱크_'
'태화강'
'태블릿'
'탑재'
'탈바꿈'
'탈리'
'타자들'
'타이틀_'
'타이거즈'
'타선'
'타석'
'타르'
'타로_'
'타당성_'
'타결_'
'킷'
'클래식'
'크림'
'크리에이'
'크리스티아누_'
'크를_'
'크로스_'
'크런'
'퀸_'
'퀄컴_'
'쿤'
'쿠킹'
'쿠바'
'콜라보_'
'콘텐츠진흥원'
'코이카_'
'코엑스_'
'코스피지수가_'
'코스맥스'
'코스닥에서_'
'코리안_'
'코리아텍'
'켈리'
'케이프투자증권'
'케이프_'
'케빈_'
'컷_'
'컵스'
'컴퓨터'
'컴팩트_'
'컬링_'
'컬리'
'캡틴'
'캐슬'
'캐스팅'
'칼럼'
'카페24_'
'카페'
'카카오뱅크'
'카지노_'
'카운트'
'카와_'
'카드를_'
'카니발_'
'침수_'
'침묵'
'침략'
'치유_'
'치약_'
'치료비'
'층에서_'
'취해_'
'취임식_'
'취약계층에_'
'취급'
'충청남도'
'충청'
'충주_'
'충전소_'
'충전_'
'충성'
'출판사'
'출신인_'
'출사표_'
'출범식에'
'출근_'
'출근'
'출고'
'축하하는_'
'축제인_'
'축전_'
'축사를_'
'축사_'
'축구연맹_'
'축구대표팀'
'추억_'
'추세'
'추석을_'
'추석연휴_'
'추모_'
'추모'
'추락해_'
'추경'
'최혜진'
'최형우_'
'최채흥'
'최저임금위'
'최인'
'최영'
'최신예_'
'최소화_'
'최대치_'
'최고위'
'최고경영자'
'최고가_'
'총장이_'
'총영사'
'총연맹_'
'총리와_'
'초중'
'초래'
'초등학생'
'초등_'
'초당'
'쳤'
'체포됐'
'체코_'
'체중'
'체제에서_'
'체인'
'체육관'
'체불'
'체류'
'청탁금지법_'
'청정'
'청장'
'청자'
'청원_'
'청담'
'청년창업_'
'청년들의_'
'청계천_'
'철학'
'철저히_'
'철을_'
'철원군'
'철원_'
'천지'
'천명_'
'천만'
'처를_'
'챙겨'
'챙'
'책임감'
'채태인'
'채취'
'채권단'
'찾고_'
'창업지원'
'창단'
'창구'
'참전'
'참여하고_'
'참석했다_'
'참석자'
'참배'
'참모총장'
'참가했다'
'참가하는_'
'찰_'
'찬이_'
'착공'
'착_'
'차지하'
'차입'
'차원_'
'차별화'
'차별'
'차로_'
'차량이_'
'차량용_'
'찍은_'
'짙은_'
'짓는_'
'짓고_'
'집중하'
'집값_'
'짐_'
'진흥원'
'진흥기'
'진출하'
'진짜_'
'진은_'
'진실_'
'진수'
'진과_'
'진강'
'직장인'
'직위'
'직원들'
'직영'
'직면'
'지혜'
'지키는_'
'지친_'
'지진이_'
'지지도'
'지위'
'지원협'
'지원사업'
'지원대'
'지역서_'
'지식재산'
'지식산업센터_'
'지방재정'
'지명타자'
'지리산_'
'지대_'
'지난'
'지기'
'증후군'
'증정하는_'
'증권이_'
'증거_'
'증가에_'
'즌'
'즈는_'
'중에서_'
'중앙선'
'중앙도서관_'
'중소기업진흥공단'
'중반'
'중도'
'중단된_'
'중국인'
'중국산_'
'중구의회'
'중간_'
'줄인_'
'준결승_'
'죽어'
'주택재'
'주택금융'
'주최'
'주차장_'
'주중_'
'주자_'
'주인공은_'
'주유소'
'주연'
'주역_'
'주민센터'
'주목받'
'주거용_'
'좌우'
'좋은'
'좋았'
'종로_'
'종교_'
'졸업_'
'존재감'
'조카'
'조인'
'조이시티'
'조이'
'조윤선_'
'조용히_'
'조성진_'
'조성사업_'
'조선해양'
'조선업_'
'조례'
'졌다고_'
'져야_'
'젯'
'제천시'
'제조업체'
'제일제'
'제명'
'제로페이_'
'제도화'
'제네시스'
'제공한다고_'
'제2여객터미널_'
'제2_'
'제12'
'정황'
'정호'
'정치자금법_'
'정치인_'
'정치권_'
'정치권'
'정체'
'정책위의장'
'정책에_'
'정책실장'
'정조'
'정점'
'정이_'
'정에_'
'정신질환'
'정세'
'정상에_'
'정보통신_'
'정보보'
'정병국_'
'정밀_'
'정리_'
'정도_'
'정기총회'
'정규'
'접근성'
'접견_'
'점검회의_'
'절정_'
'절반'
'절기_'
'전환청구권'
'전형'
'전투_'
'전지_'
'전정'
'전자랜드'
'전자담배_'
'전인'
'전원회의'
'전업'
'전승'
'전술핵_'
'전술'
'전속_'
'전속'
'전분기比_'
'전북도_'
'전부터_'
'전복_'
'전보'
'전방위'
'전문기'
'전문가들'
'전무_'
'전망된다_'
'전략을_'
'전담_'
'전달하고_'
'전국의_'
'적폐_'
'적폐'
'적은_'
'적용하'
'적십자_'
'적금'
'저소득층'
'재활용'
'재활'
'재협상_'
'재임'
'재수'
'재소환'
'재발'
'재도'
'재난지'
'재기_'
'재검토_'
'재검토'
'재가_'
'장인_'
'장원'
'장애인체육'
'장식'
'장수'
'장세'
'장보'
'장미'
'장면'
'장마감_'
'장마'
'장대'
'장관들'
'잡아라_'
'잠실야구장에서_'
'잠긴_'
'잘한'
'잔액_'
'작업이_'
'작성하'
'작년'
'자회'
'자취안지수_'
'자책'
'자에게_'
'자살_'
'자사'
'자문위원회_'
'자랑하는_'
'자도_'
'자니아_'
'자기_'
'자극'
'있지_'
'있어서'
'있다'
'있는데_'
'있는'
'입지'
'입증_'
'입장하고_'
'입원'
'입상'
'입단_'
'입는'
'임종'
'임용'
'임신부'
'임시휴'
'임상시험'
'임산부_'
'일축'
'일주일'
'일정이_'
'일자리를_'
'일인_'
'일요일'
'일시적'
'일선_'
'일본에_'
'일본과_'
'일반인'
'일대에_'
'일고_'
'일감_'
'일가_'
'일가'
'인허가_'
'인테'
'인터뷰에서_'
'인천국제공항공사'
'인증서_'
'인준'
'인정하'
'인상에_'
'인사혁신처'
'인문학_'
'인명피해'
'인명'
'인근에_'
'이희호_'
'이화여대_'
'이혼_'
'이호'
'이학'
'이춘재_'
'이처럼_'
'이집트_'
'이즈'
'이제는_'
'이재현_'
'이우'
'이용섭_'
'이용객'
'이식'
'이승엽_'
'이스타항공_'
'이순'
'이소'
'이베이코리아'
'이명'
'이렇게_'
'이러한_'
'이랜드_'
'이라면_'
'이디야'
'이들'
'이드_'
'이동국'
'이도'
'이닝'
'이니스프리_'
'이날'
'이끌었'
'이글스_'
'이강'
'의혹'
'의용소방대'
'의식_'
'의료기관'
'응원하'
'응급실'
'음주운전'
'음을_'
'음성'
'은행장'
'은하'
'은폐'
'은메달'
'융자_'
'윤진'
'윤지'
'윤병세_'
'윤리위'
'유흥'
'유한공사'
'유증_'
'유전'
'유저'
'유재'
'유의_'
'유의'
'유용'
'유영민_'
'유안타증권은_'
'유안타'
'유세를_'
'유세_'
'유상증자로_'
'유료'
'유로_'
'유령'
'유럽서_'
'유도훈_'
'유나이티드가_'
'유나이티드'
'유기농_'
'유관기관'
'위해서는_'
'위조'
'웰크론'
'웨스'
'월평균_'
'월요일'
'월드컵경기장에서_'
'월드컵'
'원조_'
'원전'
'원인이_'
'원서'
'원로'
'원도심_'
'원대'
'원광'
'원가'
'웍스'
'울산지역_'
'울산시는_'
'운영하'
'운영위원회_'
'운영에_'
'우체국'
'우승자'
'우승에_'
'우송'
'우상호_'
'우버'
'우루과이'
'우레'
'우드_'
'용호'
'용역'
'요일'
'요원_'
'왼'
'외무상'
'외국인의_'
'외국인은_'
'외교장관_'
'외곽'
'외고_'
'왜곡_'
'왕자'
'완전한_'
'완승_'
'완료했다_'
'완료하'
'와인_'
'와이드앵글_'
'와디즈_'
'옵틱스'
'옳'
'올스타전_'
'올스타_'
'올리브영_'
'올렸'
'올랐습니다_'
'온라인게임_'
'옥상'
'오히려_'
'오해'
'오피스_'
'오픈한'
'오픈을_'
'오프_'
'오키나와_'
'오창'
'오사카_'
'오비'
'오류_'
'오디오_'
'오더_'
'오고_'
'오가는_'
'옐'
'예수'
'예상된다'
'예상되'
'예방접종'
'영천시_'
'영장실질심사_'
'영역'
'영어'
'열풍'
'열대'
'연평균_'
'연천'
'연제'
'연장근'
'연습경기_'
'연수구_'
'연수'
'연속'
'연세대_'
'연말'
'연락사무소'
'연구팀'
'연구진'
'연고'
'역주행'
'역전패_'
'역에서_'
'역에_'
'여행을_'
'여직원'
'여중생'
'여자프로'
'여자아'
'여원'
'여수시_'
'여성에'
'여건_'
'여건'
'여객터미널'
'엔터'
'에티오피아_'
'에어비앤비'
'에스_'
'에버랜드'
'에게도_'
'엇'
'없으'
'업체를_'
'업이'
'업에'
'엄중'
'얻어'
'언더'
'억울'
'억1'
'어플리케이션_'
'어축제'
'어워'
'어시스'
'어르신들'
'어디서'
'어드벤처_'
'어가_'
'양호_'
'양재동_'
'양양군'
'양식_'
'얀'
'약세를_'
'약세'
'약국_'
'야산'
'야놀자_'
'야간'
'액티브'
'앞장서'
'앞으로'
'앞당'
'압축'
'압승_'
'암호화폐'
'알파_'
'알바생'
'알레르기'
'알레'
'알기_'
'앉아'
'안토니'
'안정적인_'
'안전한국훈련_'
'안전점검_'
'안전사고_'
'안전보건'
'안전교육'
'안전공사_'
'안양시_'
'안드로이드_'
'안동시'
'안과'
'안개_'
'아토피'
'아주대_'
'아제'
'아이언샷'
'아이슬란드'
'아이뉴스24_'
'아워홈_'
'아우디'
'아시안컵_'
'아시아나'
'아스널_'
'아메리카'
'아르헨티나_'
'아르헨티나'
'아디다스_'
'아동에'
'아는_'
'아나운서_'
'싶은_'
'심포지엄'
'실내체육관에서_'
'신혼부부_'
'신한금융투자는_'
'신한금'
'신청한_'
'신차_'
'신차'
'신재생에너지_'
'신용카드'
'신약'
'신속_'
'신소재_'
'신세계백화점'
'신선'
'신산업_'
'신분으로_'
'신뢰_'
'신도시'
'신도림'
'신년사'
'신기술'
'신기록_'
'신격호_'
'신개념_'
'식품의약품안전처'
'식이'
'시흥시_'
'시흥_'
'시한'
'시프'
'시카'
'시장본부'
'시인'
'시위대_'
'시원한_'
'시속_'
'시설물_'
'시민사회단체'
'시민사회_'
'시너지'
'시내버스_'
'시공_'
'시간은_'
'시가'
'승차'
'승부_'
'승리의_'
'승률'
'슬로건'
'스피드스케이팅_'
'스프링_'
'스프링'
'스티븐_'
'스트레스_'
'스트레스'
'스텝'
'스타디움에서_'
'스크'
'스마트시티_'
'스낵'
'슈팅'
'슈즈_'
'숭실대'
'순회_'
'순찰'
'순익_'
'순매수에_'
'숙박_'
'수호'
'수치'
'수준의_'
'수익률은_'
'수익률'
'수용소_'
'수습_'
'수록_'
'수락'
'수단_'
'수납'
'숍'
'쇠'
'송이_'
'솔_'
'손잡'
'속기'
'소행'
'소프트는_'
'소집'
'소외계층_'
'소에서_'
'소액'
'소식을_'
'소송'
'소속팀'
'소방안전'
'소방관'
'소문'
'소명_'
'소매'
'소득세_'
'소녀_'
'소기업'
'소공동_'
'소개하고_'
'셰프'
'셈이다_'
'세탁기_'
'세제'
'세인트루이스'
'세이브'
'세에_'
'세상을_'
'세상'
'세미콘'
'세미나를_'
'세미나'
'세단_'
'세권'
'세계에서_'
'세계에_'
'세계시민'
'세가_'
'성형'
'성탄'
'성장하'
'성장이_'
'성실'
'성북'
'성보'
'성능'
'성남시장'
'성균관대'
'성공하'
'섬유'
'설치한'
'설치를_'
'설정'
'선포'
'선정된_'
'선정되'
'선임됐다_'
'선에_'
'선언한_'
'선수촌_'
'선생_'
'선보일_'
'선도_'
'선교'
'선거운동_'
'선거를_'
'석희_'
'석이_'
'서정'
'서적'
'서이라'
'서의_'
'서울교육청_'
'서울경'
'서에_'
'서부_'
'서머'
'서기'
'서경'
'생존자_'
'생일'
'생시'
'생생'
'생산라인'
'생산능력'
'생방송'
'생명보험'
'생명과학_'
'생명과학'
'생각했'
'생각하는_'
'생각에_'
'샌드박스'
'새해'
'새마을'
'상황이_'
'상황이'
'상품이'
'상품권을_'
'상징_'
'상징'
'상주시'
'상주'
'상장기업_'
'상인들'
'상위_'
'상영_'
'상시_'
'상습적'
'상생협력_'
'상반기까지_'
'상륙_'
'상당'
'상금'
'상고'
'삼호'
'삼척_'
'삼일'
'삼성페이_'
'삼성전자'
'삼성에_'
'삼성생명'
'삼성디스플레이'
'삼성그룹_'
'삼부토건'
'삶'
'살린_'
'살균'
'산지'
'산업화'
'산업진흥원'
'산업에_'
'산악'
'산면_'
'산림청'
'사회적기업'
'사회복지법인_'
'사항'
'사천_'
'사장과_'
'사은'
'사업인_'
'사업부문_'
'사업부_'
'사상최'
'사물인터넷_'
'사망한_'
'사망률'
'사례가_'
'사들이_'
'사당'
'사냥_'
'사각지대_'
'빼고_'
'빠져_'
'빛의_'
'빛나는_'
'빌라_'
'빌딩'
'비하'
'비타민'
'비준'
'비오'
'비엔날레'
'비싼_'
'비스_'
'비수'
'비서관_'
'비상장'
'비상이_'
'비만_'
'비대위원장_'
'비는_'
'비극'
'비결'
'블록'
'브스'
'브리지'
'뷰'
'뷔'
'붙잡'
'불확실'
'불편한_'
'불투명_'
'불참'
'불시'
'불복'
'불만_'
'불거'
'불가피_'
'분양에_'
'분식회계_'
'분산'
'분노_'
'부회장에'
'부회장'
'부합'
'부품업체'
'부패_'
'부통령_'
'부총재'
'부처님'
'부착'
'부정적_'
'부자'
'부와_'
'부여_'
'부안'
'부실_'
'부시'
'부서'
'부문에서_'
'부당_'
'부각'
'봉을_'
'볼보_'
'볼보'
'볼넷'
'볼까_'
'본점_'
'본부에'
'복합기'
'복합_'
'복식'
'보잉'
'보이며_'
'보유주식이_'
'보여줬'
'보여준_'
'보수당'
'보리_'
'보름'
'보류'
'보령'
'보도가_'
'보냈다_'
'병행'
'병사_'
'별관'
'변화를_'
'변수'
'벽화_'
'벼_'
'벨라'
'벡스코'
'벡_'
'베일_'
'베이스볼'
'베이비_'
'베베'
'베_'
'벗어나'
'법이'
'범이_'
'범위'
'벌어졌다_'
'벌리'
'번홀_'
'번지'
'번역'
'벅'
'버디'
'버드_'
'버그'
'뱅크'
'뱃'
'백두산'
'배포_'
'배수'
'배달의민족_'
'방화_'
'방해'
'방제_'
'방안'
'방송통신위원회'
'방송통신'
'방송이_'
'방북'
'밝히고_'
'발휘'
'발행한'
'발행하'
'발표했'
'발표할_'
'발표를_'
'발생하는_'
'발사한_'
'발달'
'반성'
'반대로_'
'반납'
'반기'
'밖_'
'박탈'
'박준'
'박수치'
'박성진_'
'박동원'
'박능후_'
'바이러스가_'
'바람직'
'바디프랜드'
'바디'
'바닥_'
'밀수'
'민주평화'
'민을_'
'민심_'
'민들'
'민과_'
'미친_'
'미치'
'미쓰'
'미수습자_'
'미소_'
'미르_'
'미달'
'미국대사'
'물품'
'물들'
'물동량_'
'문화재단'
'문화공'
'문정'
'문자'
'문대통령_'
'무패_'
'무역협정'
'무역보험공사'
'무서'
'무상점검_'
'무리'
'무기_'
'무고'
'몰리'
'몰랐다'
'몬테'
'몬드'
'목에_'
'목소리가_'
'목동_'
'목동'
'모터쇼_'
'모터쇼'
'모친_'
'모전'
'모이'
'모의고사_'
'모습이다_'
'모색'
'모두가_'
'명칭_'
'명은_'
'명에게_'
'명시'
'명소'
'명령_'
'명동'
'멸_'
'면역'
'면서도_'
'멤버'
'메리츠종금증권'
'메리'
'메디컬'
'메네'
'멈추'
'먹어'
'머무는_'
'머니_'
'매출액이_'
'매진_'
'매직_'
'매장에서_'
'매장에_'
'매운'
'매력'
'매뉴얼_'
'매각을_'
'매각에_'
'망언'
'맛있는_'
'맘_'
'맑은_'
'맑아'
'말하고_'
'많고_'
'만하'
'만찬'
'만족도'
'만으로'
'만루'
'만들겠다_'
'만9'
'막이_'
'막걸리'
'마티'
'마카오'
'마카'
'마치'
'마주'
'마이크로_'
'마이너스_'
'마의'
'마에'
'마스크'
'마산'
'마르퀴즈_'
'마련했다_'
'마당에'
'마니'
'리프'
'리즈'
'리빙'
'리브'
'리바운드_'
'리바'
'리미티드_'
'리마스터_'
'리로'
'리듬'
'리다'
'리기_'
'리그에서_'
'르노삼성'
'률을_'
'류현진의_'
'룽'
'루트'
'루카'
'롯데월드타워'
'롯데百_'
'로컬'
'로에_'
'로얄_'
'로비에'
'로보틱스'
'로버츠_'
'로메'
'로맥_'
'렸던_'
'렌터카'
'렉스'
'렉션'
'레몬'
'러워'
'러닝_'
'략'
'랠리_'
'랜드마크_'
'랄_'
'라틀리프'
'라인프렌즈_'
'라이엇_'
'라운'
'라면'
'라가_'
'뜸'
'뜨겁다_'
'뛰어든'
'뛰고_'
'떨어져'
'떠난_'
'따라'
'등판해_'
'등재'
'등장했다_'
'등교_'
'들이'
'들었다'
'들로_'
'드에_'
'드러냈다_'
'드래곤'
'드라'
'둑_'
'두배_'
'됐으'
'동해시'
'동일_'
'동원시스템즈'
'동영상'
'동성'
'동북'
'동부건설_'
'동반자'
'동료들'
'동료_'
'동력'
'동국제약_'
'돌입한'
'돌아가'
'돌봄_'
'돌리'
'독특한_'
'독립운동'
'도중_'
'도요타'
'도시락'
'도서_'
'도박사이트_'
'도구'
'데뷔전'
'데뷔'
'덩'
'던졌다_'
'더위'
'더욱이_'
'더스'
'더블유'
'더블_'
'댐_'
'대형마트'
'대한축구협회_'
'대한체육회'
'대학일자리센터_'
'대학원'
'대학생들'
'대학교'
'대표팀의_'
'대치'
'대처'
'대이'
'대웅제약_'
'대승_'
'대수'
'대설주의보'
'대선주자'
'대부업'
'대변인이_'
'대변'
'대법원'
'대마'
'대구경북_'
'대가'
'당은_'
'당사에서_'
'당뇨병_'
'당뇨'
'당기순이익은_'
'담장'
'담보대출'
'담보_'
'담배_'
'닭_'
'달해_'
'달린_'
'달리기'
'단행'
'단속을_'
'단기간_'
'닥터'
'다자'
'다이노스'
'다음주_'
'다양'
'다스_'
'다스'
'다산'
'다발'
'다문화가족_'
'다로'
'다녀온_'
'다녀간_'
'닐슨'
'니카'
'니까_'
'느냐_'
'느냐'
'늄_'
'뉴시스와_'
'뉴딜_'
'누리꾼_'
'누르고_'
'뇨'
'높일_'
'높인다_'
'높인_'
'높았다_'
'높아지고_'
'농협은행_'
'농협금융'
'농식품'
'농수'
'농기'
'논평'
'논의했다_'
'논의하는_'
'논의를_'
'논산'
'노회찬_'
'노총'
'노조원'
'노원구'
'노모'
'노력을_'
'노동위원회'
'넷마블게임즈'
'넥스'
'네트웍스'
'네이버가_'
'네이마르_'
'넘었'
'냉동'
'낼'
'낸'
'내외'
'내연'
'내야수_'
'내면'
'내리겠'
'낮춰'
'낮추'
'낭비'
'남북관계_'
'남북공동'
'남녀'
'남기'
'남구청장'
'남겨'
'난동_'
'낙찰'
'나흘_'
'나타난_'
'나스닥_'
'나를_'
'끼리'
'끼_'
'끝난_'
'끊어'
'꿨'
'꿈꾸는_'
'껑충_'
'깔'
'깊은_'
'김해시'
'김한수_'
'김포공항_'
'김택'
'김태년_'
'김치_'
'김준기_'
'김제'
'김이수_'
'김윤'
'김원'
'김영철_'
'김연철_'
'김씨'
'김세'
'기후변화_'
'기후'
'기회가_'
'기조연설_'
'기적'
'기자단'
'기자간담회에서_'
'기울'
'기억하'
'기술주_'
'기숙'
'기상청이_'
'기쁨'
'기분_'
'기본소득'
'기본_'
'기대치'
'기념촬영_'
'기념사'
'기간이_'
'긍정적인_'
'금천구'
'금일_'
'금이_'
'금융지'
'금융위원회_'
'금융상품_'
'금융당국이_'
'금융감독원이_'
'금연'
'금강산_'
'근절'
'근로시간_'
'극장'
'극단적_'
'그쳐_'
'그리기_'
'그라운드_'
'그라운드'
'그들'
'균열'
'규제개혁_'
'귀환_'
'귀가'
'권한대행'
'권한_'
'권이_'
'권성'
'권기'
'굿_'
'군청_'
'군인_'
'군으로_'
'국토부'
'국토교통부'
'국제학술'
'국제표준'
'국제여'
'국정현안점검조정회의_'
'국정원'
'국정교과서_'
'국정_'
'국영'
'국시'
'국산화_'
'국비'
'국민의례'
'국민에'
'국무회의에서_'
'국무'
'국립중앙'
'국립대'
'국립공원'
'국군'
'국감_'
'국가안전대진단'
'국가공'
'구호를_'
'구형'
'구한_'
'구치'
'구상_'
'구미시_'
'교차'
'교재_'
'교육청이_'
'교육장'
'교육자'
'교육과_'
'괴한'
'괴산'
'광화문광장_'
'광화문'
'광역_'
'광안'
'광산'
'관측'
'관리본부'
'관리를_'
'관람객들'
'관람_'
'관광청'
'관광지'
'관계자와_'
'관건'
'과학기술정보통신부'
'과자_'
'과도_'
'과기부'
'공화국'
'공제회_'
'공습'
'공수처'
'공수'
'공소'
'공세'
'공산당_'
'공사를_'
'공방'
'공모에_'
'공매'
'공동주택'
'공대_'
'공급을_'
'공공_'
'곳곳에서_'
'곰_'
'골퍼_'
'고흥군'
'고향_'
'고척돔'
'고용지'
'고시_'
'고서'
'고산'
'고병원성_'
'고문_'
'고문'
'고를_'
'고덕'
'고교생_'
'고객에_'
'계절_'
'계절'
'계의_'
'계열_'
'경질'
'경주시'
'경제지'
'경제에_'
'경제부총리와_'
'경제계_'
'경쟁력을_'
'경의'
'경위'
'경연'
'경상북도'
'경민_'
'경로당'
'경력직'
'경력_'
'경기도시공사_'
'경과'
'겹'
'결핵'
'결집'
'결의안'
'결의'
'결승전'
'결승에_'
'결별'
'견학'
'견본주택'
'겪는_'
'격투'
'게이밍'
'것인가_'
'것이라'
'검출'
'검찰에'
'검찰개혁'
'걸음'
'건조기_'
'건전'
'건수_'
'건설산업'
'건설사'
'건설공'
'건강기능식품_'
'건강관리'
'거치'
'거창'
'거주'
'거론_'
'거뒀'
'객실_'
'개회식'
'개헌'
'개최하'
'개성공단'
'개사'
'개봉_'
'개발하고_'
'개발원_'
'같습니다_'
'강화하고_'
'강화하'
'강하게_'
'강판_'
'강타_'
'강인'
'강아지_'
'강소'
'강북구_'
'강동구'
'감면_'
'감리'
'갈아'
'간편_'
'간소화'
'가하고_'
'가치를_'
'가져_'
'가자'
'가솔린_'
'가방'
'가락'
'가던_'
'가능성에_'
'가까'
'가구가_'
'가계_'
'가결_'
'가게_'
'軍'
'行_'
'百_'
'朴_'
'委_'
'大'
'㎞_'
'㎝ _'
'㎜_'
'②_'
'①'
'↓""'
'↑"""_'
'…`_'
'’… _'
'’ '
'···""_'
'tv_'
'ro'
'or'
'on_'
'o_'
'n번방_'
'me'
'kg'
'it'
'ec'
'c_'
'bl'
'a_'
'YBM'
'WS'
'WM'
'WHO_'
'VIP'
'UCL_'
'UCC_'
'TO'
'TF'
'TE'
'SUV'
'SSG'
'SR'
'SPC'
'SK플래닛'
'SK와이번스'
'SC'
'SBS'
'PS4'
'PK_'
'OK저축은행_'
'NH투자증권에서_'
'NHK'
'MP'
'MI'
'LS전선'
'LP'
'LG유플러스가_'
'LG생'
'LD'
'LCK_'
'KTH'
'KTB투자증권'
'KS'
'KR'
'KLPGA_'
'KK'
'KGC인삼공사_'
'KEB하나은행'
'KBS'
'KBO'
'JW'
'JT'
'ISA'
'ICBM_'
'IBK기업은행'
'IA'
'HMC'
'GK'
'FO'
'FC서울'
'EX'
'EB'
'EA'
'DN'
'DI'
'DGB금융그룹'
'CU_'
'CNS_'
'CJ오쇼핑_'
'BO'
'BI'
'BGF리테일_'
'BGF리테일'
'AM'
'A1'
'?…'
'?' _'
'>  _'
'9호선_'
'9억원'
'98_'
'950'
'91_'
'9000원'
'8번째_'
'8배_'
'89_'
'87_'
'850원'
'83억'
'81_'
'80만'
'7위_'
'7승'
'720'
'70억원'
'70만'
'7000만원'
'6일까지_'
'6억'
'6만원_'
'6개월'
'68_'
'60개'
'600억원_'
'5천만'
'5차_'
'5조원'
'5일간_'
'5시'
'5번째_'
'5번_'
'5곳_'
'57_'
'52으로_'
'50원_'
'50만_'
'500원에_'
'500만원_'
'500만_'
'5000만'
'4회'
'4호_'
'4타'
'4일'
'4인'
'4월에'
'4월부터_'
'4연패'
'4년간_'
'4가'
'460'
'43억'
'40분'
'40명_'
'3타점_'
'3천억'
'3천만원_'
'3으로_'
'3세'
'3상_'
'3번'
'3만원_'
'3년째_'
'3곳'
'3개'
'3Q_'
'3D프린'
'38억'
'365일_'
'30분'
'3000억'
'3000명'
'3000만원_'
'2주간_'
'2일'
'2연승'
'2세트'
'2부제'
'2부_'
'2동_'
'2도'
'2가'
'28억원_'
'26억'
'25억'
'25년'
'253'
'23일부터_'
'23억'
'235'
'21억'
'21개_'
'203'
'2025년'
'2022년_'
'2018학년도_'
'2018시즌_'
'2010년'
'200여'
'2008'
'2000만원'
'1회말_'
'1호점'
'1패'
'1천6'
'1천4'
'1천2'
'1차전'
'1조7'
'1시간'
'1사_'
'1번_'
'1만1'
'1라운드_'
'1동_'
'1구'
'1공'
'1골_'
'199'
'197'
'193'
'189'
'17명'
'173'
'16강'
'1600'
'15조'
'150억'
'150만'
'14명_'
'13억원'
'135'
'131'
'12억원_'
'12명'
'115'
'10위'
'10억'
'10만명_'
'10대'
'10개월'
'108'
'104'
'100억원'
'100대_'
'1000억_'
'1000만'
'0대_'
'06_'
'02'
'000원으로_'
'000원에_'
'000만_'
'... '
'..'_'
'.""'
'!”'
'!'"_'
' △_'
' ""'
'힘들어'
'힐스'
'힐링_'
'히로시'
'히딩크'
'희망의_'
'희망을_'
'흡수합병'
'흐림_'
'흐름'
'흐_'
'흉'
'휴일_'
'휴업'
'휴식을_'
'휴스'
'훨'
'훙'
'후보의_'
'후보물질'
'효자'
'효율성'
'효과로_'
'횡성'
'횡령'
'회항'
'회의서_'
'회원들'
'회용'
'회서_'
'회생절차_'
'회사에'
'회사로_'
'회복세'
'황의조'
'황선홍_'
'황대헌'
'활약한_'
'활력_'
'환호하는_'
'환호하고_'
'환이_'
'환의_'
'환수_'
'환송'
'환경연'
'확인된_'
'확신'
'확대하'
'확_'
'화학무기_'
'화질_'
'화제가_'
'화전'
'화요일'
'화순_'
'화성시'
'화상_'
'화산'
'화사'
'화백'
'홍수'
'홈페이지에_'
'홈에'
'홈쇼핑_'
'홈런포_'
'혼잡'
'호프'
'호조에_'
'호조_'
'호조'
'호영_'
'호국보훈의_'
'호국'
'형지'
'협력업체_'
'협력사업'
'협력기'
'혐오'
'현판식_'
'현충'
'현재가'
'현장서_'
'현실화'
'현수'
'현대차투자증권'
'현대자동차가_'
'현대시'
'현금영수증'
'혁신지원사업'
'혁신도시'
'헬기'
'헤지펀드'
'헤딩'
'헌터_'
'허창수_'
'허리'
'허가를_'
'행정자치부'
'행정안전부는_'
'행정사_'
'행정부_'
'행이'
'행보'
'핵심이'
'핵무기'
'해저'
'해운대구'
'해수욕장'
'해상풍력발전'
'해빙기'
'해볼_'
'해병대'
'해리스'
'해리'
'해당하는_'
'해고_'
'해경에_'
'항해_'
'항에_'
'항소_'
'항만'
'합참의장'
'합성'
'합병을_'
'함평군'
'함유'
'할부'
'할머니'
'한화테크윈_'
'한화케미칼_'
'한화의_'
'한파주의보'
'한파_'
'한진_'
'한일관계_'
'한이_'
'한유'
'한우_'
'한식'
'한시적'
'한수'
'한미반도체'
'한미동맹_'
'한마'
'한달을_'
'한다'
'한국콜마'
'한국카'
'한국지엠_'
'한국중'
'한국영'
'한국수'
'한국바'
'한국기업'
'한국기독교'
'한국금융지주'
'한공'
'한곳'
'학생회'
'학생이_'
'학생부'
'학생들에게_'
'학생들_'
'학력_'
'학대_'
'학년'
'학교를_'
'하키'
'하철_'
'하이파'
'하이투자증권'
'하원의'
'하원'
'하우'
'하와'
'하얏트_'
'하수도_'
'하수'
'하반'
'하려_'
'하려'
'하동군'
'하도록_'
'하나인_'
'하나은행_'
'하나금융지주'
'하계'
'핑크'
'핏_'
'필수_'
'필수'
'피해지역'
'피해기업'
'피트'
'피치'
'피츠버그'
'피자_'
'피의자'
'피에'
'피아노_'
'피리'
'피닉스'
'피는_'
'플래그십_'
'플라자호텔'
'프티'
'프린터'
'프린'
'프리카_'
'프로배구_'
'프로모션'
'프랑크푸르트'
'풍성_'
'풍선_'
'풍산_'
'표했다_'
'표창원_'
'표절'
'표결_'
'폴리스_'
'폴더블'
'폰을_'
'폭을_'
'폭우로_'
'폭스바겐'
'포획'
'포항지진'
'포토'
'포터'
'포켓몬'
'포켓'
'포용'
'포스트'
'포수'
'포상'
'포르투갈_'
'포럼에'
'포드_'
'포도'
'포기하지_'
'포그바'
'포괄적_'
'폐업'
'평창올림픽'
'평창동계올림픽'
'평생_'
'평균자책점_'
'평가전_'
'펼치'
'펼쳐지'
'편의'
'편을_'
'편리'
'펴'
'펜_'
'페이지'
'페이스'
'페르난데스'
'페루_'
'페더러'
'펍지_'
'펍_'
'펀드에_'
'퍼레이션'
'패트릭_'
'패턴_'
'패스트'
'판타지'
'판이_'
'판매한_'
'판매전_'
'판매된'
'파트너스_'
'파킹'
'파주'
'파이팅을_'
'파이어_'
'파이널판타지14_'
'파이낸'
'파사'
'파문_'
'파리바게뜨_'
'파동'
'파기_'
'파격'
'팅을_'
'티즌'
'티오'
'티아'
'티스_'
'티몬'
'티맥스'
'티가_'
'틈'
'틀리'
'특정_'
'특정'
'특수학교'
'특성화_'
'특별점검_'
'특별위원'
'특별수사'
'특별검사팀'
'트인_'
'트위터_'
'트립'
'트림'
'트로_'
'트렌'
'투쟁'
'투자했다'
'투자증권'
'투자설명'
'투자사'
'투자로_'
'투자금'
'투명성_'
'투런포_'
'투게더_'
'퇴직연금_'
'퇴장'
'퇴근'
'통화정책_'
'통행료_'
'통신사'
'통상임금_'
'통관'
'통과했다'
'통계_'
'톱5_'
'톡톡_'
'토즈'
'토론회에'
'토러스'
'토대'
'텔콘_'
'텔리'
'테크윙'
'테크는_'
'테슬라'
'테스'
'테라_'
'터에'
'터뜨'
'터너'
'택시운전'
'태워'
'태우'
'태영건설'
'태영_'
'태영'
'태백시_'
'탈북_'
'탄이_'
'탄소'
'탄산'
'타이밍_'
'타워크레인_'
'타수_'
'타석_'
'타사'
'타리'
'타당'
'타나'
'킴이_'
'키친_'
'키위'
'키워드는_'
'클러'
'클래시'
'크리스티'
'크리스'
'크라우드_'
'크는_'
'큐브'
'큐로'
'퀄컴'
'쿡_'
'쿠폰'
'쿠_'
'쾌척_'
'쾌거를_'
'콤_'
'콜로라도_'
'콜라보'
'콜라_'
'콘텐츠를_'
'콘테'
'콘셉트_'
'코카콜라_'
'코치가_'
'코와'
'코아루_'
'코스메틱_'
'코스메틱'
'코리아세일페스타_'
'코로나19에_'
'코드'
'코다'
'코넥'
'코너'
'켈'
'케이지'
'케이에'
'케이뱅크_'
'케스'
'컴퍼니는_'
'컴퍼니'
'컬링'
'컨벤션_'
'커져_'
'커뮤니케이션'
'캔슬링_'
'캐시_'
'칼리'
'카카오택시_'
'카카오는_'
'카카오게임즈'
'카바이'
'카드로_'
'침몰_'
'칠성'
'칠곡군'
'치열한_'
'치어'
'치안'
'치르'
'층에_'
'측에_'
'취한_'
'취하'
'취재진'
'취임했다'
'취임식'
'충주'
'충북대_'
'충격에_'
'충_'
'출하량'
'출품'
'출전했'
'출전한다_'
'출신의_'
'출시됐다_'
'출발한_'
'출간'
'춘천시_'
'축구대회_'
'축구단'
'추출'
'추진하겠다'
'추진하'
'추진에_'
'추정되는_'
'추방'
'추모식'
'추모비'
'추는_'
'추가시간'
'최형'
'최진'
'최정_'
'최저치'
'최저가_'
'최은'
'최우수상_'
'최연소_'
'최악'
'최민'
'최고위원회의'
'최고기온'
'최강자'
'총생산'
'총상'
'총기_'
'총격_'
'초에_'
'초반'
'초대전'
'첼'
'첸'
'체크카드'
'체질'
'체육회_'
'체력_'
'체납자'
'체감경기'
'체감'
'청호나이스'
'청주시'
'청장이_'
'청원에_'
'청운'
'청신호'
'청문'
'청도'
'청년통장_'
'청년들'
'청과_'
'첫발_'
'첫날인_'
'첩_'
'철에'
'철도공단_'
'천지인_'
'천적'
'천연_'
'천문'
'천리'
'처벌을_'
'처리기'
'챙기'
'챔피언스'
'책임자_'
'책이_'
'책은'
'채용을_'
'채권시장_'
'찾았'
'창훈_'
'창출을_'
'창조경제혁신센터'
'창작_'
'창이'
'창의_'
'창업자'
'창업박람회_'
'창설_'
'창립'
'창당대회'
'참좋은'
'참전용사'
'참여한다_'
'참여자'
'참고인_'
'참가한다고_'
'참가하'
'참가자들이_'
'찬사'
'찬반_'
'착취'
'착수했'
'착수한'
'차지'
'차익'
'차분'
'차바이오텍'
'차바'
'차명'
'찜'
'찍는'
'쪽방'
'쪽'
'쩍_'
'짱'
'집중호우'
'집중해'
'집에_'
'집무'
'집단폭행'
'집단감염_'
'집니다_'
'질의'
'질식'
'진흥공'
'진행되는_'
'진통_'
'진출한다고_'
'진천군'
'진천_'
'진지'
'진제'
'진영_'
'진심'
'진상조사'
'진보'
'진도_'
'진공_'
'직한_'
'직원들과_'
'직불'
'직능'
'직격탄'
'지프'
'지크_'
'지침을_'
'지출_'
'지체'
'지청'
'지지율'
'지중해'
'지인'
'지원사업을_'
'지원단'
'지원금'
'지온'
'지연'
'지역화폐_'
'지역주민'
'지역위원'
'지역구'
'지역경제_'
'지분매각_'
'지방정부'
'지방은'
'지방분권'
'지문인'
'지목'
'지던'
'지대'
'지난해에'
'지겠다'
'증정'
'증언_'
'증서'
'증권사'
'증강현실_'
'증가하'
'즐기'
'즐겨'
'즐거운_'
'즈마'
'중흥'
'중지_'
'중점적으로_'
'중요하다_'
'중요하'
'중요'
'중앙회_'
'중앙정'
'중앙오션'
'중소기업의_'
'중단했'
'중단을_'
'중기부_'
'중국에_'
'중견'
'줄이는_'
'줄여_'
'줄여'
'줄어들'
'줄어든_'
'줄기세포'
'준장'
'죽도'
'주택공'
'주축'
'주체'
'주주가치_'
'주장한_'
'주장하는_'
'주장에_'
'주요국_'
'주얼'
'주상복합'
'주사_'
'주변에'
'주민이_'
'주목할_'
'주목을_'
'주거복지'
'주거_'
'좌익수_'
'좌_'
'좋아_'
'종합지원센터'
'종전선언'
'종업원'
'종사자_'
'종류'
'종결'
'조화_'
'조형물'
'조현우_'
'조치에'
'조차_'
'조짐'
'조직위원'
'조주'
'조절_'
'조영'
'조세_'
'조성한'
'조성을_'
'조성된다_'
'조선소_'
'조사한'
'조별'
'조문_'
'조류_'
'조달청'
'조광'
'졌지만_'
'젬'
'젤리'
'젠지'
'젠더'
'제품이_'
'제출했다고_'
'제출했다_'
'제천'
'제주항'
'제주에'
'제주공항_'
'제조업'
'제정_'
'제이엠'
'제어'
'제약사_'
'제목'
'제동_'
'제기된'
'제73'
'제21'
'제19회_'
'제16회_'
'제15회_'
'제14'
'정체성'
'정책협의'
'정책토론회_'
'정책의_'
'정족'
'정정용'
'정장'
'정우영_'
'정수기'
'정선군'
'정상회담에'
'정상화'
'정부세종청사에서_'
'정부를_'
'정부대전청사'
'정봉'
'정보통신기술'
'정박'
'정밀'
'정무위'
'정몽규'
'정례회'
'정근우'
'정갑윤_'
'접수한'
'접속'
'접목'
'접견하'
'점퍼'
'점점_'
'점이'
'점심'
'점대'
'점검회의'
'점검한다'
'점검하'
'점거'
'절대_'
'절단_'
'절감'
'전환해'
'전환사채'
'전화를_'
'전통적'
'전철'
'전주대'
'전자투표'
'전자정부_'
'전임_'
'전시회가_'
'전시장에서_'
'전시관'
'전사_'
'전분기'
'전반적'
'전망치'
'전력강화'
'전략이_'
'전람'
'전라북도'
'전대'
'전달하'
'전년'
'전남대'
'전기공'
'전국에서_'
'전국민'
'전국대'
'전교조_'
'전광'
'적지'
'적성'
'적법'
'저평가_'
'저축'
'저장장치'
'저장'
'저의_'
'저수지_'
'저리'
'저렴'
'저감_'
'재활의학'
'재확인_'
'재판이_'
'재탄생_'
'재탄생'
'재킷'
'재직자_'
'재지정_'
'재조사'
'재심_'
'재배치'
'재무장관'
'재단에_'
'재난기본소득_'
'재규'
'재고'
'재경'
'재개했다'
'재개한다'
'장학생_'
'장치'
'장충'
'장애인의_'
'장소_'
'장소'
'장사_'
'장병들'
'장배_'
'장맛비'
'장마_'
'장내매수_'
'장난'
'장기화_'
'장교'
'잡는_'
'잠재력'
'잠시_'
'잠수함_'
'잠_'
'잘해'
'잔혹'
'작동_'
'작동'
'자택'
'자카'
'자치구_'
'자정'
'자유무역'
'자유계약'
'자선_'
'자부'
'자발적_'
'자릿수_'
'자료제공_'
'자료를_'
'자동차보험'
'자국_'
'잉크'
'잉_'
'있으'
'있었던_'
'잇츠'
'잇단_'
'입학식'
'입학_'
'입주민'
'입었'
'입법예고'
'입대_'
'입국장'
'임직원이_'
'임정'
'임용_'
'임신_'
'임시국회_'
'임명했다고_'
'임대차'
'임금협상_'
'임금체불_'
'잃어버'
'읽어주'
'일회성_'
'일종'
'일자리정책'
'일자리센터'
'일자리사업'
'일일'
'일상을_'
'일부를_'
'일만'
'일리'
'일동제약'
'일당'
'일기'
'일교차_'
'인텔_'
'인턴_'
'인터뷰하는_'
'인천항'
'인천지'
'인천국제공항'
'인증기'
'인접'
'인원_'
'인양_'
'인수를_'
'인쇄'
'인상한다'
'인상과_'
'인명_'
'인덱스'
'인권위'
'인건'
'인강_'
'익시'
'이후에'
'이하'
'이틀'
'이투스'
'이통'
'이케'
'이정은'
'이전에_'
'이재민_'
'이임'
'이의'
'이윤'
'이유를_'
'이용하는_'
'이영학'
'이었던_'
'이언주_'
'이어폰_'
'이어지는_'
'이야_'
'이시'
'이승훈_'
'이스타'
'이세돌_'
'이상으로_'
'이상범_'
'이별'
'이벤트는_'
'이범'
'이미지'
'이링'
'이름으로_'
'이뤄졌'
'이루'
'이로_'
'이례적_'
'이디'
'이들_'
'이동하는_'
'이노비즈'
'이념'
'이끌어_'
'이끌'
'이기_'
'이글스가_'
'이근호'
'이것'
'이건희_'
'이같이_'
'의향'
'의지를_'
'의장이_'
'의원에_'
'의약품'
'의류'
'응_'
'음원'
'음식점'
'음성인식_'
'음료'
'은희_'
'은행이_'
'은행은_'
'은행과_'
'은이_'
'은성수_'
'으로써_'
'으로도_'
'윤창'
'윤영'
'윤석헌_'
'윤상'
'육성을_'
'육성에_'
'육성사업_'
'육관'
'유행'
'유해발굴'
'유한양행_'
'유포한_'
'유튜버'
'유치했다'
'유착_'
'유진_'
'유적'
'유일'
'유원'
'유연'
'유엔총회_'
'유아용'
'유소연'
'유선'
'유산균_'
'유리_'
'유류'
'유럽에서'
'유도하'
'유공_'
'유공'
'유가증권시장_'
'유가증권'
'윌슨'
'윈터'
'위해'
'위탁_'
'위축'
'위원회에서_'
'위원회에_'
'위원장과_'
'위메프'
'위례'
'위드_'
'위드'
'위는_'
'위기의_'
'웹툰_'
'웹_'
'웰컴'
'웠'
'원활'
'원지'
'원장은_'
'원장에_'
'원유철_'
'원유'
'원스토어'
'원서_'
'원산지'
'원룸'
'원금'
'원격'
'웃음_'
'움직임을_'
'움직임'
'울프'
'울트라'
'울산시장'
'울릉도_'
'울란바토르'
'운항'
'운전면허_'
'운용사'
'운영사'
'운동을_'
'우표'
'우즈베키스탄_'
'우주_'
'우울증_'
'우선협상대상자로_'
'우선협상'
'우먼_'
'용인대'
'용으로_'
'용사'
'용병'
'요청하'
'요인_'
'요리_'
'요동'
'요금제'
'외환보유액'
'외치'
'외에'
'외벽'
'외무성'
'외면'
'외국인근로자_'
'외교통'
'외교안보'
'외과'
'완화에_'
'완패'
'완성차_'
'완도군_'
'와이어'
'와이번스_'
'와이드'
'옴'
'옮겨'
'올림픽파크'
'올랐'
'올라가'
'온실가스_'
'온라인에'
'온라인쇼핑'
'온라인몰_'
'온누리'
'오후에_'
'오현'
'오픈한다_'
'오토모'
'오토_'
'오타니'
'오케스트라'
'오찬'
'오존주의보'
'오일_'
'오스트리아_'
'오션'
'오면'
'오리지널'
'오리_'
'오래_'
'오뚜기_'
'오늘도_'
'예상했다_'
'예상대로_'
'예산정책'
'예배_'
'예배'
'예매_'
'예루살렘'
'예고했다_'
'영향력_'
'영업손'
'영문'
'영결식'
'영감'
'엿'
'열흘간'
'열었습니다_'
'열악한_'
'열쇠'
'열매_'
'연휴에'
'연한'
'연체_'
'연체'
'연이'
'연속으로_'
'연맹이_'
'연루_'
'연동_'
'연극'
'연구팀_'
'연구에_'
'연구센터_'
'연구결과가_'
'연결하'
'역사교과서_'
'역도_'
'여행지'
'여행객_'
'여성을_'
'여성단체'
'여부가_'
'여명이_'
'여름휴가'
'여대_'
'여당'
'여권_'
'여고'
'여객'
'엣'
'엘앤'
'엔터테인먼트는_'
'엔진오일_'
'엔에스_'
'엔시'
'엔비'
'엑스포'
'에코마케팅'
'에이치엘비_'
'에이전트_'
'에어팟_'
'에스테'
'에버'
'에릭_'
'에듀윌_'
'에겐_'
'었다'
'었는'
'엇갈린_'
'없다'
'업황_'
'업체의_'
'업체가_'
'업소'
'얻고_'
'언론은_'
'언니'
'언급하'
'억9'
'어지는_'
'어울림'
'어비스'
'어반'
'어린이재단'
'어렵'
'어도비'
'어닝_'
'어깨'
'양현종'
'양해각서를_'
'양천'
'양의지_'
'양의'
'양수도'
'약물'
'야권'
'야구장에서_'
'야구의_'
'앤디_'
'액을_'
'애프터'
'애인'
'애드'
'앞바다'
'압수수색했다_'
'압수'
'압력'
'압도적_'
'알파인'
'알아보'
'알선'
'알리_'
'알렸다_'
'알고_'
'않게_'
'앉'
'안정성'
'안전진단'
'안전지'
'안전성_'
'안전기'
'안전관리_'
'안은_'
'안다_'
'안녕'
'안건_'
'악재_'
'악어'
'악수_'
'아프리카돼지열병'
'아파트에'
'아파트가_'
'아직도_'
'아이스_'
'아이디'
'아이들_'
'아시아나_'
'아산시'
'아베'
'아름답'
'아름다운'
'아레나_'
'아랍에미리트'
'아들이_'
'아니냐는_'
'아나_'
'아가'
'씻'
'씬_'
'씨티은행'
'씨엠'
'씨에스'
'씨에'
'씨앤'
'쓸'
'쓰면_'
'쑥'
'쏙'
'쏘아_'
'쏘나타_'
'썸머_'
'쌍용건설_'
'싹쓸이_'
'싱글_'
'싱가포르에'
'십자'
'심한_'
'심폐소생술_'
'심문'
'실험_'
'실패했다_'
'실전_'
'실적발표_'
'실용'
'실업률_'
'실시하는_'
'실시된'
'실시간으로_'
'실습'
'실수_'
'실손'
'실무협'
'신태용호_'
'신청자'
'신청서_'
'신진'
'신조_'
'신제품'
'신저'
'신임대표'
'신인상'
'신은'
'신용보증기금'
'신용대출_'
'신용거래융자_'
'신선식품'
'신산업'
'신라호텔'
'신기술_'
'신규취'
'신규사업'
'신고했'
'식중독_'
'식장'
'식음료'
'시행한'
'시행된'
'시티에'
'시키기'
'시큐리티_'
'시켜'
'시총_'
'시즌3_'
'시즈'
'시중'
'시정_'
'시장으로_'
'시장에'
'시장서_'
'시작해'
'시의회'
'시위대'
'시와_'
'시연_'
'시야'
'시세_'
'시설공'
'시범운'
'시멘트'
'시마_'
'시립'
'시리즈를_'
'시도하는_'
'시급'
'시군'
'승자'
'승리에'
'승객'
'스피드_'
'스프링캠프_'
'스프린트'
'스펙'
'스페셜'
'스트라'
'스튜어'
'스톤'
'스템_'
'스템'
'스텐'
'스테크'
'스타필드_'
'스타일링_'
'스케이팅_'
'스승_'
'스마트홈_'
'스마일게이트'
'슈틸리케'
'숯'
'숫자로_'
'숨지'
'술에_'
'순환_'
'순자'
'순유입'
'순매도'
'수현'
'수탁'
'수칙'
'수출입은행_'
'수출이_'
'수의'
'수원시는_'
'수요일'
'수여식에'
'수업을_'
'수시_'
'수소_'
'수석보좌관'
'수백'
'수문'
'수립'
'수돗물_'
'수도권에'
'수도권'
'수급자'
'수거_'
'쇼트'
'쇄신'
'솥'
'송파'
'송치'
'송정'
'송산'
'송금_'
'손흥민에'
'속초시'
'속에서도_'
'소한'
'소하'
'소프트뱅크'
'소지'
'소중'
'소음'
'소위'
'소원'
'소에_'
'소송을_'
'소니코리아'
'소니_'
'소년_'
'소개하는_'
'셉_'
'셀렉트_'
'센트럴_'
'센트'
'센터의_'
'센터에_'
'섹'
'세트'
'세종대'
'세월호'
'세워'
'세운'
'세스코'
'세상이_'
'세비'
'세븐일레븐'
'세부_'
'세법'
'세레'
'세금_'
'세계일'
'세계선수권_'
'성희롱_'
'성화'
'성평'
'성장에_'
'성장세'
'성신'
'성수기'
'성동구_'
'성남시'
'성남FC'
'성관계_'
'성관계'
'설치한다고_'
'설치된_'
'설정액'
'설을_'
'설욕_'
'설에_'
'설빙'
'설문'
'설명하는_'
'선체_'
'선착'
'선제적'
'선제골_'
'선제'
'선장'
'선으로_'
'선언하'
'선언을_'
'선수를_'
'선선'
'선서_'
'선서'
'선방'
'선로'
'선다_'
'선글라스'
'선고했다_'
'선거비용'
'선거구_'
'선거구'
'석현준'
'서원'
'서울시의'
'서울시민'
'서울시내_'
'서울도'
'서울대공원'
'서울구치소'
'서양'
'서비스가_'
'서밋_'
'서민'
'서류'
'서구는_'
'서구'
'샤오미_'
'샤오'
'샤넬'
'생활을_'
'생활비'
'생활권'
'생활가전_'
'생필품'
'생산성_'
'생명은_'
'생계형_'
'생각을_'
'새벽'
'새단장'
'새누리당'
'상환_'
'상한가를_'
'상한'
'상품으로_'
'상지'
'상장사'
'상임위원'
'상이_'
'상위'
'상용화_'
'상업용지_'
'상승하고_'
'상승세로_'
'상수도_'
'상수_'
'상속'
'상사_'
'상대방'
'삽_'
'삼현철강'
'삼진_'
'삼일회계법인'
'삼영'
'삼성카드_'
'삼성중공업_'
'삼성의_'
'삼성엔지니어링'
'삼각'
'살이'
'살롱_'
'산화'
'산책'
'산지_'
'산에'
'산업협회'
'산업전_'
'산모'
'사후'
'사회적경제_'
'사회복지관'
'사회공헌활동'
'사형_'
'사학연금'
'사체'
'사이언스_'
'사이버대'
'사용한_'
'사옥에'
'사업화'
'사업지'
'사업이'
'사업은_'
'사업단_'
'사양_'
'사망사건'
'사망률은_'
'사리_'
'사령탑'
'사람은_'
'사냥'
'사격_'
'뽑는'
'뺀'
'빼앗'
'빼돌려_'
'빡'
'빚은_'
'빚어'
'빙속'
'빌미'
'빌리지'
'빌딩에서_'
'빈집'
'빅리'
'빅데이터로_'
'비판하'
'비즈_'
'비즈'
'비정'
'비용을_'
'비욘'
'비어'
'비앤'
'비싸'
'비시'
'비수기'
'비선'
'비서관에_'
'비서_'
'비상대책위원장이_'
'비만'
'비로_'
'비례연합'
'비둘기'
'비닐'
'비난했다_'
'비관'
'비과세'
'비결은_'
'블리'
'블룸버그'
'블로그'
'블레이'
'블러_'
'블랑_'
'브릿지'
'브로드'
'브레이크_'
'붙잡혔습니다_'
'붙였'
'붐'
'불허'
'불편_'
'불출석'
'불안정'
'불명_'
'불명'
'불매운동_'
'불꽃축제'
'불꽃놀이'
'불과_'
'분포를_'
'분쯤_'
'분주'
'분양한다'
'분양가_'
'분리_'
'분류'
'분담금_'
'북한인'
'북한이탈주민'
'북한군_'
'북적'
'북미정상회담'
'북구청'
'부회장의_'
'부하'
'부탁해_'
'부천시_'
'부진한_'
'부족하'
'부적합_'
'부장관'
'부유'
'부스_'
'부상을_'
'부산의_'
'부산은'
'부산시장_'
'부산교통공사'
'부사장을_'
'부문의_'
'부른'
'부다'
'부국증권'
'부과하'
'봐야_'
'볼트_'
'볼룸에서_'
'본청'
'본인부담'
'본인_'
'본부장이_'
'복지시설'
'복지관'
'복대'
'보호구역_'
'보증금_'
'보전_'
'보은군'
'보은_'
'보여주는_'
'보성군'
'보라'
'보드'
'보도자료'
'보내는_'
'보궐선거'
'보고서'
'병원은_'
'병원으로_'
'병원성'
'병원과_'
'병역_'
'별이'
'별명'
'변화에_'
'변신한'
'벨로스터'
'벤투호_'
'벤처기업_'
'베이커'
'베이션_'
'법적'
'법의_'
'법은_'
'법원행정처'
'법에_'
'법령'
'벌써_'
'번째'
'번즈'
'번개'
'버추얼'
'버거_'
'밸런스'
'밸'
'백제'
'백승호'
'백서'
'백남기_'
'배후수요'
'배추'
'배에_'
'배스'
'배상_'
'배민'
'배관'
'방향으로_'
'방치'
'방조'
'방안이_'
'방송을_'
'방법을_'
'방문한다_'
'방문객'
'방과'
'방공'
'발족_'
'발족'
'발자'
'발생했습니다_'
'발사체_'
'발대식'
'발굴조사'
'발간했다고_'
'받는다고_'
'반짝_'
'반입_'
'반입'
'반영하'
'반박_'
'반미'
'반다'
'박효'
'박헌'
'박해민'
'박한_'
'박치'
'박찬호_'
'박찬주_'
'박지현'
'박지수_'
'박주민_'
'박정환_'
'박자'
'박용택_'
'박수현_'
'박수'
'박세혁'
'박봉'
'박병'
'바캉스_'
'바우'
'바르셀로나'
'바레인'
'바라는_'
'바꾼_'
'바가'
'밑돌'
'밑'
'밀착'
'밀집'
'밀양_'
'밀반'
'밀려'
'밀레니엄'
'믿을_'
'믿고_'
'민중당_'
'민주화운동_'
'민주묘지'
'민정수석'
'민자'
'민원실'
'민병두_'
'민병'
'민관합동_'
'민갑룡_'
'민간인_'
'믹스_'
'믹_'
'미화'
'미팅'
'미제'
'미아'
'미술_'
'미세_'
'미생물'
'미르'
'미뤄'
'미로'
'미래에셋박현주재단'
'미래에셋대우에'
'미네'
'미국인'
'므'
'뮤지컬'
'뭇'
'물었다_'
'물리치'
'물고'
'묻지마_'
'문화콘텐츠_'
'문화재단은_'
'문화예술_'
'문화산업'
'문화를_'
'문화교류'
'문화가_'
'문정인'
'문성'
'문선민'
'문산'
'문건'
'묵념'
'무주군'
'무죄_'
'무원'
'무역협상'
'무역전'
'무역분쟁_'
'무엇이'
'무슨_'
'무소'
'무상증자'
'무보'
'무디스'
'무더'
'무기한_'
'무기징역_'
'묘_'
'몸값'
'몰래_'
'목포신항'
'목적_'
'목사_'
'모토_'
'모집을_'
'모집에_'
'모임을_'
'모인_'
'모음'
'모으'
'모여'
'모았다_'
'모습이_'
'모습'
'모스크바'
'모른다'
'모두를_'
'모델하우스_'
'모델이_'
'모델에_'
'모교'
'모가'
'명인'
'명이'
'명예회장_'
'명예교수'
'명대'
'면접_'
'멤버스_'
'멘트'
'메카_'
'메일_'
'메인_'
'메인'
'메이트'
'메이크업_'
'메이드'
'메시지를_'
'메시지'
'메디포스트'
'메디칼'
'메뉴_'
'메가맨_'
'먼트_'
'먹고_'
'먹거리'
'머물'
'머니'
'맺은_'
'맹타'
'매칭'
'매체들'
'매수세에_'
'매매거래'
'매를_'
'매도우위'
'매경'
'매개'
'맞춘_'
'맞이'
'맛집'
'말한다_'
'말에'
'말리'
'말고_'
'만해'
'만취_'
'만들자_'
'만들었다_'
'만두_'
'만날_'
'만공사'
'막바지_'
'마포_'
'마포'
'마찬가지'
'마장'
'마일'
'마이스터고_'
'마을에'
'마시는_'
'마시'
'마스터스_'
'마스터'
'마술'
'마세'
'마무리했다'
'마무리하'
'마리나'
'마련했다고_'
'마련하라'
'마련하'
'마라톤대회_'
'마녀'
'링링_'
'립니다_'
'린드블럼_'
'리포트_'
'리티'
'리카'
'리지_'
'리조트'
'리우데자네이루_'
'리뷰_'
'리베'
'리모델링_'
'리모델링'
'리를_'
'리디'
'리공'
'른다_'
'르크'
'르브론_'
'류석춘_'
'뤄'
'룸에'
'룸'
'룬'
'룩스_'
'루키_'
'루머'
'롯데호텔_'
'롯데케미칼_'
'롯데케미칼'
'롯데칠성음료'
'롯데지주'
'롯데백화점'
'롯데렌터카_'
'롤스'
'롤_'
'로프'
'로사리오_'
'로마_'
'로드FC_'
'로도_'
'로고'
'령관_'
'렬'
'렛_'
'렉시'
'렉서스_'
'렉_'
'레전드'
'레일'
'레이저'
'레이드_'
'레이더_'
'레벨_'
'레벨'
'렀다_'
'럿'
'럽_'
'런스'
'러프'
'러블'
'러드'
'량은_'
'래미안'
'랄'
'란트'
'락스_'
'라포'
'라티'
'라인업을_'
'라이선스_'
'라운지'
'라운드테이블'
'라운드에서_'
'라디오'
'띠_'
'뛸_'
'뛰었'
'또다시_'
'떠올랐'
'땀'
'디즈'
'디오'
'디스플레이'
'디스_'
'디스'
'디바이스_'
'디딤'
'등판한'
'등장한_'
'등에'
'등급을_'
'들어간_'
'들어가는_'
'듣'
'드의_'
'드라이버'
'드라이'
'듀_'
'둬_'
'둥_'
'두테르테'
'두산이_'
'두산그룹'
'두드림'
'두드리'
'두달'
'되길_'
'되겠다_'
'됐다'
'돼'
'동행_'
'동행'
'동탄2신도시_'
'동전_'
'동의안_'
'동양생명'
'동아시아_'
'동신대'
'동성_'
'동부대우전자_'
'동백'
'동물_'
'동래'
'동대문_'
'동국제강_'
'동국'
'돌풍'
'돌연'
'돌고'
'독자'
'독립유공자_'
'독립기념관'
'도지사'
'도전하는_'
'도전하'
'도전장'
'도입해'
'도움'
'도심에'
'도시공사_'
'도시개발'
'도시가스'
'도발'
'도민_'
'도민'
'도로교통'
'도덕'
'데이터센터_'
'데이타'
'데이비드_'
'데뷔골'
'덜미_'
'더케이'
'더슨'
'더샵_'
'더불어민주당은_'
'더불어_'
'더라도_'
'대학생'
'대표자'
'대표이사에_'
'대표연설'
'대포'
'대통령으로'
'대출금리'
'대축제_'
'대처_'
'대책회의에'
'대책에'
'대책본부_'
'대진'
'대중교통'
'대정부'
'대접'
'대전에'
'대응하기_'
'대위'
'대신증권은_'
'대상은_'
'대사가_'
'대북제재_'
'대부'
'대법원에'
'대법관_'
'대명'
'대림산업'
'대륙간'
'대구와_'
'대구광역시'
'대구FC'
'대공'
'당첨자'
'당첨'
'당정청'
'당원'
'당에_'
'당선무효형'
'당뇨_'
'당구'
'닷'
'답답'
'담합'
'담아'
'담당하'
'달한'
'달을_'
'달력'
'단행했다_'
'단체장'
'단일판매ㆍ공급계약체결을_'
'단원'
'단어'
'단단한_'
'단과_'
'단계적'
'단거리_'
'다해_'
'다하'
'다쳤습니다_'
'다쳤다_'
'다이렉트_'
'다만_'
'다각도'
'닛케이225지수는_'
'닌텐도_'
'니트'
'니가_'
'늦은_'
'능률'
'늙'
'늘어날_'
'늘어나는_'
'늘렸다'
'늑'
'느낌'
'느끼'
'뉴질랜드'
'뉴딜사업'
'눈물을_'
'눈물'
'누리는_'
'뇌졸중_'
'놓친_'
'놓은_'
'높이고_'
'농축'
'농장_'
'농업인_'
'농업기술'
'농업경'
'농어촌_'
'농부'
'농민_'
'농림축산'
'농가를_'
'놈'
'놀이터'
'놀란_'
'놀라'
'논문'
'녹조'
'녹십자_'
'노트북'
'노이즈'
'노숙'
'노선을_'
'노량진'
'노동_'
'네팔'
'네이처리퍼블릭_'
'넣고_'
'넘어야_'
'넘어선_'
'너스_'
'냉장'
'내한_'
'내주'
'내정됐다'
'내일도_'
'내야_'
'내놨다_'
'내놔_'
'내년에는_'
'내년에'
'내년까지_'
'내년'
'내걸'
'낳'
'낮춘_'
'낭독'
'났다'
'납부'
'납_'
'남한'
'남의_'
'남아공'
'남도'
'날아'
'날린_'
'날리는_'
'날개'
'난사'
'낙동강_'
'낙관'
'나왔'
'나미_'
'나르'
'나들이_'
'나누기_'
'나기'
'나갔다'
'나간_'
'나가_'
'꿈나무_'
'꾸미'
'꽃축제_'
'꽃을_'
'꼽히는_'
'꼽은_'
'껴'
'께'
'깎아'
'김환'
'김홍일_'
'김현수'
'김포시_'
'김진태_'
'김지영_'
'김자'
'김일'
'김용환_'
'김영란법_'
'김신욱_'
'김수민_'
'김소'
'김성민'
'김상수'
'김범'
'김동엽_'
'길에'
'길래_'
'기획단_'
'기해_'
'기프트'
'기탁'
'기타_'
'기초자치단체'
'기차'
'기조강연_'
'기온'
'기여한_'
'기업집단'
'기업들의_'
'기업가치'
'기어_'
'기아자동차_'
'기아_'
'기승을_'
'기쁘다_'
'기분좋'
'기부하'
'기부터_'
'기름'
'기록했습니다_'
'기독교'
'기대하'
'기대주_'
'기다려'
'기니'
'기념행사_'
'기념하'
'기념촬영하'
'기념식을_'
'기념식에'
'기념사진을_'
'기념관'
'기금운용'
'기권'
'기관으로_'
'급락세'
'금호산업_'
'금품_'
'금지법'
'금전'
'금자'
'금융정보'
'금융업_'
'금융업'
'금융소비자'
'금융산업'
'금융교육'
'금융거래'
'금요'
'금수'
'금산'
'금메달을_'
'글이_'
'글렌'
'근로복지공단_'
'근로_'
'극장_'
'극우_'
'그친_'
'그치'
'그리_'
'그러면서_'
'그랜저_'
'그래픽'
'그랑프리_'
'그라'
'귤'
'규제를_'
'규제로_'
'귀화_'
'귀국한_'
'권영'
'권리락'
'권리'
'굳은_'
'군의회'
'군비'
'국제영화제'
'국제대'
'국제관'
'국이_'
'국유'
'국보_'
'국방장관'
'국방부가_'
'국방개혁'
'국민청원_'
'국민은행'
'국민연금이_'
'국민과_'
'국립현대미술관_'
'국도_'
'국대'
'국내선_'
'국공립_'
'국가정원'
'국가인권위원회'
'국가의_'
'국가안보실장_'
'국가산'
'국가보'
'구축했다'
'구축하'
'구축을_'
'구체적'
'구직자_'
'구조조정'
'구조됐다_'
'구민'
'구단주_'
'구급'
'구글플레이_'
'교훈_'
'교회에서_'
'교황_'
'교통사고'
'교육생'
'교육기'
'교보'
'교두보'
'교도'
'괴한_'
'광화문광장'
'광진구_'
'광진구'
'광주전남'
'광주은행'
'광주시장'
'광주광역시'
'광역시'
'광명'
'관찰'
'관중'
'관저'
'관의_'
'관영'
'관서'
'관문'
'관리할_'
'관리체계_'
'관리공단'
'관련종목들'
'관련자_'
'관계를_'
'과학원_'
'과테말라'
'과시_'
'과대학'
'과는_'
'공은_'
'공원서_'
'공영주'
'공연장_'
'공여_'
'공식화'
'공시를_'
'공석'
'공사현장_'
'공사현장'
'공사비_'
'공부'
'공동위'
'공단은_'
'공기청정'
'공기질_'
'공기업'
'공급한다_'
'공공임대주택'
'공공도서관'
'공고_'
'공고'
'공개한다'
'공간이'
'골키퍼'
'골자'
'골든크로스_'
'골든브'
'곧바로_'
'고척'
'고진영_'
'고조_'
'고정금리'
'고인'
'고유정'
'고용부_'
'고에'
'고시환율_'
'고수'
'고속도로'
'고소_'
'고성군_'
'고비'
'고무'
'고립_'
'고리_'
'고리'
'고령화'
'고려하'
'고등학교'
'고동'
'고독'
'고도화'
'고대영_'
'고농도_'
'고기'
'고공행진_'
'고공'
'고객에게_'
'고객들이_'
'고3_'
'계획하고_'
'계획이_'
'계열'
'계약했다'
'계약서_'
'계약금액은_'
'경총_'
'경찰청장'
'경찰서장'
'경찰서에'
'경제장관'
'경제자유구역'
'경제성장'
'경제부총리'
'경제과학'
'경제가_'
'경을_'
'경은'
'경영인'
'경영안정'
'경영시스템_'
'경부고속'
'경복궁_'
'경량'
'경남은'
'경남FC_'
'경기지사'
'경기전망'
'경기장에서_'
'경기력'
'경기도의회_'
'경기도와_'
'경계_'
'결함_'
'결정할_'
'결정한'
'결정됐다_'
'결의대회_'
'결승행_'
'결승전_'
'결산배당'
'결렬_'
'견조'
'겪었'
'격화'
'격려하는_'
'겨냥'
'겠'
'게재'
'게임즈가_'
'게임물'
'게는_'
'것이란_'
'겁니다_'
'검토해'
'검토하'
'검출된_'
'검진_'
'검은_'
'걸었다_'
'걸어'
'걸고_'
'건전성_'
'건재'
'건이_'
'건수가_'
'건배'
'건국'
'거포'
'거친_'
'거짓말_'
'거점_'
'거절_'
'거절'
'거리로_'
'거리가_'
'거래액_'
'거둔_'
'갤럭시A'
'갤러리아_'
'개혁보수신당_'
'개항'
'개정안'
'개장한다'
'개입'
'개인정보'
'개성_'
'개별_'
'개발지구'
'개발자'
'개막한다'
'개막한_'
'개막식'
'개그'
'개국'
'개강'
'강호'
'강조하'
'강정'
'강재'
'강이'
'강원지역'
'강연하는_'
'강서구'
'강백호'
'강기정_'
'감옥'
'감소세'
'감사인'
'감사원_'
'감사를_'
'감금'
'간편하게_'
'간에_'
'간사'
'간다고_'
'각자'
'각료'
'각광'
'가톨릭대_'
'가톨릭'
'가족친화'
'가정의_'
'가정간편식_'
'가야_'
'가세'
'가상화폐'
'가상통화_'
'가사'
'가만'
'가로챈_'
'가로수길'
'가로수'
'가로_'
'가든_'
'가득_'
'가드_'
'가능해진'
'가능할까_'
'가능할_'
'가능하다'
'가기'
'가계대출_'
'가겠다_'
'美대'
'月'
'弗_'
'安_'
'外人_'
'兆_'
'亞'
'㎜ _'
'」'
'「_'
'↑…_'
'” “_'
'’···'
'··· _'
' _'
'~"""_'
'wit'
've'
'v'
't으로_'
'ss'
'la'
'kt'
'bhc치킨'
'ar'
'YP'
'YG'
'WTI_'
'WT'
'WF'
'VO'
'UN'
'UEFA_'
'UAE_'
'The_'
'TRA'
'TEX_'
'TEC'
'TD'
'TC_'
'TC'
'St'
'Sh수협은행'
'SW'
'SOC_'
'SOC'
'SNS'
'SN'
'SK하이닉스와_'
'SK하이닉스는_'
'SK텔레콤은_'
'SK이노'
'SK의_'
'SK브로드밴드_'
'SK매직'
'SKC_'
'SI'
'SCM'
'SCI'
'RA'
'Q_'
'PSG'
'POSCO'
'PI'
'PGA투어_'
'PE'
'PC방'
'NS'
'NO_'
'NH농협은행은_'
'NH농협금융'
'MR'
'MOU를_'
'MI_'
'MD'
'MC_'
'LX'
'LS전선_'
'LS산전'
'LG하우시스_'
'LG하우시스'
'LG이노텍_'
'LG유플러스'
'LG그룹_'
'K리그'
'KT전_'
'KT스'
'KISA_'
'KGC_'
'KDB'
'KC그린홀딩스'
'KB증권은_'
'JB금융'
'IBK기업은행_'
'HS'
'HR'
'HP'
'HM'
'HA'
'GT'
'GS홈쇼핑_'
'GDP_'
'G70'
'EU'
'ER_'
'EN'
'EMP'
'EBS_'
'D램_'
'DF'
'DB금융투자_'
'CJ제일제당이_'
'CJ제일제당은_'
'CJ대한통운'
'CJ그룹_'
'BY'
'BNK금융'
'BC'
'B2B'
'A에'
'A씨가_'
'A생명'
'AT'
'AK플라자'
'AK'
'AFC_'
'AA'
'?” _'
'9일'
'9분'
'9만_'
'9대'
'9곳_'
'93억'
'90만'
'900원'
'8연'
'8번'
'8곳_'
'8강에_'
'82_'
'80억원_'
'80명'
'800원에_'
'800만원'
'800만'
'8000억원'
'7원_'
'7번째'
'7배_'
'7명이_'
'7경기'
'7개월'
'79_'
'78_'
'760'
'71_'
'70세'
'700만'
'7000억'
'6호'
'6주년_'
'6이닝_'
'6위_'
'6연패_'
'6승'
'6분'
'670'
'650원_'
'620'
'61억'
'60일'
'60만'
'60대'
'600억'
'600만원'
'5회'
'5천_'
'5일만에_'
'5일'
'5월에'
'5연승_'
'5승'
'5세'
'5당_'
'5년새_'
'5년만에_'
'5기_'
'5개월'
'58억'
'57명'
'570'
'550원_'
'50주'
'50여명'
'50만원_'
'50년_'
'500억_'
'500_'
'5000원'
'4조_'
'4일간_'
'4월1'
'4시간_'
'4배'
'470'
'40여'
'4000원'
'4000만원_'
'3쿠션'
'3천만'
'3자'
'3일까지_'
'3연패'
'3연승을_'
'3실점'
'3분의'
'3만_'
'3만5'
'3라운드'
'3동_'
'3단계_'
'3구'
'3건'
'3가지'
'370'
'365'
'350원에_'
'350원_'
'325'
'31명'
'30여명'
'30명'
'30도'
'300원에_'
'300여'
'2학년_'
'2패'
'2타'
'2척'
'2주'
'2조_'
'2실점_'
'2사'
'2부'
'2번째'
'2명을_'
'2거래일_'
'2개월'
'29억'
'27억'
'272'
'269'
'25전쟁_'
'2460선'
'245'
'241'
'2400'
'23만'
'232'
'22일'
'20조'
'20억'
'2024년'
'2021년'
'2020학년도_'
'2014년'
'200억원'
'200명_'
'2007년_'
'2000원'
'1회초'
'1호선_'
'1천억원'
'1조5'
'1조2'
'1절_'
'1인'
'1원'
'1억500'
'1억3'
'1박2일_'
'1만여'
'1루수'
'1로_'
'1도움_'
'1달러_'
'1경기'
'1개월'
'19년'
'1988_'
'1987'
'194'
'1900'
'18만'
'1800'
'17조'
'17년_'
'17개_'
'160억_'
'152'
'150원'
'14조'
'14명'
'1400'
'137'
'133'
'12호'
'12만'
'129'
'124'
'120억'
'11분'
'11번가'
'11만원'
'11년_'
'101_'
'100년_'
'0만달러_'
'0만_'
'000억원_'
'...""'
'-'_'
'+ _'
'+'
'*'
')_'
''···_'
''·'_'
''-_'
'&'
'%→_'
'%↑…'
'%↑'
'% ‘_'
'"- _'
'! '_'
' ↓'
' ·'
' ._'
' "" _'
'힘찬_'
'힘든_'
'힘겨운_'
'힐튼_'
'힐스_'
'히어로즈가_'
'히어로_'
'히어로'
'희석_'
'희생플라이'
'희망하는_'
'희망도'
'희가_'
'흥분'
'흔들고_'
'흔드는_'
'흑자전환'
'흐리'
'흉기'
'휴직'
'휴젤'
'휴전_'
'휴장_'
'휴온스'
'휴먼빌'
'휴대폰_'
'휴대전화'
'휴게소'
'휩'
'휘_'
'훼손_'
'훔쳐_'
'훌륭하'
'훈련이_'
'후폭풍'
'후퇴_'
'후퇴'
'후쿠'
'후즈_'
'후원한다'
'후보지_'
'후보들'
'후기_'
'효율적'
'효상_'
'효과를_'
'횡단'
'횟'
'획정'
'획'
'회피'
'회전율'
'회장단'
'회원국_'
'회와_'
'회식'
'회수_'
'회부'
'회복했다_'
'회귀'
'회관'
'황민경'
'황교'
'활주로_'
'활동한'
'활동이_'
'활기'
'환자를_'
'환자들'
'환인'
'환율조작'
'환영한다'
'환영하'
'환영사'
'환승'
'환담_'
'환경을_'
'환경관리'
'확충'
'확인할_'
'확인하고'
'확인됐습니다_'
'확산되고_'
'확보했다'
'확보한_'
'화했'
'화한_'
'화학은_'
'화학물질'
'화하는_'
'화하'
'화천_'
'화재는_'
'화장실_'
'화성연쇄살인'
'화물열차'
'화물_'
'화력발전소_'
'화력_'
'화력'
'홍천_'
'홍정'
'홍보팀'
'홈플러스'
'홈런으로_'
'홈경기_'
'홀리데이_'
'홀로_'
'홀드_'
'혼조세_'
'혼란'
'호한_'
'호평_'
'호우주의보_'
'호식'
'호스트'
'호선_'
'호반건설_'
'호는_'
'호가'
'형펀드에'
'형간염'
'협박한_'
'협력회'
'협력해_'
'협력하'
'협력사와_'
'협동조합_'
'혐의가_'
'혈관'
'혈_'
'현희'
'현판식'
'현지에서_'
'현지시간_'
'현정'
'현장의_'
'현장소'
'현안을_'
'현상_'
'현대화_'
'현대화'
'현대차의_'
'현대중공업과_'
'현대일렉트릭'
'현대인'
'현대오일뱅크'
'현대백화점그룹_'
'현대미포조선'
'현대미술'
'현대리바트_'
'현대렌탈케어'
'현대기아'
'현대글로비스'
'현대그린푸드'
'현대건설기계_'
'현대重'
'현대HCN'
'현금배'
'혁이'
'혁신성'
'혁신과'
'혀'
'헬스_'
'헬로비'
'헤럴드경제'
'헤드폰'
'헌혈_'
'헌정'
'헌의'
'헌법재판소'
'허위사실_'
'허수'
'허브'
'허더즈'
'향상을_'
'향교'
'행정지원'
'행정안전'
'행정소송'
'행정부'
'행정복지센터'
'행위에_'
'행성'
'행사장_'
'행보를_'
'행렬'
'했으며_'
'했으나_'
'했다'
'했나_'
'햇살'
'햇반_'
'햄스트링'
'핸드볼_'
'핵폐기'
'해졌다_'
'해운대'
'해외연수'
'해외에서_'
'해외수'
'해외선'
'해외사업'
'해외건설'
'해역_'
'해양오염'
'해야'
'해수욕장_'
'해소와_'
'해설위원'
'해서는_'
'해산'
'해병대_'
'해변에서_'
'해명_'
'해를_'
'해달라'
'해결해'
'항체_'
'항일'
'항의하는_'
'항소심에서'
'항서'
'항상_'
'항공은_'
'합천군'
'합창단_'
'합작'
'합의된_'
'합을_'
'합리적인_'
'합류했다_'
'합격_'
'함양'
'함안'
'함부'
'함께할_'
'할인해'
'할인된'
'할수'
'할리'
'할당'
'한화투자'
'한화전'
'한화에'
'한화는_'
'한화건설'
'한창_'
'한이'
'한스타'
'한솔제지'
'한세'
'한섬'
'한빛'
'한번에_'
'한번'
'한미동맹'
'한림대_'
'한동민_'
'한데_'
'한달_'
'한기'
'한국해양'
'한국학'
'한국표준협회'
'한국폴리텍대학_'
'한국특'
'한국투자증권에서_'
'한국은행은_'
'한국원'
'한국소비자'
'한국사회'
'한국방'
'한국발'
'한국무역협회'
'한국모바일게임'
'한국마'
'한국남'
'한국금'
'한국교회총연합'
'한국광'
'한국IR'
'한광'
'한겨'
'학점'
'학적_'
'학재단'
'학자금_'
'학위_'
'학업'
'학습지'
'학술대회_'
'하회'
'하향조정'
'하퍼'
'하트_'
'하천'
'하지'
'하이퍼'
'하이투자'
'하이스'
'하였다_'
'하야'
'하수도'
'하성'
'하사'
'하면서'
'하만_'
'하라는_'
'하더'
'하다고_'
'하다가_'
'하나투어'
'하나머티리얼'
'하나금융투자는_'
'하나금융투자'
'하계_'
'필지를_'
'필지_'
'필요하다고_'
'필립스_'
'필룩스'
'핀란드_'
'픽스_'
'피홈런_'
'피해는_'
'피하려'
'피크닉'
'피크'
'피지'
'피우'
'피부에_'
'피드_'
'피규어'
'피겨'
'플레'
'플랫폼에'
'프트'
'프릭'
'프리시'
'프리스타일'
'프로포폴_'
'프로세'
'프로바이오틱스'
'프레임_'
'프랜차이즈'
'프란'
'프라이스'
'프라이데이'
'퓨처스리그'
'풍선'
'풍미'
'풍경_'
'품질관리원'
'품격'
'풀리'
'푼_'
'푸엉'
'푸른'
'표창을_'
'표지'
'표의_'
'표심'
'폴리텍'
'폴란드'
'폴라'
'폴_'
'폭행해_'
'폭파'
'폭탄'
'폭의_'
'폭은_'
'폭우_'
'폭발적'
'폭격기'
'포항지역_'
'포항에서'
'포함된다_'
'포켓몬고_'
'포커스_'
'포착_'
'포유_'
'포옹'
'포스터_'
'포스터'
'포상금_'
'포드'
'포근'
'포가'
'폐사체_'
'폐기물'
'폐공사'
'폐_'
'평화와_'
'평화시'
'평행'
'평했'
'평택항'
'평택시'
'평창패럴림픽_'
'평일'
'평소'
'평가와_'
'펼쳤다'
'편집자'
'편집숍'
'편의점에'
'편의성'
'편법'
'펠리페_'
'펜타스톰_'
'페이코_'
'페이커_'
'페이스북에_'
'페이스_'
'페스트_'
'페르'
'펌프'
'펀드온라인코리아'
'펀드에서'
'펀드매니저'
'퍼펙트'
'퍼즐_'
'퍼스_'
'퍼블리싱_'
'퍼레이'
'팻'
'팰리스_'
'팰리스'
'팬들에게_'
'팩트_'
'팩트'
'패키지를_'
'패치'
'패전'
'패싱'
'패션쇼'
'패딩_'
'팝업_'
'팝업'
'팜은_'
'팔자'
'팔려_'
'팔레'
'팔꿈치'
'판으로_'
'판매했'
'판매중'
'판매량이_'
'판독'
'판단했'
'판다_'
'판교점'
'파트너사'
'파주시'
'파울_'
'파운데이션_'
'파악됐다_'
'파스퇴르'
'파리에'
'파란'
'파기환송심'
'파견'
'팀에서_'
'팀과_'
'틸러슨'
'틸_'
'틱스_'
'틱스'
'티켓'
'티어'
'티앤'
'티씨'
'티샷을_'
'티몰'
'티드'
'티노'
'티넘'
'틀어'
'특화_'
'특허출원_'
'특수부_'
'특산물_'
'특사_'
'특별상'
'특별사'
'특별검사'
'특례시_'
'트위터에'
'트리플_'
'트리플'
'트롤'
'트레이드_'
'트럼프에_'
'트랜'
'트라우마'
'튜닝'
'툴'
'투표하'
'투표율_'
'투톱'
'투자해'
'투자전'
'투자자의_'
'투자기'
'투자가_'
'투약_'
'투명_'
'투를_'
'투르'
'퇴출_'
'퇴진'
'퇴직_'
'퇴장하'
'퇴임_'
'퇴원_'
'퇴근길_'
'퇴거'
'통행'
'통학차량'
'통지'
'통장'
'통을_'
'통영_'
'통역'
'통신장비'
'통령'
'톱텍'
'토트넘의_'
'토요타'
'토요일_'
'토마'
'토록_'
'토로'
'톈'
'텔레그램_'
'텔라'
'텍이_'
'텍에_'
'텍스_'
'테크노파크'
'테이션_'
'테이_'
'테오'
'테믹'
'테마로_'
'턴트_'
'터치'
'터의_'
'터뜨린_'
'터닝메카드'
'탠다'
'택지_'
'태어'
'태도'
'태극기'
'탑에'
'탐앤탐스'
'탐색'
'탐사선_'
'탐방'
'탈원전'
'탈세_'
'탈세'
'탈삼진_'
'탈북민_'
'탈모'
'탄소_'
'탄생했'
'탄력근로제_'
'탄도미사일'
'탁구대'
'타협'
'타자로'
'타이탄'
'타이어는_'
'타이드_'
'타오'
'타에'
'타박상'
'타그'
'타격감_'
'킹은_'
'킨_'
'키워드_'
'키운다_'
'키우기_'
'키오_'
'키스_'
'키보'
'키는_'
'키고_'
'큼_'
'클린턴'
'클린'
'클리어'
'클리닉_'
'클루'
'클러스터_'
'클래스'
'클라이'
'크림_'
'크루셜텍_'
'크래프트_'
'퀘어'
'퀘스트_'
'쿼터_'
'쿨'
'쿠키'
'쿠쿠'
'쿠션_'
'쿠르트'
'콩두_'
'콩_'
'콜오브'
'콜업'
'콘트'
'콘텐츠로_'
'콘래드'
'코프'
'코치로_'
'코웨'
'코엑스'
'코에'
'코어_'
'코스피20'
'코스콤_'
'코스메카코리아'
'코스닥시장본부는_'
'코비치'
'코믹스'
'코리안리_'
'코리아의_'
'코리'
'코로나바이러스감염증'
'코나_'
'켰'
'켈로그'
'케인_'
'케이프'
'케이엠더블유'
'케이블TV_'
'케냐'
'컬래버레이션'
'컨티넨탈'
'컨디션_'
'컨_'
'커즈'
'커쇼_'
'커리'
'커넥티드카_'
'커넥션'
'커넥'
'캣_'
'캠코'
'캘리포니아_'
'캘'
'캔_'
'캐스트_'
'캐스'
'캐릭터를_'
'칼럼니스트'
'카페에서_'
'카탈루냐_'
'카카오프렌즈'
'카카오페이_'
'카카오M'
'카지'
'카자흐'
'카이스트'
'카이라이프'
'카운'
'카스트'
'카셰어'
'카드사_'
'칫솔'
'침해'
'침투'
'칠곡군_'
'칠곡_'
'친환경차_'
'친환경농'
'친정팀'
'친정_'
'친절'
'친서'
'친박_'
'친박'
'친다'
'친구에게_'
'치열'
'치렀다'
'측의_'
'측량'
'측근'
'취항_'
'취할_'
'취재진과_'
'취임한'
'취임사'
'취임'
'취업준비생'
'취소됐'
'취득하기로_'
'취득하'
'충주시_'
'충주시'
'충실'
'충분'
'충북도교육청'
'충북교'
'충무로'
'충당'
'출퇴근'
'출정식_'
'출입_'
'출신이'
'출시하고_'
'출소'
'출석한_'
'출범한'
'출발해_'
'출발하'
'출몰'
'출마한'
'출마선언'
'출동한_'
'출구'
'출간했다'
'춘추관에서_'
'축조'
'축제가_'
'축산물_'
'축구협회_'
'추천하는_'
'추진할_'
'추진한'
'추진위원회_'
'추위가_'
'추워'
'추신수'
'추석선물세트_'
'추모제'
'추락사'
'추돌'
'추도식'
'추경안_'
'추격_'
'추격'
'최현'
'최하'
'최태웅'
'최진행'
'최준'
'최종전'
'최적화된_'
'최원태'
'최우수상'
'최우선'
'최상위_'
'최대한'
'최대치를_'
'최대주주인_'
'최대의_'
'최단'
'최고인'
'최고경영자_'
'촬영을_'
'총회에_'
'총장에_'
'총연합회'
'총리는_'
'총력전'
'총동문'
'총괄회장'
'총경'
'촛불_'
'촌에'
'촉구하며_'
'촉구'
'초콜릿'
'초코'
'초저금리'
'초음파_'
'초여름_'
'초미'
'초록우산_'
'초등학생_'
'초등학교에'
'초가'
'쳤다'
'쳐스'
'체험존'
'체험단_'
'체포된_'
'체육회'
'체에'
'체류_'
'체계를_'
'체가_'
'청탁_'
'청탁'
'청주에'
'청정_'
'청사에서_'
'청년정책'
'청년고용'
'청기'
'청구했'
'청계광'
'첫선_'
'첫날'
'첩보'
'첩'
'첨'
'철회하'
'철회를_'
'철회'
'철폐_'
'철폐'
'철저한_'
'철도공사'
'철강업'
'천하'
'천여'
'천안시_'
'천안시'
'천식'
'천상의_'
'천마'
'천군'
'천국_'
'처했다'
'챗봇'
'챔피언십에'
'챔프전'
'챔프_'
'챌린저'
'책임지'
'책임자'
'채화'
'채이배_'
'채용한다고_'
'채용한'
'채비'
'채무보증_'
'채로'
'찾아주'
'찾아라_'
'찾습니다_'
'창조경제_'
'창의적'
'창용'
'창신'
'창수'
'창문'
'창당준비'
'창녕'
'창간'
'참여형'
'참여한_'
'참석하'
'찬스_'
'차지했습니다_'
'차준환'
'차종_'
'차익_'
'차우찬'
'차석'
'차별화된_'
'차관급_'
'차가_'
'찔러_'
'쯔'
'쫓'
'쪽에'
'짠'
'짜_'
'징후'
'집중단속_'
'집유_'
'집무실_'
'집권_'
'집결'
'질의_'
'질공원'
'진흥재단'
'진흥센터'
'진흥법'
'진행해'
'진행한_'
'진행됐다'
'진정성'
'진의_'
'진안군'
'진실을_'
'진성'
'진상규명'
'진상'
'진보_'
'직을_'
'직원이_'
'직원의_'
'직원에게'
'직원과_'
'직속_'
'직무정지'
'직무대'
'직권남용_'
'직구'
'직거래'
'지회'
'지하철'
'지킨'
'지키기_'
'지키고_'
'지코'
'지켰'
'지카_'
'지청_'
'지질'
'지지자'
'지지를_'
'지정됐다'
'지자체'
'지유'
'지원해_'
'지역인재'
'지역은_'
'지역아동센터_'
'지역난방공사'
'지시했'
'지스타_'
'지소미아'
'지상욱'
'지분투자'
'지분율_'
'지방간'
'지멘스'
'지동원'
'지단_'
'지노믹'
'지낸_'
'지급한다_'
'지급한'
'지금은_'
'지금부터'
'지구에'
'지게_'
'증인_'
'증여세_'
'증설'
'증권은_'
'증권신고서_'
'증가하고_'
'증가폭_'
'증가세_'
'즉시'
'즈와_'
'중화'
'중학생'
'중학'
'중하'
'중재'
'중일'
'중으로_'
'중원_'
'중요농업유산'
'중앙은행'
'중앙아시아_'
'중앙선거관리위원회'
'중심지'
'중소형주'
'중상'
'중부지방'
'중랑구_'
'중도_'
'중단한다고_'
'중단하라_'
'중단됐'
'중국을_'
'중국으로'
'중국과_'
'중구청'
'중고폰_'
'중고차_'
'중견기업_'
'중간선거'
'줄일_'
'줄이고_'
'줄이_'
'줄을'
'줄어든다_'
'줄고_'
'준희양'
'준호_'
'준수'
'준공식_'
'주파수_'
'주택이'
'주택에'
'주택매'
'주택도시'
'주택금융공사_'
'주택가격'
'주차장'
'주지_'
'주지'
'주주총회_'
'주주명부_'
'주제_'
'주장했습니다_'
'주의자'
'주의보'
'주의를_'
'주영'
'주식투자_'
'주승용_'
'주스'
'주소'
'주성'
'주범'
'주민등록'
'주문하'
'주면'
'주력산업'
'주가의_'
'주가급'
'죄송'
'좋아하는_'
'좋겠다'
'종합운동장에서_'
'종양'
'종목은_'
'종목으로_'
'종교'
'좀비'
'좀_'
'졸업식'
'졸업생_'
'졸속'
'존재_'
'존슨_'
'족을_'
'조현_'
'조폭_'
'조직위'
'조종사'
'조종'
'조정실'
'조인식'
'조의_'
'조율'
'조원진_'
'조연'
'조언'
'조심스럽'
'조성한다_'
'조선중앙'
'조선일보'
'조선소'
'조상우'
'조산'
'조사하'
'조사단'
'조사기관'
'조사결과'
'조립'
'조던'
'조달을_'
'조경'
'조건부'
'제한적'
'제주포럼'
'제주지역'
'제주지사_'
'제주지'
'제주에서_'
'제주서_'
'제조설비_'
'제조사'
'제조기업'
'제조기'
'제재가_'
'제자_'
'제일기획'
'제일_'
'제이_'
'제외한_'
'제외됐'
'제약이_'
'제약업'
'제안을_'
'제사'
'제빵'
'제리_'
'제도개선'
'제도가_'
'제대'
'제는_'
'제네바'
'제기했다'
'제공하기'
'제공하고_'
'제74'
'제47'
'제3자_'
'제38'
'제32회_'
'제2터미널'
'제2공항_'
'제28회_'
'제27'
'제24'
'제22회_'
'제20회_'
'제10회_'
'정훈'
'정치개혁특별위원'
'정치개혁_'
'정책회의'
'정책토론'
'정책자금_'
'정책은_'
'정책연구'
'정책국장'
'정책관'
'정찬'
'정차_'
'정주'
'정조준_'
'정재'
'정의_'
'정운찬_'
'정우택_'
'정우람'
'정신건강'
'정선_'
'정상제이엘에스'
'정부포상_'
'정복'
'정보화'
'정보위원장'
'정보공사'
'정보가_'
'정미'
'정몽구'
'정몽'
'정리해'
'정답_'
'정기적'
'정규_'
'정권교체'
'접어든_'
'점화'
'점프'
'점진적'
'점유'
'점수_'
'점과_'
'점검하는_'
'절실'
'절반으로_'
'절박'
'절도'
'절대'
'전환했다'
'전환을_'
'전환가액'
'전폭'
'전태'
'전철_'
'전지훈련_'
'전준'
'전제'
'전자계'
'전임자_'
'전의_'
'전은'
'전원'
'전액'
'전시상품'
'전시관_'
'전수조사_'
'전소'
'전셋값_'
'전세금'
'전산'
'전북지'
'전북은행'
'전북에'
'전병헌_'
'전반기_'
'전문지'
'전문업체'
'전문대'
'전문교육'
'전망치_'
'전망입니다_'
'전망을_'
'전략은_'
'전달식을_'
'전달받'
'전년동월'
'전남도의'
'전남대_'
'전날'
'전까지_'
'전기전'
'전국적'
'전국장애학생체육대회'
'전경련'
'적자를_'
'적응'
'적용해'
'적어'
'적시타를_'
'적시'
'적발됐다_'
'적발됐'
'적발돼_'
'적기'
'저체중'
'저지하'
'저장장치_'
'저장_'
'저에'
'저금리'
'저PER_'
'쟁탈전'
'잰'
'재훈'
'재활_'
'재판관'
'재취업'
'재추'
'재차_'
'재즈'
'재의_'
'재심'
'재수사_'
'재생에'
'재생_'
'재산피해'
'재발방지'
'재무제표'
'재무장관_'
'재능'
'재규어_'
'재계_'
'재건'
'잦'
'장흥군'
'장혜'
'장현_'
'장판_'
'장착_'
'장착'
'장진'
'장지'
'장원준'
'장에'
'장애아'
'장신_'
'장식했'
'장수군_'
'장병'
'장례식장에'
'장년'
'장내매수'
'장난감_'
'장기요양'
'장군_'
'잡아_'
'잡기에_'
'잡기_'
'잠재'
'잠수'
'잘못된_'
'잔액'
'잔류_'
'잔디'
'작전사령'
'작업장'
'자회사에'
'자회사'
'자활'
'자체가_'
'자주_'
'자주'
'자제'
'자이언츠가_'
'자유무역협정'
'자위대_'
'자신에'
'자신감을_'
'자신_'
'자산관리'
'자백'
'자문위'
'자랑스런_'
'자랑스'
'자동차부품'
'자녀에'
'자기주식'
'자가격리_'
'잉글랜드'
'잉'
'있을지'
'있는지'
'있기'
'잇따른'
'잇따르'
'잇달'
'입찰에'
'입성'
'입사'
'입단'
'입구에'
'입구'
'임효준_'
'임페리얼_'
'임이'
'임의'
'임은'
'임영희'
'임시공휴일_'
'임상시험_'
'임산'
'임명했다_'
'임명동의안'
'임대료'
'임단협'
'일하기'
'일치_'
'일찍_'
'일제강'
'일자리창출_'
'일임형_'
'일이다_'
'일으킨_'
'일왕'
'일에'
'일어났'
'일어'
'일부가_'
'일본을_'
'일본여자'
'일반고_'
'일문'
'일꾼'
'일까지'
'일관'
'일간'
'인형'
'인피니'
'인테리어'
'인턴십_'
'인터파크_'
'인터뷰'
'인터넷은행_'
'인천해양'
'인증샷'
'인제'
'인정했다_'
'인원'
'인용해_'
'인연'
'인양'
'인승_'
'인수했다_'
'인수한다'
'인수전'
'인선'
'인상하'
'인상적'
'인삼공사'
'인사청문회에서_'
'인사동_'
'인비테이셔널'
'인베스트먼트'
'인베'
'인드_'
'인니_'
'인공지능을_'
'인공기'
'인공'
'익수'
'익산시'
'이해하'
'이트_'
'이트'
'이통사'
'이택'
'이태양'
'이탈_'
'이탈'
'이커_'
'이춘'
'이천시'
'이창'
'이차전지_'
'이지케어텍'
'이지_'
'이재정_'
'이재영_'
'이재성_'
'이장'
'이의_'
'이용찬_'
'이영훈_'
'이영하'
'이엠'
'이엔티'
'이엔지'
'이에스에이'
'이었습니다_'
'이언스'
'이어지고_'
'이어간'
'이신'
'이승호_'
'이슬람_'
'이슬람'
'이스트'
'이슈_'
'이상화_'
'이상인_'
'이상을_'
'이산가족'
'이사회에'
'이사로_'
'이비'
'이보'
'이벤트와_'
'이베스트투자증권'
'이베'
'이른_'
'이르는_'
'이르'
'이뤄질'
'이란에_'
'이들은_'
'이두'
'이동하고_'
'이동섭_'
'이대로_'
'이내에'
'이내'
'이끌어'
'이끌_'
'이긴'
'이기는'
'이관'
'이겨낸'
'이게_'
'이것이_'
'이같은_'
'의혹으로_'
'의존'
'의자_'
'의원들의_'
'의왕시_'
'의성_'
'의상'
'의붓'
'의료진_'
'의료비'
'의료기기'
'의날_'
'의결했'
'의견서_'
'응원단_'
'응답하라_'
'응급환자'
'음식물'
'음성통'
'을지로'
'은행에'
'으로서'
'융복'
'윤성빈_'
'윤석민'
'육상_'
'육박하'
'육박'
'육_'
'유혹'
'유한킴벌리_'
'유포'
'유출됐다'
'유정'
'유입'
'유일한_'
'유일하게_'
'유인'
'유예'
'유업_'
'유아_'
'유실'
'유시민_'
'유방'
'유림_'
'유류세_'
'유료방송_'
'유로파리그'
'유럽연합_'
'유도_'
'유대'
'유니폼'
'유니테스트_'
'유니셈'
'유니베'
'유니버시아드'
'유니버설'
'유기한_'
'유권자_'
'유권'
'유관'
'유골_'
'유감_'
'유가족_'
'윔블던'
'윈드'
'위촉식_'
'위증_'
'위조_'
'위의_'
'위원회와_'
'위원이_'
'위원들'
'위약'
'위반한_'
'위메이드_'
'위로하'
'위닝시리즈_'
'위닝'
'위기관리_'
'웬'
'웨이버'
'웨스틴조선호텔에서_'
'웜비어'
'월간'
'원형'
'원한다_'
'원하'
'원칙에'
'원천_'
'원천'
'원정도박'
'원점'
'원인은_'
'원세훈_'
'원산'
'원복지'
'원달러_'
'원내대표들'
'원내대표는_'
'원금_'
'원격_'
'워크숍을_'
'워크샵'
'워커'
'워싱턴D'
'워드_'
'웃는'
'움직임_'
'울진'
'울상_'
'울산항'
'울산에서_'
'울산공장'
'운정'
'운전면허증'
'운용사_'
'운영자_'
'운영자'
'운영된'
'운드'
'운동이'
'운동본부_'
'운다_'
'우회'
'우한에서_'
'우크라'
'우익'
'우울'
'우스'
'우선협상대상자_'
'우상'
'우버_'
'우리의_'
'우리를_'
'우려되'
'우드'
'용품'
'용서'
'용량_'
'용도_'
'용기'
'요키'
'요즘_'
'요양원_'
'요양병원'
'요법'
'요령'
'요금을_'
'요구한'
'요구안'
'요건'
'왼쪽'
'외환시장'
'외주'
'외야'
'외모'
'외교부'
'외교관_'
'외교관'
'왕중'
'왕에_'
'왕복_'
'왔다'
'왈'
'완파하고_'
'완주_'
'완전자'
'완구_'
'완공'
'와중에_'
'와이지'
'와이즈'
'와이비'
'와이디온라인'
'와디'
'옮긴_'
'옮기'
'올해만_'
'올시즌'
'올스타전'
'올바른'
'올림'
'올릴'
'올린다_'
'올리비아'
'올리며_'
'올리는_'
'올렸다고_'
'온천'
'온라인으로_'
'온도_'
'옥신'
'옥션'
'오피'
'오페라_'
'오판'
'오클랜드전'
'오찬에'
'오정'
'오전장_'
'오재일'
'오인'
'오스_'
'오송_'
'오션브릿지'
'오션_'
'오세훈_'
'오브'
'오보'
'오메가'
'오른'
'오락'
'오디션'
'오니'
'예정자'
'예약판매'
'예스24'
'예술제'
'예술의전당'
'예술단'
'예상하고_'
'예상치_'
'예산안'
'예비후보가_'
'예비심사'
'예방접_'
'예방에_'
'영향이_'
'영향에_'
'영치'
'영주시_'
'영재'
'영장심사_'
'영입했'
'영입하며_'
'영월군_'
'영어교육'
'영석_'
'영서'
'영빈관에서_'
'영등포구'
'영농'
'영광_'
'영과_'
'염치료제_'
'염증_'
'염경엽_'
'열었다고_'
'열병합'
'열병_'
'열기'
'연합뉴스가_'
'연합뉴스_'
'연합뉴스'
'연타석_'
'연출'
'연찬회_'
'연주'
'연전'
'연재_'
'연임'
'연승'
'연습_'
'연속골_'
'연설을_'
'연석회의_'
'연말정산'
'연기하'
'연금복권_'
'연구진_'
'연구원장'
'연구소장'
'연구소가_'
'연구개발특구'
'연계형_'
'역전패'
'역전승을_'
'역외탈세_'
'역삼'
'역량강화_'
'여행상품'
'여행객들'
'여파에'
'여지'
'여주시_'
'여주_'
'여자축구_'
'여왕_'
'여신금융'
'여섯'
'여만원'
'여력'
'여러분'
'여대'
'여단'
'여금'
'엠플러스_'
'엘사'
'엘비'
'엔화_'
'엔트리에'
'엔터_'
'엔씨'
'엑소'
'에픽게임즈'
'에피'
'에프엔'
'에프앤'
'에인절스'
'에이피'
'에이프로'
'에이지'
'에이비'
'에이블씨엔씨_'
'에스에프에이'
'에비뉴'
'에비'
'에볼'
'에레라'
'에너'
'엇갈'
'없이'
'없앤다_'
'업황'
'업자'
'업인_'
'업으로_'
'업비트'
'업무협약식'
'업무보고'
'업과_'
'엄청'
'얼음정수기_'
'얼마_'
'언론에'
'언급했'
'억제_'
'억원대_'
'억에_'
'억6'
'억2'
'어진'
'어의'
'어서'
'어버이'
'어머니_'
'어린이재활병원'
'어린이날을_'
'어린'
'어를_'
'어려워'
'어라운드'
'어때'
'어닝'
'어니'
'양회_'
'양현'
'양해각서_'
'양평군'
'양평'
'양키스_'
'양주시'
'양육수당'
'양심'
'양성평등'
'양사'
'양방향_'
'양극화_'
'양강'
'약한_'
'약자'
'약을_'
'약보_'
'야쿠르트'
'야생동물'
'야생_'
'야구장_'
'야구대회_'
'야구대표팀_'
'앵커'
'앱스토어'
'앤컴퍼니'
'액토즈'
'액션스퀘어'
'액세서리'
'액상형_'
'애틀랜타_'
'애스'
'애리조나'
'애들'
'애도_'
'애국가'
'애국'
'애경그룹_'
'애견'
'앞장_'
'앞서'
'았습니다_'
'았다고_'
'압도적인_'
'암살_'
'암매장한_'
'앓는_'
'알파홀딩스'
'알파스캔_'
'알파고_'
'알코올_'
'알지'
'알았'
'알아_'
'알루미늄'
'알로'
'알려져'
'알뜰폰_'
'않으면'
'않다고_'
'않겠다고_'
'안한다_'
'안테'
'안타까운_'
'안타까'
'안치홍'
'안철'
'안정화'
'안전을_'
'안전에_'
'안전보장이사회'
'안전보건공단_'
'안전공단'
'안으'
'안양시'
'안았다_'
'안심보'
'안성시'
'안산시_'
'안병훈_'
'안락'
'안드레'
'안개'
'악화로_'
'악의적_'
'악성_'
'악성'
'악기'
'아파트에서_'
'아티스'
'아트홀에서_'
'아키히'
'아키에이지_'
'아케이드_'
'아카데미'
'아치'
'아찔'
'아지'
'아주그룹'
'아일랜드'
'아이콘'
'아이즈'
'아이오닉_'
'아이엔'
'아이언맨_'
'아이씨'
'아이스크림_'
'아이를_'
'아이디어'
'아이들의_'
'아이더'
'아이나비'
'아워홈'
'아웃도어'
'아와_'
'아시안게임에'
'아시안'
'아시아인'
'아스날'
'아쉬움을_'
'아쉬움_'
'아서_'
'아사'
'아빠_'
'아비'
'아메'
'아름다움이'
'아를_'
'아래'
'아드'
'아동수당'
'아닌'
'아니라'
'아내에'
'씽큐'
'씩'
'씨에_'
'씨어터'
'쓴'
'쎌'
'썸에이지_'
'썰'
'써밋_'
'쌍용자동차'
'쌈'
'싼'
'싸이'
'싸우'
'싸고_'
'싸게_'
'싶었'
'싱가'
'심화_'
'심의위'
'심의를_'
'심사가_'
'심리학'
'심근경색'
'심경'
'실형이_'
'실형을_'
'실질심사_'
'실증'
'실종자_'
'실업자'
'실업_'
'실력_'
'실력'
'신현'
'신항_'
'신한카드'
'신한은행이_'
'신한금융투자에서_'
'신한금융그룹'
'신탁_'
'신축_'
'신체_'
'신청했다_'
'신청서를_'
'신주'
'신종코로나_'
'신종'
'신재생에'
'신입직원'
'신용보증'
'신용등급을_'
'신용거래융자'
'신약개발'
'신안군_'
'신속한_'
'신소재'
'신세계인'
'신세계면세점'
'신세'
'신상품'
'신사업'
'신병'
'신반포'
'신바람_'
'신뢰받는_'
'신라젠_'
'신도리코'
'신당_'
'신년'
'신나'
'신길'
'신고하'
'식품의약'
'식재'
'식의'
'식사를_'
'식민'
'식당'
'식과_'
'시황변동_'
'시황'
'시행령_'
'시행되'
'시트로엥'
'시킨다'
'시크릿'
'시켰다'
'시총'
'시책_'
'시중은행'
'시장심리지수'
'시작했'
'시일'
'시의_'
'시위가_'
'시에'
'시스터'
'시설이_'
'시설관'
'시비'
'시부터_'
'시범사업'
'시민단체'
'시뮬레이터'
'시몬'
'시를_'
'시대의_'
'시다_'
'시그'
'시구_'
'승자는_'
'승인을_'
'승용'
'승에_'
'승부수'
'승무원_'
'승격_'
'습관'
'슬러'
'스포티지'
'스포츠클'
'스포츠산업'
'스팸'
'스틸러'
'스트리트'
'스트라이크'
'스튜디오드래곤'
'스톱_'
'스토리텔링'
'스터디_'
'스태프'
'스타인_'
'스타디'
'스퀘어'
'스코어'
'스켈레톤_'
'스캔들_'
'스카이스포츠'
'스처_'
'스윕'
'스위트'
'스승'
'스몰_'
'스마일'
'스로_'
'스런_'
'스님_'
'스노우'
'스노보드_'
'스넷'
'스공'
'슛하'
'슈어'
'쉴_'
'쉐보레_'
'숫자'
'숨진채_'
'순항_'
'순항'
'순매수'
'순례'
'순간에_'
'숙인_'
'숙여_'
'수형'
'수협'
'수표_'
'수출상담회'
'수출계약'
'수주공시를_'
'수익을_'
'수위'
'수요자'
'수요예측'
'수아레'
'수스'
'수순'
'수수_'
'수석대'
'수색에_'
'수상하'
'수상의_'
'수분'
'수반_'
'수반'
'수로_'
'수렴_'
'수렁'
'수도권은_'
'수당을_'
'수당'
'수교_'
'쇼크_'
'송파구'
'송창'
'송진'
'송유관'
'송영'
'송상'
'송기'
'송광'
'솔직히_'
'손흥민과_'
'손해보험_'
'손오공'
'손에_'
'손가락_'
'속인'
'속이'
'속옷_'
'소회의실에서_'
'소했'
'소프트웨어'
'소통하'
'소정'
'소자'
'소위_'
'소송에서'
'소셜미디어'
'소비자에게_'
'소방서'
'소방대원'
'소득주도성장'
'소동_'
'소녀시대'
'소나무'
'소공'
'소고기'
'셨다_'
'션센터'
'셔틀'
'셉'
'셀프'
'셀트리온헬스케어_'
'셀카_'
'셀러'
'센터로_'
'센스'
'센서_'
'세포_'
'세코'
'세종대로'
'세자'
'세입'
'세이_'
'세의_'
'세웠다'
'세운_'
'세아제강_'
'세수'
'세브란스병원_'
'세브란스'
'세리에'
'세르'
'세례'
'세력_'
'세라'
'세계적으로_'
'세계자연'
'세계유산'
'세계수영선수권대회_'
'세계수'
'세계문화유산_'
'성희_'
'성화봉송_'
'성착취'
'성접대_'
'성전'
'성장지'
'성장성'
'성인_'
'성은_'
'성사_'
'성범죄자'
'성범죄'
'성모병원_'
'성매매'
'성동구청'
'성도'
'성당'
'성기'
'성과보'
'성과를_'
'성공한_'
'성공적으로_'
'성공적_'
'성공적'
'섭취'
'섭이_'
'설치해'
'설욕'
'설연휴_'
'설악'
'설비를_'
'설문조사_'
'설립한다'
'설립을_'
'설립된_'
'설날_'
'설계사_'
'선풍기'
'선포식'
'선택권_'
'선취'
'선출된_'
'선주'
'선제골을_'
'선정되었다'
'선점_'
'선전_'
'선수협'
'선수와_'
'선수들에'
'선수단의_'
'선수권대회에서_'
'선수권'
'선서하는_'
'선별진료소_'
'선발한다'
'선발투수'
'선발진'
'선동열'
'선도하는_'
'선도기업_'
'선데이토즈_'
'선대'
'선거에_'
'석탄_'
'석은_'
'서호전기'
'서프라이즈_'
'서초사옥'
'서초동'
'서초'
'서청원_'
'서지현_'
'서울지방경찰청'
'서울중앙지법_'
'서울중앙지방법원에'
'서울역'
'서울아산병원'
'서울시청_'
'서울시의회_'
'서울시교육감'
'서울보'
'서울모터쇼'
'서울디'
'서울교'
'서울고등'
'서상'
'서비스인_'
'서부지'
'서병'
'서면_'
'서류_'
'서구청'
'서관_'
'서거'
'생후_'
'생활용'
'생전'
'생일을_'
'생산한'
'생산적_'
'생산을_'
'생리'
'생도'
'생길'
'생겼다_'
'색상_'
'새출발_'
'새만금개발공사'
'새누리_'
'새끼_'
'상회'
'상황에_'
'상환'
'상표권_'
'상표'
'상태에'
'상점'
'상장적격성_'
'상장예비심사'
'상장법인_'
'상임위'
'상은_'
'상용화'
'상용_'
'상용'
'상여금_'
'상에서_'
'상암동'
'상아'
'상승하'
'상승폭_'
'상승에'
'상승률_'
'상습'
'상세'
'상사'
'상반기에'
'상당히_'
'상담회_'
'상담실'
'상근'
'상관없'
'상공_'
'샀'
'삿'
'삼화전'
'삼청동_'
'삼양식품_'
'삼성전기_'
'삼성전'
'삼성자산운용'
'삼성이_'
'삼성라이온즈'
'삼성SDI'
'삼선'
'삼립'
'살펴보는_'
'살펴보'
'살리'
'산후'
'산청'
'산재'
'산은'
'산업을_'
'산불피해_'
'산림복'
'산동'
'산단공_'
'산간'
'삭발'
'사회적경제'
'사회복지시설_'
'사회를_'
'사회공헌재단_'
'사퇴하라'
'사태의_'
'사태와_'
'사태가_'
'사키_'
'사천'
'사채'
'사찰'
'사진이'
'사죄'
'사전계약'
'사저'
'사장단'
'사인회'
'사이클_'
'사이즈_'
'사이먼_'
'사위'
'사우'
'사연_'
'사에서_'
'사업주_'
'사업부문을_'
'사업단'
'사실무근_'
'사상자'
'사살'
'사법부_'
'사무처'
'사무용'
'사무실에_'
'사무국'
'사모_'
'사면'
'사망했다'
'사망자가_'
'사망사고'
'사막'
'사랑하'
'사랑받'
'사랑나눔_'
'사라진_'
'사라졌'
'사라져'
'사내이사_'
'사나이_'
'사교육'
'사관학교_'
'사건에'
'사거리_'
'쁜'
'뿐이'
'뿐'
'뽑혔다'
'뽐'
'뼈_'
'뼈'
'뺏'
'빠져나갔'
'빛낸'
'빛가람_'
'빗물'
'빗_'
'빌보드_'
'빅데이터'
'빅3_'
'비트'
'비중을_'
'비자금_'
'비자_'
'비율이_'
'비율은_'
'비유'
'비와_'
'비에이치'
'비에_'
'비씨'
'비상저감조치'
'비상벨'
'비상대책위원회_'
'비상대책위원장'
'비상대책'
'비비'
'비례대표_'
'비디오판'
'비디오'
'비드'
'비대위'
'비누_'
'비공'
'블록에'
'블록_'
'블렌더_'
'블랙박스'
'븐'
'브리핑에'
'브리검_'
'브로커'
'브로'
'브랜드인_'
'브랜드가'
'브라운_'
'붐비'
'불이행'
'불이나_'
'불에'
'불어'
'불안감'
'불스'
'불성실공시법인_'
'불로_'
'불량'
'불끈_'
'불꽃_'
'불기소_'
'불공정'
'불가'
'분쟁조정'
'분의'
'분유'
'분야에'
'분석을_'
'분사'
'분들'
'분담_'
'분뇨'
'분권'
'북한산_'
'북미회담_'
'북도'
'부탁'
'부천시'
'부정채용_'
'부전'
'부장판사'
'부장검사'
'부의장_'
'부의장'
'부영'
'부에'
'부양'
'부안_'
'부서_'
'부상자_'
'부산항만공사'
'부산신항'
'부산시민'
'부산시교육청'
'부산소'
'부산상'
'부산박물관'
'부산경남'
'부발전'
'부문을_'
'부동산대'
'부담을_'
'부담금_'
'부과했다_'
'부검'
'부가가치'
'봉화군'
'봉준호_'
'봉쇄_'
'봅슬레이_'
'봄비'
'볼리'
'본회의를_'
'본부장'
'본관에서_'
'볶'
'복하'
'복직'
'복지재단'
'복지시설_'
'복지기관에'
'복지기'
'복잡'
'복귀한다_'
'복귀한_'
'복귀를_'
'보호예수'
'보험사_'
'보트_'
'보툴'
'보일러'
'보이콧'
'보이지_'
'보육과'
'보유하고_'
'보유자_'
'보였다'
'보여줄'
'보스토크'
'보수로_'
'보문'
'보디'
'보내고_'
'보급형'
'보고서를_'
'보겠다'
'병을_'
'병원이_'
'병무청_'
'병력'
'별세'
'별도_'
'별다'
'변호인'
'변이_'
'변수는_'
'변론'
'변경했다'
'변경을_'
'벨트_'
'벤큐'
'벤츠'
'벤처펀드_'
'벤처스'
'베트남의_'
'베타_'
'베이스'
'베를린'
'베레'
'베개'
'벚'
'법정구속'
'법인을_'
'법인에'
'법원에서_'
'법안이_'
'법사'
'법과'
'범죄예방'
'범정부_'
'범위_'
'벌인_'
'벌였다_'
'벌였'
'벌여_'
'벌금형을_'
'번호판_'
'번의_'
'벅스'
'버팀목'
'버튼'
'버터_'
'버타'
'버스터_'
'버스전용차로'
'버블'
'버린_'
'버거킹_'
'버거'
'밴드'
'백조'
'백스'
'백범'
'배포'
'배우자'
'배열_'
'배로_'
'배럴'
'배구선수'
'배경에'
'방화벽'
'방향성'
'방학'
'방통위'
'방출'
'방중'
'방이'
'방위_'
'방울'
'방안에'
'방송에'
'방범'
'방미_'
'방문을_'
'방류_'
'방광'
'방공식별구역'
'방경찰청'
'밤사이_'
'밝혔다'
'밝혀져_'
'발표에_'
'발판'
'발탁했다'
'발전협의회'
'발전기금_'
'발의했다_'
'발열_'
'발언으로_'
'발송'
'발생했다'
'발목'
'발령됐'
'발령'
'발렌시아_'
'발렌'
'발동_'
'발동'
'발달장애인'
'발끈'
'발견됐습니다_'
'발간'
'받으면_'
'반칙'
'반영해'
'반박'
'반려견_'
'반도'
'반대한다_'
'반대하는_'
'반격_'
'반가운_'
'밖'
'박철'
'박지'
'박종훈'
'박정권'
'박은'
'박원'
'박세웅_'
'박석민'
'박삼구_'
'박동진'
'박근혜정'
'바흐_'
'바퀴_'
'바이올린'
'바이오파마'
'바이오업체'
'바이오벤처'
'바이에른'
'바이어'
'바이든'
'바시'
'바비'
'바른미래'
'바르셀로나_'
'바르사_'
'바르'
'바둑리그_'
'바꾸는_'
'밑에'
'밀양'
'밀란'
'민주주의_'
'민주주의'
'민정수석_'
'민정'
'민의'
'민은'
'민영화'
'민석_'
'민생_'
'민사소송'
'민단체'
'민감'
'미흡'
'미터_'
'미지급'
'미연'
'미얀마'
'미시'
'미스터피자_'
'미술관'
'미소를_'
'미세먼지로_'
'미분양'
'미미'
'미르의_'
'미러_'
'미래창조과학부'
'미래에셋생명_'
'미디어센터'
'미드필더_'
'미군기지_'
'미국프로야구_'
'미국프로농구'
'미국은_'
'뮬러_'
'뮌헨'
'뭔'
'물품을_'
'물자'
'물의_'
'물에_'
'물려'
'문화전'
'문화의_'
'문화대'
'문에_'
'문수'
'문고_'
'묵묵부답'
'묵_'
'무형문화재_'
'무차별'
'무이'
'무역적자_'
'무안타_'
'무실점으로_'
'무실'
'무승부_'
'무승'
'무림'
'무라_'
'무덤'
'무너진_'
'무균'
'무가_'
'묘한_'
'못하면_'
'못지'
'몰카'
'몰린'
'목표주가'
'목적으로_'
'목을_'
'모험'
'모하'
'모터스_'
'모유'
'모습은_'
'모바일게임'
'모르겠'
'모레_'
'모두투어'
'모두의_'
'모델을_'
'모기'
'모금_'
'모국'
'명품시계_'
'명태'
'명예회'
'명예시민'
'명예_'
'명식_'
'명보'
'명령'
'명도'
'멸종위기'
'면접'
'면담하고_'
'멧'
'멜론'
'멘토'
'메트'
'메카로_'
'메카'
'메이플'
'메이트_'
'메이저리그'
'메스'
'메리츠화재'
'메리어트'
'메르켈_'
'메드_'
'멋진_'
'멀티골_'
'멀어'
'멀리'
'먼트'
'머니투데이'
'맺었다_'
'맺'
'맷'
'맥북'
'매출은_'
'매출액'
'매장을_'
'매물_'
'매몰'
'매도에_'
'매거진_'
'맡아'
'맞이하'
'맞선'
'맞다'
'망이_'
'맛보'
'말컹'
'말이'
'말아야'
'말아'
'말부터_'
'많았다_'
'많았'
'만화'
'만큼은_'
'만주_'
'만이다_'
'만원에_'
'만여'
'만수_'
'만난다_'
'만나고_'
'만개'
'만5'
'만4'
'만2000'
'막힌'
'막말'
'마해'
'마피아'
'마침'
'마차'
'마진'
'마인'
'마이클_'
'마음으로_'
'마을을_'
'마에스트'
'마약류'
'마약_'
'마사지'
'마사'
'마리가_'
'마련해'
'마련한다'
'마련한_'
'마련하기_'
'마련에'
'마련됐다_'
'마닐라_'
'마그'
'릿_'
'립대_'
'릴리'
'릴까_'
'릴'
'린저'
'리프트_'
'리퍼블릭'
'리우올림픽_'
'리얼_'
'리어'
'리안_'
'리스트'
'리본_'
'리버스_'
'리메이크'
'리더십_'
'리니지'
'리그의_'
'르도_'
'르담_'
'르기'
'르고_'
'류제국'
'뤼'
'룹'
'룰_'
'룰'
'룩_'
'룩'
'루미'
'료가_'
'롯데에'
'롯데슈퍼'
'롯데쇼핑_'
'롯데리아_'
'롯데리'
'롯데건설'
'롤챔스_'
'론칭했다'
'론칭한다_'
'론칭한'
'론이_'
'론을_'
'로한'
'로직스'
'로저'
'로의_'
'로엔'
'로에서'
'로스트아크_'
'로스터'
'로서'
'로맨'
'로레'
'로또'
'로드맵'
'로니'
'로가_'
'렵'
'력이_'
'려다_'
'렐'
'렌탈'
'렌즈'
'레코'
'레이크_'
'레이디스_'
'레오'
'레알'
'레시피'
'럼_'
'런던'
'럭비'
'러셀'
'랴'
'랑이_'
'란제리_'
'락앤락_'
'라지_'
'라이즌'
'라이즈'
'라이언_'
'라이스'
'라이너'
'라스베이거스_'
'라바'
'라마'
'뛴'
'뚜렷'
'똥'
'똘'
'떼_'
'떨어졌다_'
'떠날_'
'떠난다_'
'떠나_'
'땡'
'딴_'
'따뜻'
'따_'
'딜리'
'딜러'
'디펜딩'
'디즈니_'
'디젤_'
'디자인과_'
'디엠'
'디엔에'
'디에스티'
'디아_'
'디는_'
'등판에'
'등반'
'등록했다'
'등록하'
'등록금_'
'등급분류'
'등교'
'등과_'
'들인'
'들어올'
'들어온'
'든든한'
'든다'
'드에서'
'드리겠다_'
'드럼'
'드러나_'
'드래곤플라이'
'드래곤_'
'드라이빙_'
'드라마'
'듀티_'
'듀얼카메라'
'둥지_'
'둥이'
'둠'
'둘째_'
'둔화'
'두자릿수_'
'두산중공업_'
'두산전_'
'두산인'
'두산베어스'
'두부'
'두바이_'
'두로_'
'될'
'된장'
'된다면_'
'되지만_'
'되살'
'되도록_'
'되_'
'됐고_'
'동화약품'
'동호인_'
'동호'
'동향'
'동창'
'동차'
'동쪽'
'동전'
'동원산업'
'동양피엔에프'
'동아_'
'동성로'
'동생'
'동북아'
'동물위'
'동물보'
'동명대_'
'동대_'
'동대'
'동네'
'동남아'
'동남권_'
'동국대'
'돗'
'돌파할'
'돌파구_'
'돌아온다'
'돌아갔다_'
'돌봄'
'돈이_'
'돈까스'
'독재'
'독립운동가_'
'독려하'
'도회'
'도핑_'
'도주'
'도입한다고_'
'도입한다_'
'도의회'
'도우'
'도와'
'도에'
'도시철도'
'도시에'
'도비'
'도봉구'
'도발에_'
'도로에서_'
'도로를_'
'도당'
'도농'
'도날드'
'도교육'
'덴마'
'덱'
'데일리_'
'데이를_'
'데요'
'데시'
'덩이'
'던졌'
'던져_'
'덕산'
'더해'
'더한_'
'더비_'
'더불어민주당이_'
'댔'
'대회의'
'대회는_'
'대화하고_'
'대해서_'
'대해'
'대학의_'
'대학에'
'대하'
'대표회'
'대표팀에_'
'대표주'
'대표단'
'대통령선거_'
'대출금'
'대출규'
'대책이_'
'대전시장'
'대전시는_'
'대전과'
'대장주'
'대장정'
'대응체계'
'대응을_'
'대응방안'
'대웅'
'대우조선'
'대용량'
'대연'
'대신증권에서_'
'대소'
'대선에'
'대상포'
'대북정책_'
'대병원_'
'대미'
'대명리조트'
'대리점_'
'대란_'
'대도'
'대단지'
'대남_'
'대구지역_'
'대구시민'
'대구시는_'
'대구서'
'대구도시'
'대구공'
'대구경'
'대검'
'당일'
'당연'
'당선되'
'당사_'
'당부_'
'당부'
'당기순이익이_'
'당국자'
'당국의_'
'당국은_'
'답했'
'답변했다_'
'답변하고_'
'답방'
'답게_'
'담한'
'담판_'
'담을_'
'담았다'
'담당자'
'닭고기'
'달성하'
'달성군_'
'달부터_'
'달라졌다'
'단통법_'
'단체장_'
'단일화_'
'단위_'
'단양'
'단식농성'
'단백'
'단독주택'
'단기차입'
'다큐멘터리_'
'다중'
'다임'
'다이아몬드_'
'다이너'
'다음달'
'다음과_'
'다양성'
'다시'
'다방_'
'다르다'
'다뉴브강'
'다공'
'닛산'
'니혼'
'니퍼트_'
'니어'
'니스탄'
'늦었'
'늦게_'
'능력을_'
'늘어났다_'
'늘어난다_'
'늘어'
'늘려_'
'느낀'
'느껴_'
'뉴캐슬'
'눔'
'눈앞에_'
'눈높이'
'누리꾼들의_'
'누군'
'뇌물수수'
'놔'
'놓쳤다'
'높지'
'높여_'
'농협중앙회'
'농장에서_'
'농작물재해보험'
'농작물'
'농수산물도매시장_'
'농구대'
'농구단'
'논쟁_'
'논쟁'
'논의한'
'논의가_'
'논문상_'
'논란과_'
'녹색_'
'노화_'
'노트_'
'노위_'
'노영'
'노승일_'
'노스페이스'
'노미'
'노린_'
'노르웨이_'
'노르'
'노력해'
'노력하겠다_'
'노력이_'
'노란우산'
'노동절_'
'노동신문'
'노동시장'
'노동계_'
'노동개'
'년의_'
'년보다_'
'넷마블은_'
'넥스_'
'네티즌_'
'네이처셀'
'네이션'
'네이버웹툰'
'네시'
'네스_'
'네덜란드'
'넘어섰다'
'넘긴다_'
'널리스트'
'내추럴'
'내진'
'내지'
'내주_'
'내용이'
'내용은_'
'내시경_'
'내세운_'
'내부거래_'
'내며_'
'내릴'
'내린다_'
'내려졌다_'
'내려졌'
'내려앉'
'내구'
'낮췄다_'
'납치'
'납세자'
'남해_'
'남측'
'남천'
'남준재'
'남원'
'남양'
'남성에'
'남북교류'
'남부지방'
'날씨는_'
'난이도'
'난을_'
'낚싯배_'
'낙태'
'낙찰_'
'나폴리_'
'나타내고_'
'나체'
'나이키'
'나은'
'나우_'
'나요'
'나섰다고_'
'나섰'
'나쁘'
'나빠'
'나리'
'나루토_'
'나라가_'
'나도_'
'나눠주'
'나눔로또'
'나누'
'나가는_'
'낀'
'끝판'
'끝났다_'
'끓'
'꿈의'
'꿀팁'
'꾼_'
'꽃다발_'
'꽃길_'
'꼬리'
'깬'
'깨끗한'
'깝'
'깔끔한_'
'까치'
'까지는_'
'까지'
'까스'
'까르'
'깊이_'
'깊어'
'깃발'
'김효주'
'김홍'
'김형준_'
'김하늘_'
'김태균'
'김청'
'김진수'
'김종규_'
'김일성_'
'김의겸_'
'김원중_'
'김영춘_'
'김여'
'김시'
'김수현'
'김성환_'
'김성수_'
'김봉'
'김기춘_'
'김근'
'김규'
'길은_'
'길에_'
'긴급체포'
'긴급재난지원금_'
'기획전'
'기한_'
'기초의'
'기지국_'
'기조강연을_'
'기전'
'기적_'
'기저귀'
'기장군_'
'기자회견하는_'
'기자들과_'
'기원하는_'
'기원'
'기울이'
'기여_'
'기업협'
'기업들'
'기업도'
'기업공개_'
'기억_'
'기승_'
'기술은_'
'기술수출_'
'기술교'
'기수_'
'기부했다_'
'기부금'
'기본권_'
'기만_'
'기리'
'기록할_'
'기록하'
'기대한다_'
'기대를_'
'기대된다며_'
'기대된다고_'
'기대되'
'기다리는_'
'기능성'
'기능경기대회'
'기념행사'
'기념한_'
'기념주화_'
'기념우표'
'기념사업'
'기내식'
'기관지'
'기간보다_'
'기각했'
'기가지니_'
'긍정적으로_'
'급증했'
'급여'
'급등세_'
'급등세'
'급격히_'
'급감_'
'금호석유'
'금품을_'
'금투협_'
'금투'
'금통'
'금은_'
'금융위원장'
'금융시장_'
'금융서비스_'
'금융상품'
'금융기'
'금융공'
'금융감독원장'
'금요일_'
'금액을_'
'금성'
'금강산'
'금값'
'금감원장_'
'근접_'
'근이'
'근로자의_'
'근로자들'
'극찬'
'극심'
'그림자'
'그리드'
'그릇_'
'그로'
'그렇게_'
'그랜'
'그가_'
'균형_'
'규칙'
'규민'
'귀순_'
'귀_'
'권한'
'권총'
'권선'
'궁중'
'군포시'
'군을_'
'군위'
'군에서'
'군산시'
'군사훈련_'
'군사적_'
'군민'
'군단_'
'군공항_'
'국화'
'국제회의'
'국제화'
'국제컨'
'국제유가'
'국제신도시_'
'국제세미나_'
'국제사회_'
'국제도'
'국제고'
'국정현안점검조정회의에'
'국정조사_'
'국정기획자문위원회'
'국정기획위_'
'국정감사에'
'국적_'
'국외_'
'국영_'
'국에'
'국빈'
'국방위원'
'국방부에서_'
'국방부는_'
'국민행'
'국민투표_'
'국민체육진흥공단'
'국민연금공단_'
'국무위원'
'국무부'
'국립암센터'
'국립수산'
'국립공원_'
'국들'
'국내주식'
'국고채'
'국가대표선수'
'국가기술'
'국가과학'
'국가고객만족도_'
'구형했다_'
'구축사업_'
'구체적으로_'
'구창모_'
'구창모'
'구직자들'
'구주'
'구조물_'
'구이'
'구속기소'
'구세군'
'구성하'
'구미_'
'구례군'
'구독'
'구단은_'
'구내식당'
'교통사고로_'
'교촌'
'교육청에'
'교육지원청_'
'교육원'
'교육센터'
'교육부는_'
'교사가_'
'교보증권'
'교류협력'
'교류전'
'교내_'
'광주지'
'광주세계수영선수권대회'
'광주세계수영대회_'
'광주광역시_'
'광주경찰'
'광주FC'
'광저우_'
'광양항_'
'광양시_'
'광시'
'광산_'
'광복절_'
'광명역'
'광동제약'
'광고제'
'관행_'
'관전'
'관장_'
'관왕_'
'관여'
'관세청장'
'관세청_'
'관문_'
'관리지역'
'관리자'
'관리원'
'관리시스템_'
'관리사'
'관광공사_'
'관과_'
'관계부처_'
'관계기'
'과학연구'
'과학기술혁신'
'과학기술원'
'과학_'
'과태'
'과천시'
'과징금'
'과장_'
'과일'
'과이도_'
'과열지'
'과도한_'
'과기대'
'공헌'
'공항서_'
'공포_'
'공포'
'공천_'
'공직자_'
'공직_'
'공정거래법_'
'공원에_'
'공영홈쇼핑'
'공약을_'
'공시에'
'공시가격_'
'공수처_'
'공사장_'
'공사에'
'공보'
'공문'
'공무원이_'
'공모한다고_'
'공모주_'
'공모전'
'공명'
'공룡'
'공동선'
'공동개'
'공기_'
'공공지원_'
'공공데이터'
'공개한_'
'공개모집_'
'공개된_'
'골에_'
'골로_'
'골든블루_'
'골드만삭스_'
'골드_'
'고치'
'고충'
'고창군_'
'고장_'
'고우'
'고용안'
'고액'
'고보'
'고백'
'고배당_'
'고배'
'고령층'
'고래_'
'고등학생_'
'고객이'
'고강도_'
'계장'
'계에서'
'계에_'
'계약체결_'
'계약직_'
'계약이'
'계약금'
'계명대'
'계기_'
'경청하'
'경찰은_'
'경진대회'
'경주시_'
'경제활'
'경제협력'
'경제현안'
'경제정책방향_'
'경제자유구역_'
'경제의_'
'경제부시장'
'경제대'
'경제관'
'경쟁을_'
'경쟁률을_'
'경이_'
'경유차_'
'경영평가_'
'경영지원'
'경선에'
'경선'
'경상북도_'
'경상남도'
'경비원_'
'경비원'
'경로'
'경력사원_'
'경남지역_'
'경남대'
'경기지역'
'경기서_'
'경기만'
'경기도의'
'경기남'
'경기교육'
'결제대금'
'결정했습니다_'
'결정전_'
'결정이'
'결에_'
'결심_'
'결실'
'결선_'
'결선'
'결별_'
'결단'
'격한_'
'격파_'
'격인_'
'격상_'
'격려하고_'
'격려금_'
'겨울철_'
'겨울방학'
'겠지만_'
'겠다'
'겟'
'게임사_'
'게임빌'
'게임단_'
'게이트'
'게이머'
'게스트하우스'
'게릴라'
'것이'
'것보다'
'검토한_'
'검출됐다'
'검찰의_'
'검정'
'검장'
'검역본부'
'검색어_'
'검색_'
'검거됐'
'걸즈_'
'걸림돌'
'걸렸'
'건축물'
'건은_'
'건설협회'
'건강하'
'건강을_'
'건강검진'
'건강강좌'
'거취'
'거짓이'
'거주자'
'거장_'
'거시'
'거론'
'거래일째_'
'거대_'
'거대'
'갤러리아면세점'
'갤노트7'
'객들'
'개회사를_'
'개회사'
'개표'
'개편안'
'개최지'
'개정안을_'
'개정법률안'
'개인투자자'
'개인정보를_'
'개인전'
'개설한다_'
'개선될'
'개선과_'
'개발은_'
'개발업'
'개발사업'
'개발공사'
'개막을_'
'갖추고_'
'갖는다'
'강화할_'
'강화하기'
'강한'
'강하'
'강조했습니다_'
'강제로_'
'강전'
'강원대_'
'강연회_'
'강성훈'
'강릉선수촌'
'강렬'
'강구'
'강관'
'갑상선'
'감탄'
'감축'
'감전'
'감원'
'감옥_'
'감식'
'감상'
'감사의견_'
'감사위원회'
'감사원장_'
'감사원'
'감사에_'
'감귤'
'갈이_'
'갈수록_'
'갈비'
'갈등을_'
'간호조무사'
'간편식_'
'간편결제_'
'간절'
'간이'
'간암_'
'간부가_'
'간다'
'각자대표_'
'가해자'
'가평'
'가지고_'
'가족과_'
'가입자'
'가이드라인'
'가이드_'
'가운'
'가온'
'가에'
'가스폭발'
'가서'
'가벼운_'
'가방_'
'가문'
'가맹점주_'
'가리는_'
'가루'
'가람'
'가라'
'가동한'
'가나'
'가격인'
'가격을_'
'가격에'
'與'
'美서_'
'社_'
'新'
'佛_'
'伊_'
'㎏ _'
'◆_'
'▶_'
'ⓒ _'
'↑""'
'⅓'
'ℓ'
'’…“_'
'~''
'| '
'vs'
'tvN_'
'rea'
'pp'
'or_'
'on'
'oi'
'og'
'nt'
'nC_'
'kt는_'
'ion'
'ing'
'in_'
'i_'
'iF_'
'f_'
'et'
'en'
'ct'
'co'
'cm_'
'ce_'
'`…'
'WC'
'VR게임_'
'VR'
'V4'
'U리그_'
'UP'
'UNIST'
'UFC'
'T모'
'TV토론'
'TV조선_'
'TV를_'
'TV가_'
'TR'
'TP'
'TH'
'T1_'
'Sh'
'ST_'
'STX조선_'
'SPC그룹'
'SPC_'
'SP'
'SK행복'
'SK텔'
'SK인천석유화학'
'SK그룹_'
'SK건설_'
'SI_'
'SGI'
'SC제일은행'
'REA'
'QR'
'Q3'
'Q1'
'PS_'
'PIT'
'PGA_'
'PA'
'OPE'
'OK저축은행'
'OE'
'OCI_'
'NS홈쇼핑_'
'NK'
'NH농협손'
'NHN엔터테인먼트'
'NHN고도'
'NC전_'
'NCS'
'MW'
'MTS'
'MM'
'MK'
'MINI'
'MB_'
'LoL_'
'LPGA투어'
'LIG넥스원_'
'LG생활건강은_'
'LG는_'
'LGD_'
'LE'
'KTX'
'KR모터스'
'KODEX'
'KIST'
'KIA전_'
'KFA_'
'KF'
'KEB하나은행은_'
'KB스타즈'
'KB손해보험'
'KB국민은행과_'
'KBL'
'KAI_'
'K3'
'JW중외제약_'
'JW중외'
'JP모'
'JD'
'IoT'
'IT기업_'
'ISU'
'IST_'
'IST'
'IR_'
'IPTV_'
'IPO'
'IO'
'IMF_'
'IE'
'ID'
'IBK투자증권은_'
'IBK투자증권'
'HUG'
'HSBC'
'HDR'
'HDC현대산업개발'
'G마'
'GS샵_'
'GS리테일_'
'GS리테일'
'GS25_'
'GC_'
'FW_'
'FS'
'FBI'
'En'
'EW'
'ESS_'
'ESPN'
'DS'
'DP'
'DNA_'
'DGB대구은행_'
'DB손해보험'
'C가_'
'Ch'
'CS_'
'CNN_'
'CJ오쇼핑'
'CA'
'B씨'
'BTS'
'BS_'
'BNK투자증권'
'BNK부산은행'
'BNK금융지주'
'BNK경남은행_'
'BC카드'
'BC_'
'AW'
'ATM'
'AP_'
'API_'
'AMS'
'AG_'
'AFP통신'
'AC밀란'
'ABL생명'
'AB'
'A3'
'?”'
'?...'
'?'_'
'?'"_'
'? '
'9회말_'
'9위'
'9원_'
'9만원'
'9단을_'
'9기_'
'9개월'
'9개'
'9900원'
'93_'
'8회말'
'8주'
'8인'
'8이'
'8월까지_'
'8연패'
'8억8'
'8분'
'8대_'
'850'
'840'
'82억'
'82년생_'
'820'
'7호_'
'7호'
'7조_'
'7일까지_'
'7시3'
'7단'
'7곳_'
'7건'
'7개월_'
'7개국'
'75억원'
'75명'
'750원_'
'72_'
'71주'
'70주년_'
'70여'
'70억_'
'700억'
'6회'
'6일'
'6연승_'
'6연'
'6배'
'6년만'
'6개월만'
'6개월간_'
'68p_'
'680'
'67만'
'675'
'66억'
'60세'
'60명_'
'60년'
'600원_'
'6000만원'
'5호'
'5주년'
'5종'
'5이닝_'
'5연승'
'5실'
'5선'
'5만_'
'5건_'
'5개사'
'5가지'
'590'
'58만'
'55분'
'55만'
'555'
'53억'
'52억'
'51만'
'5100'
'50여'
'50명'
'50만원'
'50만대'
'501'
'500여'
'500억원_'
'500만원'
'500대_'
'5000억원'
'4호'
'4천만'
'4차산업혁명'
'4주차_'
'4주년'
'4종_'
'4조원_'
'4조원'
'4조'
'4억원'
'4실점_'
'4승_'
'4분기에_'
'4번'
'4년만에_'
'4기_'
'4강에'
'48억원'
'466'
'45만'
'450원_'
'44만'
'429'
'40주'
'40명'
'40년_'
'400원_'
'400원'
'400명_'
'400만_'
'4000명'
'3조'
'3인방_'
'3방'
'3만주를_'
'3만원'
'3만명'
'3루수'
'3년여_'
'3관왕'
'3곳에'
'3개사'
'3R_'
'3700'
'36억'
'365mc'
'34년'
'33명_'
'33개_'
'31일'
'319'
'30여_'
'30만원_'
'300원'
'3000만'
'2회전'
'2형_'
'2피'
'2천만'
'2주차'
'2조원_'
'2인_'
'2인'
'2월1'
'2우B'
'2연패'
'2시'
'2분기'
'2만원'
'2만여'
'2만명_'
'2만2'
'2년간_'
'2골'
'2건'
'28억'
'28개'
'27억원_'
'275'
'2700'
'26명'
'26개'
'262'
'25일까지'
'250억'
'250만원'
'23조'
'22억'
'22만_'
'22개'
'21일까지_'
'219'
'216'
'20명'
'20개_'
'2030년'
'2023'
'2020시즌'
'2019학년도'
'2019시즌_'
'2013년'
'200원에_'
'2009년_'
'2002'
'2001년'
'2000억원'
'1학년_'
'1학기_'
'1주년을_'
'1조3'
'1조1'
'1일자'
'1인가구'
'1이'
'1의_'
'1을_'
'1억원'
'1안타_'
'1심서_'
'1세트_'
'1만명_'
'1만대_'
'1만개'
'1만8'
'1만5'
'1루'
'1등급'
'1도'
'1년새_'
'1개_'
'1개'
'19세_'
'19만'
'19개_'
'1996년_'
'192'
'18억원'
'18년2분기_'
'18개'
'180만'
'17일'
'17억_'
'16억'
'16명'
'166'
'15주년_'
'15시_'
'15분'
'15명_'
'153'
'150억원_'
'147_'
'13억_'
'13개_'
'13개'
'12억'
'12명_'
'127'
'126'
'11일'
'11명_'
'11명'
'11개월'
'10회'
'10점'
'10분_'
'10번째_'
'10번'
'10만원권_'
'10경기_'
'100주'
'100원에_'
'100원'
'100여_'
'100만명_'
'1000원'
'1000만_'
'0억원'
'0선'
'0명'
'050원'
'03_'
'00억'
'000여'
'000억원'
'000억_'
'000명_'
'/'
'.” '
'. '_'
'- '
'+''
''·'
''...'
''..'
'%↓…_'
'%·_'
'%...'
'% “_'
'"▲ _'
'""…'_'
'""···_'
'"", '
'"""'_'
'!…'
' ◇_'
' ↑'
' …'
'ｍ'
'李'
'年'
'힝'
'흡'
'흠'
'흙'
'홋'
'혔'
'헹'
'헥'
'헝'
'헛'
'헐'
'퐁'
'팁'
'튤'
'퉁'
'탭'
'콧'
'콥'
'컷'
'칫'
'춰'
'춥'
'챌'
'쯤'
'짚'
'쥔'
'젝'
'잖'
'윗'
'옮'
'씽'
'씌'
'썽'
'썬'
'싫'
'슛'
'슐'
'셨'
'샴'
'샬'
'뻗'
'붕'
'볍'
'벵'
'벙'
'뱉'
'뭘'
'뭄'
'멍'
'릎'
'른'
'뤘'
'롄'
'뜯'
'뜬'
'듈'
'돋'
'뎀'
'댈'
'늬'
'뇰'
'넵'
'냥'
'낫'
'낄'
'끗'
'끈'
'꼈'
'깡'
'깐'
'궤'
'겼'
'겔'
'갇'
'重'
'道'
'男'
'獨'
'無'
'洪'
'法'
'愛'
'展'
'印'
'㏊'
'㎝'
'◆'
'⅔'
'@'
'='
'#'
'혐'
'핼'
'퓰'
'펭'
'펍'
'팹'
'팸'
'팥'
'텅'
'탬'
'탤'
'탠'
'큘'
'퀸'
'퀀'
'쿵'
'캣'
'츰'
'찻'
'찮'
'찐'
'쩡'
'젓'
'쟉'
'잼'
'욜'
'옛'
'옌'
'엎'
'앓'
'씹'
'씰'
'쑤'
'쏴'
'쎈'
'슴'
'쉼'
'쉘'
'셧'
'섰'
'샵'
'샐'
'쁘'
'뽕'
'뻔'
'뺑'
'붓'
'볕'
'벡'
'뮨'
'릇'
'릅'
'륭'
'랬'
'랫'
'랗'
'띤'
'땠'
'딱'
'딧'
'둬'
'둑'
'댑'
'댐'
'닌'
'뉘'
'놨'
'녕'
'낱'
'뀐'
'껏'
'깊'
'긴'
'궈'
'괌'
'괄'
'곱'
'갤'
'金'
'檢'
'對'
'全'
'免'
'企'
'㎥'
'㎞'
'㈜'
'』'
'『'
'▲'
'■'
'`'
'('
'］'
'［'
'盧'
'金'
'힙'
'흰'
'헴'
'핍'
'푼'
'폼'
'펨'
'텝'
'탔'
'쾰'
'컸'
'츨'
'찼'
'찢'
'쪼'
'쩌'
'짬'
'짤'
'짙'
'죤'
'좀'
'젼'
'젖'
'잎'
'윅'
'왁'
'엥'
'씁'
'쏟'
'썼'
'싣'
'숏'
'셸'
'섶'
'섯'
'섣'
'샨'
'삽'
'뺨'
'뷸'
'멥'
'멤'
'멕'
'륨'
'룻'
'렙'
'렘'
'렀'
'뜰'
'뗐'
'듬'
'둡'
'덥'
'덟'
'닻'
'닮'
'늄'
'녘'
'넛'
'넙'
'넉'
'끽'
'꿇'
'꾹'
'꽉'
'꽂'
'껍'
'깼'
'깎'
'깁'
'긋'
'걱'
'黃'
'電'
'賞'
'甲'
'父'
'年'
'家'
'女'
'多'
'反'
'南'
'來'
'上'
'㎡'
'㈔'
'ㄷ'
'ㄱ'
'○'
'□'
'⑦'
'→'
'Ⅲ'
'‥'
'–'
'z'
']'
':'
'$'
'�'
'＞'
'＄'
'＂'
'힛'
'흩'
'헉'
'픈'
'푹'
'폿'
'폄'
'퍽'
'팰'
'틔'
'튬'
'튠'
'퉈'
'툼'
'텨'
'텟'
'텁'
'탉'
'킵'
'퀘'
'퀄'
'쿽'
'켑'
'캅'
'춧'
'쵸'
'촘'
'찹'
'찝'
'쭐'
'쫄'
'쩔'
'짖'
'즘'
'쥴'
'줏'
'좇'
'웡'
'웁'
'욘'
'옭'
'옇'
'엡'
'얽'
'얹'
'얏'
'얇'
'얄'
'쑨'
'싯'
'슘'
'쉰'
'쉑'
'숀'
'쇳'
'솝'
'셴'
'섞'
'샹'
'샛'
'뿅'
'뻑'
'봬'
'봅'
'뱀'
'밈'
'뮬'
'묵'
'며'
'맙'
'맏'
'랠'
'랙'
'랏'
'띵'
'뚝'
'또'
'뗀'
'땄'
'뎠'
'뎁'
'덧'
'닦'
'늪'
'넨'
'냠'
'낯'
'낡'
'뀔'
'꿰'
'꿋'
'꾀'
'꽈'
'껑'
'깽'
'귄'
'궜'
'굵'
'걀'
'號'
'稅'
'母'
'戰'
'尼'
'太'
'償'
'伊'
'人'
'丁'
'㎜'
'㎏'
'⑤'
'②'
'∙'
'↔'
'Ⅱ'
'Ⅰ'
'℃'
'․'
'‘'
'×'
'°'
'®'
'­'
' '
'['
')'
'･'
'＜'
'＋'
'）'
'＇'
'﻿'
'茶'
'劉'
'聯'
'흄'
'횡'
'횐'
'횃'
'홉'
'헵'
'핌'
'푯'
'폈'
'펌'
'팠'
'튿'
'퉤'
'큼'
'큠'
'큔'
'퀑'
'쿱'
'켠'
'컥'
'캉'
'췬'
'췌'
'촨'
'촛'
'첵'
'챕'
'찔'
'쩜'
'쩐'
'쩍'
'쨌'
'짭'
'짊'
'쥘'
'줜'
'줍'
'죌'
'젹'
'쟈'
'잿'
'잣'
'윔'
'웸'
'옙'
'엮'
'얘'
'앳'
'쐬'
'쐈'
'쌤'
'슝'
'쉴'
'쉠'
'숄'
'솽'
'솎'
'섐'
'삵'
'삯'
'삥'
'뽀'
'뻬'
'뻉'
'뺐'
'뺌'
'뺄'
'빽'
'빰'
'빕'
'뷴'
'붉'
'믐'
'뭍'
'몹'
'몇'
'맴'
'뤠'
'렷'
'렝'
'띔'
'뜩'
'뙤'
'떴'
'떤'
'땜'
'딪'
'딨'
'듸'
'됨'
'뎌'
'댕'
'댓'
'댁'
'닿'
'뉜'
'뇽'
'놉'
'녁'
'냇'
'냅'
'낌'
'뀨'
'뀝'
'꿎'
'꽝'
'꼰'
'껐'
'깰'
'깍'
'깅'
'긁'
'굽'
'굣'
'괭'
'곁'
'겜'
'겅'
'갸'
'靜'
'銀'
'週'
'輸'
'警'
'誌'
'詩'
'訪'
'親'
'西'
'藥'
'空'
'私'
'禍'
'社'
'癌'
'申'
'田'
'産'
'犬'
'災'
'潘'
'油'
'水'
'民'
'比'
'毒'
'正'
'核'
'本'
'最'
'曺'
'春'
'故'
'情'
'性'
'心'
'式'
'州'
'崔'
'安'
'孫'
'孟'
'子'
'外'
'士'
'國'
'司'
'化'
'動'
'加'
'兵'
'公'
'先'
'兆'
'億'
'價'
'佛'
'低'
'代'
'京'
'主'
'丙'
'㎸'
'㎢'
'㎖'
'㎓'
'㎎'
'ㅇ'
'ㅅ'
'ㅂ'
'ㄹ'
'〕'
'〔'
'】'
'〉'
'〈'
'〃'
'◀'
'▷'
'▶'
'⑥'
'③'
'⋯'
'⋅'
'≫'
'≪'
'∼'
'Ⅷ'
'™'
'※'
'″'
'•'
'―'
'​'
'´'
'}'
'|'
'{'
'q'
'j'
'<'
'팎'
'쿡'
'쿄'
'컹'
'췄'
'촬'
'챗'
'챈'
'죠'
'윕'
'웜'
'웍'
'씬'
'슷'
'숫'
'섀'
'쁨'
'뻐'
'및'
'뮌'
'뛸'
'떻'
'땐'
'딴'
'딤'
'듭'
'됩'
'눠'
'낵'
'낚'
'뀌'
'꿔'
'꼭'
'괜'
'곧'
'野'
'證'
'行'
'硏'
'百'
'發'
'株'
'弗'
'委'
'協'
'「'
'△'
'ⓒ'
'‧'
'\'
'>'
';'
